{
  "version": "1.0",
  "truncation": null,
  "padding": null,
  "added_tokens": [
    {
      "id": 0,
      "content": "[PAD]",
      "single_word": false,
      "lstrip": false,
      "rstrip": false,
      "normalized": false,
      "special": true
    },
    {
      "id": 1,
      "content": "[UNK]",
      "single_word": false,
      "lstrip": false,
      "rstrip": false,
      "normalized": false,
      "special": true
    },
    {
      "id": 2,
      "content": "[MASK]",
      "single_word": false,
      "lstrip": false,
      "rstrip": false,
      "normalized": false,
      "special": true
    },
    {
      "id": 3,
      "content": "[CLS]",
      "single_word": false,
      "lstrip": false,
      "rstrip": false,
      "normalized": false,
      "special": true
    },
    {
      "id": 4,
      "content": "[SEP]",
      "single_word": false,
      "lstrip": false,
      "rstrip": false,
      "normalized": false,
      "special": true
    }
  ],
  "normalizer": {
    "type": "Sequence",
    "normalizers": [
      {
        "type": "Nmt"
      },
      {
        "type": "NFKC"
      },
      {
        "type": "Replace",
        "pattern": {
          "Regex": " {2,}"
        },
        "content": " "
      }
    ]
  },
  "pre_tokenizer": {
    "type": "Sequence",
    "pretokenizers": [
      {
        "type": "WhitespaceSplit"
      },
      {
        "type": "Split",
        "pattern": {
          "Regex": "\\d"
        },
        "behavior": "MergedWithPrevious",
        "invert": false
      },
      {
        "type": "Punctuation",
        "behavior": "Isolated"
      }
    ]
  },
  "post_processor": {
    "type": "TemplateProcessing",
    "single": [
      {
        "SpecialToken": {
          "id": "[CLS]",
          "type_id": 0
        }
      },
      {
        "Sequence": {
          "id": "A",
          "type_id": 0
        }
      },
      {
        "SpecialToken": {
          "id": "[SEP]",
          "type_id": 0
        }
      }
    ],
    "pair": [
      {
        "SpecialToken": {
          "id": "[CLS]",
          "type_id": 0
        }
      },
      {
        "Sequence": {
          "id": "A",
          "type_id": 0
        }
      },
      {
        "SpecialToken": {
          "id": "[SEP]",
          "type_id": 0
        }
      },
      {
        "Sequence": {
          "id": "B",
          "type_id": 1
        }
      },
      {
        "SpecialToken": {
          "id": "[SEP]",
          "type_id": 1
        }
      }
    ],
    "special_tokens": {
      "[CLS]": {
        "id": "[CLS]",
        "ids": [
          3
        ],
        "tokens": [
          "[CLS]"
        ]
      },
      "[SEP]": {
        "id": "[SEP]",
        "ids": [
          4
        ],
        "tokens": [
          "[SEP]"
        ]
      }
    }
  },
  "decoder": {
    "type": "WordPiece",
    "prefix": "##",
    "cleanup": true
  },
  "model": {
    "type": "WordPiece",
    "unk_token": "[UNK]",
    "continuing_subword_prefix": "##",
    "max_input_chars_per_word": 100,
    "vocab": {
      "[PAD]": 0,
      "[UNK]": 1,
      "[MASK]": 2,
      "[CLS]": 3,
      "[SEP]": 4,
      "!": 5,
      "\"": 6,
      "#": 7,
      "$": 8,
      "%": 9,
      "&": 10,
      "'": 11,
      "(": 12,
      ")": 13,
      "*": 14,
      "+": 15,
      ",": 16,
      "-": 17,
      ".": 18,
      "/": 19,
      "0": 20,
      "1": 21,
      "2": 22,
      "3": 23,
      "4": 24,
      "5": 25,
      "6": 26,
      "7": 27,
      "8": 28,
      "9": 29,
      ":": 30,
      ";": 31,
      "=": 32,
      "?": 33,
      "@": 34,
      "A": 35,
      "B": 36,
      "C": 37,
      "D": 38,
      "E": 39,
      "F": 40,
      "G": 41,
      "H": 42,
      "I": 43,
      "J": 44,
      "K": 45,
      "L": 46,
      "M": 47,
      "N": 48,
      "O": 49,
      "P": 50,
      "Q": 51,
      "R": 52,
      "S": 53,
      "T": 54,
      "U": 55,
      "V": 56,
      "W": 57,
      "X": 58,
      "Y": 59,
      "Z": 60,
      "[": 61,
      "\\": 62,
      "]": 63,
      "^": 64,
      "_": 65,
      "`": 66,
      "a": 67,
      "b": 68,
      "c": 69,
      "d": 70,
      "e": 71,
      "f": 72,
      "g": 73,
      "h": 74,
      "i": 75,
      "j": 76,
      "k": 77,
      "l": 78,
      "m": 79,
      "n": 80,
      "o": 81,
      "p": 82,
      "q": 83,
      "r": 84,
      "s": 85,
      "t": 86,
      "u": 87,
      "v": 88,
      "w": 89,
      "x": 90,
      "y": 91,
      "z": 92,
      "{": 93,
      "|": 94,
      "}": 95,
      "~": 96,
      "": 97,
      "": 98,
      "": 99,
      "": 100,
      "": 101,
      "": 102,
      "": 103,
      "": 104,
      "¡": 105,
      "¢": 106,
      "£": 107,
      "¤": 108,
      "¥": 109,
      "¦": 110,
      "§": 111,
      "©": 112,
      "«": 113,
      "¬": 114,
      "­": 115,
      "®": 116,
      "°": 117,
      "±": 118,
      "¶": 119,
      "·": 120,
      "»": 121,
      "¿": 122,
      "À": 123,
      "Á": 124,
      "Â": 125,
      "Ã": 126,
      "Ä": 127,
      "Å": 128,
      "Æ": 129,
      "Ç": 130,
      "È": 131,
      "É": 132,
      "Ê": 133,
      "Ë": 134,
      "Ì": 135,
      "Í": 136,
      "Î": 137,
      "Ï": 138,
      "Ð": 139,
      "Ñ": 140,
      "Ò": 141,
      "Ó": 142,
      "Ô": 143,
      "Õ": 144,
      "Ö": 145,
      "×": 146,
      "Ø": 147,
      "Ù": 148,
      "Ú": 149,
      "Û": 150,
      "Ü": 151,
      "Ý": 152,
      "Þ": 153,
      "ß": 154,
      "à": 155,
      "á": 156,
      "â": 157,
      "ã": 158,
      "ä": 159,
      "å": 160,
      "æ": 161,
      "ç": 162,
      "è": 163,
      "é": 164,
      "ê": 165,
      "ë": 166,
      "ì": 167,
      "í": 168,
      "î": 169,
      "ï": 170,
      "ð": 171,
      "ñ": 172,
      "ò": 173,
      "ó": 174,
      "ô": 175,
      "õ": 176,
      "ö": 177,
      "÷": 178,
      "ø": 179,
      "ù": 180,
      "ú": 181,
      "û": 182,
      "ü": 183,
      "ý": 184,
      "þ": 185,
      "ÿ": 186,
      "Ā": 187,
      "ā": 188,
      "Ă": 189,
      "ă": 190,
      "Ą": 191,
      "ą": 192,
      "Ć": 193,
      "ć": 194,
      "Ĉ": 195,
      "ĉ": 196,
      "Ċ": 197,
      "ċ": 198,
      "Č": 199,
      "č": 200,
      "Ď": 201,
      "ď": 202,
      "Đ": 203,
      "đ": 204,
      "Ē": 205,
      "ē": 206,
      "ĕ": 207,
      "ė": 208,
      "Ę": 209,
      "ę": 210,
      "Ě": 211,
      "ě": 212,
      "Ĝ": 213,
      "ĝ": 214,
      "Ğ": 215,
      "ğ": 216,
      "Ġ": 217,
      "ġ": 218,
      "Ģ": 219,
      "ģ": 220,
      "Ĥ": 221,
      "ĥ": 222,
      "Ħ": 223,
      "ħ": 224,
      "ĩ": 225,
      "Ī": 226,
      "ī": 227,
      "ĭ": 228,
      "Į": 229,
      "į": 230,
      "İ": 231,
      "ı": 232,
      "Ĵ": 233,
      "Ķ": 234,
      "ķ": 235,
      "ĸ": 236,
      "ĺ": 237,
      "Ļ": 238,
      "ļ": 239,
      "Ľ": 240,
      "ľ": 241,
      "Ł": 242,
      "ł": 243,
      "Ń": 244,
      "ń": 245,
      "Ņ": 246,
      "ņ": 247,
      "Ň": 248,
      "ň": 249,
      "Ŋ": 250,
      "ŋ": 251,
      "Ō": 252,
      "ō": 253,
      "Ŏ": 254,
      "ŏ": 255,
      "Ő": 256,
      "ő": 257,
      "Œ": 258,
      "œ": 259,
      "Ŕ": 260,
      "ŕ": 261,
      "Ř": 262,
      "ř": 263,
      "Ś": 264,
      "ś": 265,
      "Ŝ": 266,
      "ŝ": 267,
      "Ş": 268,
      "ş": 269,
      "Š": 270,
      "š": 271,
      "Ţ": 272,
      "ţ": 273,
      "ť": 274,
      "Ŧ": 275,
      "ŧ": 276,
      "ũ": 277,
      "Ū": 278,
      "ū": 279,
      "Ŭ": 280,
      "ŭ": 281,
      "Ů": 282,
      "ů": 283,
      "Ű": 284,
      "ű": 285,
      "ų": 286,
      "Ŵ": 287,
      "ŵ": 288,
      "ŷ": 289,
      "Ÿ": 290,
      "Ź": 291,
      "ź": 292,
      "Ż": 293,
      "ż": 294,
      "Ž": 295,
      "ž": 296,
      "ƀ": 297,
      "Ɔ": 298,
      "ƈ": 299,
      "Ɖ": 300,
      "Ǝ": 301,
      "Ə": 302,
      "ƒ": 303,
      "Ɨ": 304,
      "ơ": 305,
      "ư": 306,
      "Ʒ": 307,
      "ƿ": 308,
      "ǀ": 309,
      "ǁ": 310,
      "ǂ": 311,
      "ǃ": 312,
      "ǎ": 313,
      "ǐ": 314,
      "ǒ": 315,
      "ǔ": 316,
      "ǚ": 317,
      "ǜ": 318,
      "Ǟ": 319,
      "ǟ": 320,
      "ǣ": 321,
      "Ǧ": 322,
      "ǧ": 323,
      "Ǩ": 324,
      "ǩ": 325,
      "Ǫ": 326,
      "ǫ": 327,
      "Ǵ": 328,
      "ǵ": 329,
      "Ƿ": 330,
      "ǻ": 331,
      "ǽ": 332,
      "Ǿ": 333,
      "ǿ": 334,
      "Ȁ": 335,
      "ȁ": 336,
      "Ȅ": 337,
      "ȅ": 338,
      "Ȉ": 339,
      "ȉ": 340,
      "ȏ": 341,
      "Ȕ": 342,
      "ȕ": 343,
      "Ș": 344,
      "ș": 345,
      "Ț": 346,
      "ț": 347,
      "Ȝ": 348,
      "ȝ": 349,
      "ȟ": 350,
      "ȯ": 351,
      "ȳ": 352,
      "Ⱥ": 353,
      "Ʌ": 354,
      "ɣ": 355,
      "ʹ": 356,
      "ʻ": 357,
      "ʼ": 358,
      "ʽ": 359,
      "ʾ": 360,
      "ʿ": 361,
      "ˀ": 362,
      "ˁ": 363,
      "ˆ": 364,
      "ˇ": 365,
      "ˈ": 366,
      "ˊ": 367,
      "ˌ": 368,
      "ː": 369,
      "ˮ": 370,
      "́": 371,
      "̃": 372,
      "̄": 373,
      "̆": 374,
      "̇": 375,
      "̈": 376,
      "̊": 377,
      "̧": 378,
      "μ": 379,
      "א": 380,
      "Ḉ": 381,
      "ḉ": 382,
      "ḋ": 383,
      "Ḍ": 384,
      "ḍ": 385,
      "Ḏ": 386,
      "ḏ": 387,
      "Ḑ": 388,
      "ḑ": 389,
      "ḓ": 390,
      "ḕ": 391,
      "ḗ": 392,
      "ḛ": 393,
      "ḡ": 394,
      "Ḥ": 395,
      "ḥ": 396,
      "ḧ": 397,
      "Ḩ": 398,
      "ḩ": 399,
      "Ḫ": 400,
      "ḫ": 401,
      "ḯ": 402,
      "Ḱ": 403,
      "ḱ": 404,
      "Ḳ": 405,
      "ḳ": 406,
      "ḷ": 407,
      "ṁ": 408,
      "ṃ": 409,
      "ṅ": 410,
      "ṇ": 411,
      "ṉ": 412,
      "ṑ": 413,
      "ṓ": 414,
      "ṗ": 415,
      "ṙ": 416,
      "Ṛ": 417,
      "ṛ": 418,
      "Ṟ": 419,
      "ṟ": 420,
      "Ṣ": 421,
      "ṣ": 422,
      "Ṭ": 423,
      "ṭ": 424,
      "Ṯ": 425,
      "ṯ": 426,
      "Ẓ": 427,
      "ẓ": 428,
      "Ẕ": 429,
      "ẕ": 430,
      "ẖ": 431,
      "ẗ": 432,
      "ẞ": 433,
      "ạ": 434,
      "ả": 435,
      "Ấ": 436,
      "ấ": 437,
      "ầ": 438,
      "ẩ": 439,
      "ẫ": 440,
      "ậ": 441,
      "ắ": 442,
      "ằ": 443,
      "ẳ": 444,
      "ẵ": 445,
      "Ặ": 446,
      "ặ": 447,
      "Ẹ": 448,
      "ẹ": 449,
      "ẻ": 450,
      "Ẽ": 451,
      "ẽ": 452,
      "ế": 453,
      "ề": 454,
      "ể": 455,
      "ễ": 456,
      "ệ": 457,
      "ỉ": 458,
      "ị": 459,
      "Ọ": 460,
      "ọ": 461,
      "ỏ": 462,
      "ố": 463,
      "ồ": 464,
      "ổ": 465,
      "ỗ": 466,
      "ộ": 467,
      "ớ": 468,
      "ờ": 469,
      "ở": 470,
      "ỡ": 471,
      "ợ": 472,
      "ụ": 473,
      "ủ": 474,
      "ứ": 475,
      "ừ": 476,
      "ử": 477,
      "ữ": 478,
      "ự": 479,
      "ỳ": 480,
      "Ỷ": 481,
      "ỹ": 482,
      "Ỽ": 483,
      "ỽ": 484,
      "‐": 485,
      "‒": 486,
      "–": 487,
      "—": 488,
      "―": 489,
      "‖": 490,
      "‘": 491,
      "’": 492,
      "‚": 493,
      "‛": 494,
      "“": 495,
      "”": 496,
      "„": 497,
      "‟": 498,
      "†": 499,
      "‡": 500,
      "•": 501,
      "‣": 502,
      "‰": 503,
      "‱": 504,
      "′": 505,
      "‸": 506,
      "‹": 507,
      "›": 508,
      "※": 509,
      "‽": 510,
      "⁁": 511,
      "⁂": 512,
      "⁄": 513,
      "⁠": 514,
      "₠": 515,
      "₡": 516,
      "₣": 517,
      "₤": 518,
      "₦": 519,
      "₩": 520,
      "€": 521,
      "₱": 522,
      "₽": 523,
      "℞": 524,
      "℧": 525,
      "℮": 526,
      "←": 527,
      "↑": 528,
      "→": 529,
      "↓": 530,
      "↔": 531,
      "↗": 532,
      "↘": 533,
      "↮": 534,
      "↯": 535,
      "↵": 536,
      "⇄": 537,
      "⇌": 538,
      "⇏": 539,
      "⇐": 540,
      "⇒": 541,
      "⇔": 542,
      "∀": 543,
      "∂": 544,
      "∃": 545,
      "∅": 546,
      "∆": 547,
      "∇": 548,
      "∈": 549,
      "∏": 550,
      "∑": 551,
      "−": 552,
      "∓": 553,
      "∕": 554,
      "∖": 555,
      "∗": 556,
      "∘": 557,
      "∙": 558,
      "√": 559,
      "∛": 560,
      "∜": 561,
      "∝": 562,
      "∞": 563,
      "∥": 564,
      "∧": 565,
      "∨": 566,
      "∩": 567,
      "∪": 568,
      "∫": 569,
      "∴": 570,
      "≈": 571,
      "≠": 572,
      "≡": 573,
      "≤": 574,
      "≥": 575,
      "≦": 576,
      "≧": 577,
      "⊂": 578,
      "⊃": 579,
      "⊆": 580,
      "⊕": 581,
      "⊗": 582,
      "⊙": 583,
      "⊝": 584,
      "⊞": 585,
      "⊢": 586,
      "⊥": 587,
      "⊻": 588,
      "⋀": 589,
      "⋅": 590,
      "⋮": 591,
      "⋯": 592,
      "⌀": 593,
      "⌘": 594,
      "⌥": 595,
      "⎄": 596,
      "⎷": 597,
      "⏚": 598,
      "─": 599,
      "━": 600,
      "│": 601,
      "┐": 602,
      "└": 603,
      "├": 604,
      "┼": 605,
      "╱": 606,
      "▀": 607,
      "▄": 608,
      "█": 609,
      "▌": 610,
      "■": 611,
      "□": 612,
      "▪": 613,
      "▬": 614,
      "▲": 615,
      "△": 616,
      "▶": 617,
      "►": 618,
      "▼": 619,
      "◀": 620,
      "◄": 621,
      "◆": 622,
      "◇": 623,
      "◊": 624,
      "●": 625,
      "◐": 626,
      "◑": 627,
      "◦": 628,
      "☁": 629,
      "☂": 630,
      "★": 631,
      "☆": 632,
      "☉": 633,
      "☊": 634,
      "☋": 635,
      "☍": 636,
      "☐": 637,
      "☑": 638,
      "☒": 639,
      "☞": 640,
      "☥": 641,
      "☾": 642,
      "♀": 643,
      "♂": 644,
      "♆": 645,
      "♈": 646,
      "♉": 647,
      "♊": 648,
      "♋": 649,
      "♍": 650,
      "♏": 651,
      "♐": 652,
      "♑": 653,
      "♒": 654,
      "♔": 655,
      "♕": 656,
      "♖": 657,
      "♗": 658,
      "♘": 659,
      "♙": 660,
      "♛": 661,
      "♟": 662,
      "♠": 663,
      "♣": 664,
      "♥": 665,
      "♦": 666,
      "♧": 667,
      "♪": 668,
      "♭": 669,
      "♯": 670,
      "⚓": 671,
      "⚧": 672,
      "⚬": 673,
      "⛰": 674,
      "⛲": 675,
      "⛻": 676,
      "✀": 677,
      "✁": 678,
      "✃": 679,
      "✉": 680,
      "✓": 681,
      "✕": 682,
      "❤": 683,
      "❦": 684,
      "❬": 685,
      "❭": 686,
      "❷": 687,
      "❸": 688,
      "❹": 689,
      "❺": 690,
      "❻": 691,
      "❼": 692,
      "⟨": 693,
      "⟩": 694,
      "⥽": 695,
      "⩓": 696,
      "ⱥ": 697,
      "ⱱ": 698,
      "⸮": 699,
      "⸸": 700,
      "ꜣ": 701,
      "Ꝥ": 702,
      "ꝥ": 703,
      "🇪": 704,
      "🇫": 705,
      "🇬": 706,
      "🇷": 707,
      "🇸": 708,
      "🌴": 709,
      "🍱": 710,
      "🎌": 711,
      "🏣": 712,
      "🏻": 713,
      "🏼": 714,
      "🏽": 715,
      "🏾": 716,
      "🏿": 717,
      "💐": 718,
      "🔰": 719,
      "😀": 720,
      "😂": 721,
      "😃": 722,
      "😈": 723,
      "😭": 724,
      "##n": 725,
      "##l": 726,
      "##u": 727,
      "##m": 728,
      "##i": 729,
      "##r": 730,
      "##e": 731,
      "##s": 732,
      "##ä": 733,
      "##j": 734,
      "##t": 735,
      "##a": 736,
      "##k": 737,
      "##o": 738,
      "##w": 739,
      "##d": 740,
      "##g": 741,
      "##y": 742,
      "##b": 743,
      "##p": 744,
      "##h": 745,
      "##z": 746,
      "##f": 747,
      "##ö": 748,
      "##c": 749,
      "##ú": 750,
      "##í": 751,
      "##x": 752,
      "##v": 753,
      "##ó": 754,
      "##þ": 755,
      "##å": 756,
      "##q": 757,
      "##â": 758,
      "##ě": 759,
      "##ø": 760,
      "##S": 761,
      "##ē": 762,
      "##ğ": 763,
      "##ı": 764,
      "##ō": 765,
      "##é": 766,
      "##ð": 767,
      "##æ": 768,
      "##E": 769,
      "##V": 770,
      "##ā": 771,
      "##ū": 772,
      "##R": 773,
      "##W": 774,
      "##M": 775,
      "##á": 776,
      "##õ": 777,
      "##A": 778,
      "##L": 779,
      "##Y": 780,
      "##ń": 781,
      "##T": 782,
      "##É": 783,
      "##ù": 784,
      "##ẗ": 785,
      "##č": 786,
      "##C": 787,
      "##ǫ": 788,
      "##P": 789,
      "##I": 790,
      "##ü": 791,
      "##ž": 792,
      "##N": 793,
      "##7": 794,
      "##B": 795,
      "##ł": 796,
      "##ò": 797,
      "##ñ": 798,
      "##ī": 799,
      "##ß": 800,
      "##ç": 801,
      "##è": 802,
      "##4": 803,
      "##š": 804,
      "##œ": 805,
      "##O": 806,
      "##G": 807,
      "##H": 808,
      "##ć": 809,
      "##ŋ": 810,
      "##ã": 811,
      "##3": 812,
      "##û": 813,
      "##Z": 814,
      "##K": 815,
      "##F": 816,
      "##ï": 817,
      "##J": 818,
      "##ë": 819,
      "##Å": 820,
      "##X": 821,
      "##ṉ": 822,
      "##Q": 823,
      "##U": 824,
      "##2": 825,
      "##î": 826,
      "##D": 827,
      "##à": 828,
      "##ḩ": 829,
      "##ý": 830,
      "##ŭ": 831,
      "##ŏ": 832,
      "##ř": 833,
      "##1": 834,
      "##ő": 835,
      "##­": 836,
      "##♯": 837,
      "##5": 838,
      "##ų": 839,
      "##ô": 840,
      "##ȟ": 841,
      "##ê": 842,
      "##8": 843,
      "##6": 844,
      "##⋅": 845,
      "##9": 846,
      "##ţ": 847,
      "##ÿ": 848,
      "##ş": 849,
      "##ầ": 850,
      "##ż": 851,
      "##Ä": 852,
      "##ň": 853,
      "##ṟ": 854,
      "##ț": 855,
      "##ė": 856,
      "##ą": 857,
      "##ś": 858,
      "##ș": 859,
      "##ę": 860,
      "##Ö": 861,
      "##Ø": 862,
      "##ẖ": 863,
      "##0": 864,
      "##−": 865,
      "##ď": 866,
      "##ṅ": 867,
      "##∂": 868,
      "##ă": 869,
      "##đ": 870,
      "##ḏ": 871,
      "##ů": 872,
      "##ì": 873,
      "##ĕ": 874,
      "##ẕ": 875,
      "##ņ": 876,
      "##ļ": 877,
      "##ŷ": 878,
      "##ộ": 879,
      "##ħ": 880,
      "##ḥ": 881,
      "##ű": 882,
      "##®": 883,
      "##Ž": 884,
      "##©": 885,
      "##ġ": 886,
      "##ṯ": 887,
      "##ṛ": 888,
      "##ť": 889,
      "##ź": 890,
      "##ṭ": 891,
      "##Ü": 892,
      "##ǔ": 893,
      "##ģ": 894,
      "##ċ": 895,
      "##∆": 896,
      "##ṇ": 897,
      "##ḷ": 898,
      "##ː": 899,
      "##ḑ": 900,
      "##ḯ": 901,
      "##ḍ": 902,
      "##ʼ": 903,
      "##─": 904,
      "##×": 905,
      "##ủ": 906,
      "##→": 907,
      "##£": 908,
      "##ư": 909,
      "##ợ": 910,
      "##ổ": 911,
      "##ằ": 912,
      "##Ç": 913,
      "##ľ": 914,
      "##ǁ": 915,
      "##ố": 916,
      "##ớ": 917,
      "##°": 918,
      "##ạ": 919,
      "##Ō": 920,
      "##ḫ": 921,
      "##Ú": 922,
      "##ử": 923,
      "##ị": 924,
      "##ǐ": 925,
      "##ʹ": 926,
      "##ỉ": 927,
      "##Á": 928,
      "##ṣ": 929,
      "##Ż": 930,
      "##Ñ": 931,
      "##ʻ": 932,
      "##ệ": 933,
      "##Í": 934,
      "##ả": 935,
      "##ˊ": 936,
      "##ʾ": 937,
      "##ờ": 938,
      "##ŝ": 939,
      "##Š": 940,
      "##ḱ": 941,
      "##ŵ": 942,
      "##ĭ": 943,
      "##ĩ": 944,
      "##ắ": 945,
      "##Ʌ": 946,
      "##ķ": 947,
      "##Ā": 948,
      "##İ": 949,
      "##Æ": 950,
      "##ǎ": 951,
      "##ˈ": 952,
      "##ĺ": 953,
      "##ễ": 954,
      "##ặ": 955,
      "##ǵ": 956,
      "##ǧ": 957,
      "##ấ": 958,
      "##∀": 959,
      "##≦": 960,
      "##ế": 961,
      "##ự": 962,
      "##∞": 963,
      "##🇷": 964,
      "##Ɔ": 965,
      "##ồ": 966,
      "##≥": 967,
      "##ǽ": 968,
      "##Č": 969,
      "##ụ": 970,
      "##Ć": 971,
      "##ẳ": 972,
      "##ƒ": 973,
      "##€": 974,
      "##ḋ": 975,
      "##ũ": 976,
      "##ừ": 977,
      "##ǚ": 978,
      "##ể": 979,
      "##ữ": 980,
      "##ǒ": 981,
      "##Ã": 982,
      "##¤": 983,
      "##ʿ": 984,
      "##Ẕ": 985,
      "##Ĝ": 986,
      "##ọ": 987,
      "##": 988,
      "##À": 989,
      "##ꜣ": 990,
      "##☆": 991,
      "##ȏ": 992,
      "##ẓ": 993,
      "##★": 994,
      "##ĝ": 995,
      "##Ï": 996,
      "##ḓ": 997,
      "##ơ": 998,
      "##Ľ": 999,
      "##ẵ": 1000,
      "##ậ": 1001,
      "##ǃ": 1002,
      "##ŕ": 1003,
      "##¢": 1004,
      "##ǜ": 1005,
      "##≠": 1006,
      "##ǣ": 1007,
      "##∴": 1008,
      "##∙": 1009,
      "##ṑ": 1010,
      "##ḧ": 1011,
      "##♭": 1012,
      "##ṃ": 1013,
      "##ỡ": 1014,
      "##": 1015,
      "##Đ": 1016,
      "##Ş": 1017,
      "##≡": 1018,
      "##¬": 1019,
      "##Ù": 1020,
      "##Ÿ": 1021,
      "##ȯ": 1022,
      "##ḗ": 1023,
      "##": 1024,
      "##ỳ": 1025,
      "##∅": 1026,
      "##☉": 1027,
      "##Û": 1028,
      "##≈": 1029,
      "##": 1030,
      "##ẹ": 1031,
      "##ứ": 1032,
      "##Õ": 1033,
      "##ẫ": 1034,
      "##ɣ": 1035,
      "##ˮ": 1036,
      "##┐": 1037,
      "##ề": 1038,
      "##Ì": 1039,
      "##≤": 1040,
      "##ẻ": 1041,
      "##ỹ": 1042,
      "##Ð": 1043,
      "##⊕": 1044,
      "##È": 1045,
      "##Ł": 1046,
      "##ʽ": 1047,
      "##ȳ": 1048,
      "##": 1049,
      "##": 1050,
      "##ỏ": 1051,
      "##Ó": 1052,
      "##ṗ": 1053,
      "##ḡ": 1054,
      "##₣": 1055,
      "##ẩ": 1056,
      "##━": 1057,
      "##ǩ": 1058,
      "##ȝ": 1059,
      "##ǻ": 1060,
      "##ĉ": 1061,
      "##♦": 1062,
      "##±": 1063,
      "##Ů": 1064,
      "##∈": 1065,
      "##⊙": 1066,
      "##Ẓ": 1067,
      "##Þ": 1068,
      "##¥": 1069,
      "##ỗ": 1070,
      "##ḳ": 1071,
      "##ˀ": 1072,
      "##ṓ": 1073,
      "##◀": 1074,
      "##Ǝ": 1075,
      "##ǿ": 1076,
      "##ˌ": 1077,
      "##Ə": 1078,
      "##ṁ": 1079,
      "##¦": 1080,
      "##ẽ": 1081,
      "##▬": 1082,
      "##♪": 1083,
      "##↮": 1084,
      "##÷": 1085,
      "##🇪": 1086,
      "##🇬": 1087,
      "##Ê": 1088,
      "##ở": 1089,
      "##Ṛ": 1090,
      "##Ɨ": 1091,
      "##ƀ": 1092,
      "##ŧ": 1093,
      "##Ą": 1094,
      "##█": 1095,
      "##Ë": 1096,
      "##↔": 1097,
      "##↵": 1098,
      "##ḕ": 1099,
      "##ˆ": 1100,
      "##Į": 1101,
      "##ƈ": 1102,
      "##en": 1103,
      "##er": 1104,
      "##ar": 1105,
      "##an": 1106,
      "##st": 1107,
      "##et": 1108,
      "##in": 1109,
      "är": 1110,
      "##ll": 1111,
      "##ch": 1112,
      "##de": 1113,
      "##at": 1114,
      "##om": 1115,
      "och": 1116,
      "##ör": 1117,
      "##ed": 1118,
      "##or": 1119,
      "##tt": 1120,
      "##ra": 1121,
      "##ig": 1122,
      "##on": 1123,
      "##sk": 1124,
      "##kt": 1125,
      "av": 1126,
      "##al": 1127,
      "##ad": 1128,
      "##ng": 1129,
      "##ing": 1130,
      "##el": 1131,
      "en": 1132,
      "##il": 1133,
      "##am": 1134,
      "##nd": 1135,
      "med": 1136,
      "##ade": 1137,
      "##ill": 1138,
      "den": 1139,
      "##re": 1140,
      "som": 1141,
      "för": 1142,
      "##em": 1143,
      "##är": 1144,
      "##and": 1145,
      "##un": 1146,
      "##ter": 1147,
      "##ck": 1148,
      "##id": 1149,
      "##ol": 1150,
      "##ur": 1151,
      "##ån": 1152,
      "##ste": 1153,
      "##na": 1154,
      "##is": 1155,
      "##es": 1156,
      "in": 1157,
      "till": 1158,
      "##ning": 1159,
      "##og": 1160,
      "##eter": 1161,
      "st": 1162,
      "var": 1163,
      "om": 1164,
      "##it": 1165,
      "Den": 1166,
      "på": 1167,
      "##ver": 1168,
      "##ro": 1169,
      "##ik": 1170,
      "##pp": 1171,
      "##ist": 1172,
      "##are": 1173,
      "##as": 1174,
      "##us": 1175,
      "##lig": 1176,
      "##år": 1177,
      "##ska": 1178,
      "##aden": 1179,
      "##ag": 1180,
      "##aste": 1181,
      "##nder": 1182,
      "att": 1183,
      "##ns": 1184,
      "##ud": 1185,
      "##del": 1186,
      "##li": 1187,
      "°C": 1188,
      "##kten": 1189,
      "##eder": 1190,
      "##sn": 1191,
      "##itt": 1192,
      "##eg": 1193,
      "##art": 1194,
      "##per": 1195,
      "##ion": 1196,
      "##örd": 1197,
      "##iv": 1198,
      "##börd": 1199,
      "##ederbörd": 1200,
      "##lä": 1201,
      "##av": 1202,
      "be": 1203,
      "under": 1204,
      "##if": 1205,
      "##ru": 1206,
      "de": 1207,
      "##rä": 1208,
      "##all": 1209,
      "##ot": 1210,
      "##ak": 1211,
      "ett": 1212,
      "##enom": 1213,
      "##tem": 1214,
      "ing": 1215,
      "##ger": 1216,
      "del": 1217,
      "sk": 1218,
      "##uv": 1219,
      "##atur": 1220,
      "##rakten": 1221,
      "##edel": 1222,
      "##ber": 1223,
      "fin": 1224,
      "##unt": 1225,
      "det": 1226,
      "ut": 1227,
      "##ent": 1228,
      "##ilj": 1229,
      "##äst": 1230,
      "##öd": 1231,
      "##uvud": 1232,
      "##ande": 1233,
      "ingår": 1234,
      "##land": 1235,
      "finns": 1236,
      "of": 1237,
      "##aturen": 1238,
      "##ari": 1239,
      "##peraturen": 1240,
      "##edeltem": 1241,
      "##edeltemperaturen": 1242,
      "mån": 1243,
      "huvud": 1244,
      "##att": 1245,
      "år": 1246,
      "##ut": 1247,
      "##im": 1248,
      "över": 1249,
      "##rev": 1250,
      "##ens": 1251,
      "månaden": 1252,
      "lig": 1253,
      "fr": 1254,
      "slä": 1255,
      "##snitt": 1256,
      "##le": 1257,
      "##ord": 1258,
      "##ue": 1259,
      "ligger": 1260,
      "##ia": 1261,
      "mm": 1262,
      "##amilj": 1263,
      "##um": 1264,
      "##nga": 1265,
      "##enomsnitt": 1266,
      "##os": 1267,
      "km": 1268,
      "##sta": 1269,
      "nederbörd": 1270,
      "familj": 1271,
      "##sm": 1272,
      "han": 1273,
      "##ktet": 1274,
      "familjen": 1275,
      "##ell": 1276,
      "##ul": 1277,
      "reg": 1278,
      "besk": 1279,
      "##ta": 1280,
      "##arter": 1281,
      "an": 1282,
      "##ven": 1283,
      "##ri": 1284,
      "trakten": 1285,
      "sam": 1286,
      "##revs": 1287,
      "##åd": 1288,
      "släktet": 1289,
      "##te": 1290,
      "har": 1291,
      "sy": 1292,
      "##omm": 1293,
      "land": 1294,
      "beskrevs": 1295,
      "##atal": 1296,
      "då": 1297,
      "list": 1298,
      "underarter": 1299,
      "##ife": 1300,
      "##äll": 1301,
      "##atalog": 1302,
      "Life": 1303,
      "Catalog": 1304,
      "Catalogue": 1305,
      "Inga": 1306,
      "listade": 1307,
      "##ometer": 1308,
      "##isk": 1309,
      "##ilometer": 1310,
      "##op": 1311,
      "##od": 1312,
      "kall": 1313,
      "##arna": 1314,
      "från": 1315,
      "##ic": 1316,
      "##rat": 1317,
      "##än": 1318,
      "##ades": 1319,
      "##het": 1320,
      "runt": 1321,
      "##för": 1322,
      "vid": 1323,
      "upp": 1324,
      "##sen": 1325,
      "##ef": 1326,
      "St": 1327,
      "kv": 1328,
      "meter": 1329,
      "År": 1330,
      "##ust": 1331,
      "delen": 1332,
      "##maste": 1333,
      "##pel": 1334,
      "##yg": 1335,
      "##des": 1336,
      "##ss": 1337,
      "##fter": 1338,
      "##äx": 1339,
      "##ock": 1340,
      "##orra": 1341,
      "##avet": 1342,
      "##mat": 1343,
      "##ug": 1344,
      "landet": 1345,
      "##staden": 1346,
      "Det": 1347,
      "##ort": 1348,
      "##ans": 1349,
      "##la": 1350,
      "pro": 1351,
      "##iska": 1352,
      "##ster": 1353,
      "##ien": 1354,
      "per": 1355,
      "inv": 1356,
      "##ek": 1357,
      "havet": 1358,
      "##olk": 1359,
      "##åg": 1360,
      "##eb": 1361,
      "huvudstaden": 1362,
      "##ep": 1363,
      "##ång": 1364,
      "tv": 1365,
      "##äl": 1366,
      "ar": 1367,
      "##ick": 1368,
      "##anu": 1369,
      "invån": 1370,
      "Årsm": 1371,
      "varmaste": 1372,
      "Årsmedeltemperaturen": 1373,
      "kallaste": 1374,
      "medeltemperaturen": 1375,
      "##ller": 1376,
      "regn": 1377,
      "invånare": 1378,
      "hö": 1379,
      "##ats": 1380,
      "##ov": 1381,
      "kan": 1382,
      "men": 1383,
      "##ation": 1384,
      "##yr": 1385,
      "fl": 1386,
      "##limat": 1387,
      "##anuari": 1388,
      "januari": 1389,
      "komm": 1390,
      "##ram": 1391,
      "##adrat": 1392,
      "kvadrat": 1393,
      "##ark": 1394,
      "##erna": 1395,
      "##igaste": 1396,
      "sig": 1397,
      "##imeter": 1398,
      "##kilometer": 1399,
      "kvadratkilometer": 1400,
      "sin": 1401,
      "genomsnitt": 1402,
      "mill": 1403,
      "torra": 1404,
      "millimeter": 1405,
      "##ac": 1406,
      "två": 1407,
      "##snederbörd": 1408,
      "Genomsnitt": 1409,
      "årsnederbörd": 1410,
      "torraste": 1411,
      "Genomsnittlig": 1412,
      "regnigaste": 1413,
      "##uli": 1414,
      "syd": 1415,
      "##ann": 1416,
      "##ling": 1417,
      "nord": 1418,
      "när": 1419,
      "Han": 1420,
      "##ap": 1421,
      "##ten": 1422,
      "##ost": 1423,
      "##ok": 1424,
      "##ir": 1425,
      "sj": 1426,
      "där": 1427,
      "pl": 1428,
      "##lev": 1429,
      "##sam": 1430,
      "juli": 1431,
      "##ätt": 1432,
      "##alet": 1433,
      "##ess": 1434,
      "##ant": 1435,
      "##äg": 1436,
      "hög": 1437,
      "##era": 1438,
      "##sak": 1439,
      "efter": 1440,
      "##ub": 1441,
      "##sp": 1442,
      "##vin": 1443,
      "or": 1444,
      "##se": 1445,
      "##und": 1446,
      "eller": 1447,
      "Ch": 1448,
      "##efolk": 1449,
      "##ind": 1450,
      "##son": 1451,
      "##ld": 1452,
      "##ab": 1453,
      "##ember": 1454,
      "Ar": 1455,
      "##giv": 1456,
      "##änd": 1457,
      "kon": 1458,
      "##amn": 1459,
      "##ma": 1460,
      "väst": 1461,
      "##befolk": 1462,
      "##da": 1463,
      "blev": 1464,
      "##ne": 1465,
      "##väst": 1466,
      "##äm": 1467,
      "##red": 1468,
      "tid": 1469,
      "##org": 1470,
      "##heten": 1471,
      "##ygg": 1472,
      "sp": 1473,
      "även": 1474,
      "##ae": 1475,
      "##som": 1476,
      "huvudsak": 1477,
      "##ala": 1478,
      "kommun": 1479,
      "##ningen": 1480,
      "##yck": 1481,
      "##ull": 1482,
      "Trakten": 1483,
      "##jär": 1484,
      "##ung": 1485,
      "råd": 1486,
      "##ugust": 1487,
      "hade": 1488,
      "inte": 1489,
      "##ön": 1490,
      "##end": 1491,
      "##råd": 1492,
      "##rik": 1493,
      "väx": 1494,
      "##ott": 1495,
      "##rag": 1496,
      "stör": 1497,
      "##est": 1498,
      "##skap": 1499,
      "##rå": 1500,
      "##ars": 1501,
      "sl": 1502,
      "##öl": 1503,
      "##opp": 1504,
      "##ka": 1505,
      "##ier": 1506,
      "mot": 1507,
      "##ran": 1508,
      "and": 1509,
      "föd": 1510,
      "##ligt": 1511,
      "##ionen": 1512,
      "august": 1513,
      "augusti": 1514,
      "hon": 1515,
      "råder": 1516,
      "##anska": 1517,
      "##raf": 1518,
      "##ikt": 1519,
      "provin": 1520,
      "##edan": 1521,
      "##sart": 1522,
      "##lar": 1523,
      "##sl": 1524,
      "##bet": 1525,
      "##ningarna": 1526,
      "##räng": 1527,
      "##ob": 1528,
      "ber": 1529,
      "all": 1530,
      "##mer": 1531,
      "##ild": 1532,
      "provinsen": 1533,
      "##liga": 1534,
      "##äng": 1535,
      "spel": 1536,
      "bland": 1537,
      "söd": 1538,
      "##ölj": 1539,
      "först": 1540,
      "##eck": 1541,
      "vatt": 1542,
      "##ib": 1543,
      "##sv": 1544,
      "##ära": 1545,
      "##rig": 1546,
      "närheten": 1547,
      "##oll": 1548,
      "man": 1549,
      "##oc": 1550,
      "högsta": 1551,
      "##aj": 1552,
      "##stra": 1553,
      "fram": 1554,
      "född": 1555,
      "pun": 1556,
      "andra": 1557,
      "##ring": 1558,
      "##olm": 1559,
      "##ets": 1560,
      "##erräng": 1561,
      "##ard": 1562,
      "så": 1563,
      "samt": 1564,
      "må": 1565,
      "kilometer": 1566,
      "sven": 1567,
      "##ry": 1568,
      "##errängen": 1569,
      "vil": 1570,
      "första": 1571,
      "gru": 1572,
      "##he": 1573,
      "##orr": 1574,
      "##ekt": 1575,
      "än": 1576,
      "##givningarna": 1577,
      "##man": 1578,
      "##ser": 1579,
      "##ron": 1580,
      "fick": 1581,
      "##ang": 1582,
      "##ligen": 1583,
      "##så": 1584,
      "##ät": 1585,
      "talet": 1586,
      "##den": 1587,
      "##erade": 1588,
      "##orm": 1589,
      "genom": 1590,
      "##ast": 1591,
      "##iskt": 1592,
      "##ebru": 1593,
      "Runt": 1594,
      "##aren": 1595,
      "##ningar": 1596,
      "##arl": 1597,
      "##ebruari": 1598,
      "##ika": 1599,
      "februari": 1600,
      "##oh": 1601,
      "punkten": 1602,
      "##ake": 1603,
      "##nat": 1604,
      "##ip": 1605,
      "följ": 1606,
      "##ket": 1607,
      "##ara": 1608,
      "##verig": 1609,
      "##ern": 1610,
      "ex": 1611,
      "##befolkat": 1612,
      "##rö": 1613,
      "##holm": 1614,
      "Sverig": 1615,
      "An": 1616,
      "Al": 1617,
      "best": 1618,
      "##yd": 1619,
      "kom": 1620,
      "##rådet": 1621,
      "En": 1622,
      "##ellan": 1623,
      "##ev": 1624,
      "##uni": 1625,
      "dec": 1626,
      "##ina": 1627,
      "##ec": 1628,
      "ny": 1629,
      "##ex": 1630,
      "##iss": 1631,
      "Lake": 1632,
      "##ff": 1633,
      "ock": 1634,
      "##örj": 1635,
      "namn": 1636,
      "##skog": 1637,
      "##berg": 1638,
      "##uc": 1639,
      "död": 1640,
      "stor": 1641,
      "öster": 1642,
      "##sb": 1643,
      "ver": 1644,
      "##rin": 1645,
      "De": 1646,
      "december": 1647,
      "##gen": 1648,
      "cent": 1649,
      "##yn": 1650,
      "##ass": 1651,
      "##häll": 1652,
      "##aw": 1653,
      "åt": 1654,
      "också": 1655,
      "juni": 1656,
      "##inn": 1657,
      "väster": 1658,
      "##verk": 1659,
      "sitt": 1660,
      "##alt": 1661,
      "Terrängen": 1662,
      "sv": 1663,
      "##fl": 1664,
      "##ober": 1665,
      "##sh": 1666,
      "##io": 1667,
      "##amp": 1668,
      "##tal": 1669,
      "anv": 1670,
      "gl": 1671,
      "mellan": 1672,
      "dess": 1673,
      "##igt": 1674,
      "##ett": 1675,
      "När": 1676,
      "##klimat": 1677,
      "##ningsom": 1678,
      "##riv": 1679,
      "samhäll": 1680,
      "##ering": 1681,
      "##ställ": 1682,
      "nordväst": 1683,
      "börj": 1684,
      "##ie": 1685,
      "sep": 1686,
      "##rit": 1687,
      "nära": 1688,
      "ol": 1689,
      "sedan": 1690,
      "##bl": 1691,
      "##ulle": 1692,
      "##yrk": 1693,
      "För": 1694,
      "större": 1695,
      "##ou": 1696,
      "In": 1697,
      "##ph": 1698,
      "någ": 1699,
      "centra": 1700,
      "##iga": 1701,
      "##ts": 1702,
      "##indre": 1703,
      "vär": 1704,
      "##nad": 1705,
      "##väx": 1706,
      "Sverige": 1707,
      "##öp": 1708,
      "##ay": 1709,
      "plats": 1710,
      "##ore": 1711,
      "berg": 1712,
      "##akt": 1713,
      "##pr": 1714,
      "##ors": 1715,
      "##endrag": 1716,
      "mindre": 1717,
      "Stock": 1718,
      "söder": 1719,
      "kl": 1720,
      "vattendrag": 1721,
      "##onen": 1722,
      "##tember": 1723,
      "september": 1724,
      "##ella": 1725,
      "##ym": 1726,
      "syf": 1727,
      "Sk": 1728,
      "##idae": 1729,
      "##ycket": 1730,
      "##ilm": 1731,
      "##ken": 1732,
      "Stockholm": 1733,
      "##ian": 1734,
      "annat": 1735,
      "följande": 1736,
      "okt": 1737,
      "mars": 1738,
      "maj": 1739,
      "norr": 1740,
      "nov": 1741,
      "oktober": 1742,
      "sen": 1743,
      "##iet": 1744,
      "Hon": 1745,
      "##sson": 1746,
      "##uper": 1747,
      "##ruk": 1748,
      "bygg": 1749,
      "##fatt": 1750,
      "växer": 1751,
      "##ah": 1752,
      "grund": 1753,
      "##istor": 1754,
      "##var": 1755,
      "br": 1756,
      "sydväst": 1757,
      "##pl": 1758,
      "##rop": 1759,
      "mycket": 1760,
      "bli": 1761,
      "omgivningarna": 1762,
      "##uk": 1763,
      "##yt": 1764,
      "ha": 1765,
      "##orn": 1766,
      "##råde": 1767,
      "##jor": 1768,
      "centrala": 1769,
      "Under": 1770,
      "november": 1771,
      "led": 1772,
      "arbet": 1773,
      "Om": 1774,
      "##tart": 1775,
      "##äv": 1776,
      "##aget": 1777,
      "vilket": 1778,
      "hel": 1779,
      "##ift": 1780,
      "hem": 1781,
      "##ada": 1782,
      "##ement": 1783,
      "##itet": 1784,
      "hans": 1785,
      "##enn": 1786,
      "al": 1787,
      "slut": 1788,
      "Joh": 1789,
      "svensk": 1790,
      "består": 1791,
      "utb": 1792,
      "##mar": 1793,
      "##je": 1794,
      "##ow": 1795,
      "##ata": 1796,
      "##åt": 1797,
      "##ys": 1798,
      "##ansk": 1799,
      "##ytt": 1800,
      "verk": 1801,
      "##der": 1802,
      "##ack": 1803,
      "bet": 1804,
      "##östra": 1805,
      "##ult": 1806,
      "##vis": 1807,
      "syfta": 1808,
      "åter": 1809,
      "inom": 1810,
      "##ont": 1811,
      "##res": 1812,
      "sjö": 1813,
      "##rist": 1814,
      "##åll": 1815,
      "skulle": 1816,
      "##jur": 1817,
      "##ich": 1818,
      "##awa": 1819,
      "##ong": 1820,
      "##els": 1821,
      "ty": 1822,
      "rikt": 1823,
      "ans": 1824,
      "##ård": 1825,
      "fjär": 1826,
      "inn": 1827,
      "Efter": 1828,
      "sä": 1829,
      "##ende": 1830,
      "##iver": 1831,
      "##ce": 1832,
      "Fran": 1833,
      "Kan": 1834,
      "Sp": 1835,
      "##mans": 1836,
      "ur": 1837,
      "ganska": 1838,
      "regionen": 1839,
      "##öj": 1840,
      "##up": 1841,
      "Ne": 1842,
      "mus": 1843,
      "Le": 1844,
      "stud": 1845,
      "bar": 1846,
      "##yl": 1847,
      "##igare": 1848,
      "##pril": 1849,
      "kuper": 1850,
      "##aten": 1851,
      "##kte": 1852,
      "kuperad": 1853,
      "april": 1854,
      "konst": 1855,
      "gles": 1856,
      "##rid": 1857,
      "##dag": 1858,
      "##oph": 1859,
      "delst": 1860,
      "##ana": 1861,
      "##ers": 1862,
      "##ris": 1863,
      "flera": 1864,
      "##eras": 1865,
      "##th": 1866,
      "glesbefolkat": 1867,
      "##ount": 1868,
      "nordost": 1869,
      "##samling": 1870,
      "tät": 1871,
      "##ft": 1872,
      "##lag": 1873,
      "bl": 1874,
      "senare": 1875,
      "olika": 1876,
      "Ott": 1877,
      "pol": 1878,
      "Th": 1879,
      "grä": 1880,
      "##oppen": 1881,
      "##min": 1882,
      "tre": 1883,
      "##olog": 1884,
      "utan": 1885,
      "##rog": 1886,
      "##au": 1887,
      "samhälle": 1888,
      "##nas": 1889,
      "nog": 1890,
      "##eri": 1891,
      "kun": 1892,
      "##alb": 1893,
      "sina": 1894,
      "##räd": 1895,
      "dock": 1896,
      "ant": 1897,
      "Sch": 1898,
      "jord": 1899,
      "##befolkad": 1900,
      "##hus": 1901,
      "största": 1902,
      "##ål": 1903,
      "##ök": 1904,
      "använd": 1905,
      "##öv": 1906,
      "##ium": 1907,
      "sm": 1908,
      "##nar": 1909,
      "Närmaste": 1910,
      "##smark": 1911,
      "##ras": 1912,
      "obefolkad": 1913,
      "lång": 1914,
      "detta": 1915,
      "##ving": 1916,
      "##veck": 1917,
      "##hör": 1918,
      "##erat": 1919,
      "platt": 1920,
      "huvudsakligen": 1921,
      "##ora": 1922,
      "samma": 1923,
      "##alen": 1924,
      "##ola": 1925,
      "##ons": 1926,
      "##ograf": 1927,
      "ord": 1928,
      "##tid": 1929,
      "Mar": 1930,
      "##jorde": 1931,
      "##äck": 1932,
      "##ubb": 1933,
      "klimat": 1934,
      "värld": 1935,
      "##ach": 1936,
      "rik": 1937,
      "riktning": 1938,
      "fjäril": 1939,
      "Kanada": 1940,
      "vara": 1941,
      "bild": 1942,
      "##rätt": 1943,
      "rep": 1944,
      "min": 1945,
      "Toppen": 1946,
      "Ber": 1947,
      "##ren": 1948,
      "lä": 1949,
      "gång": 1950,
      "##of": 1951,
      "##alm": 1952,
      "##agg": 1953,
      "##borg": 1954,
      "tidigare": 1955,
      "stad": 1956,
      "##ine": 1957,
      "El": 1958,
      "Par": 1959,
      "##our": 1960,
      "##älv": 1961,
      "##erar": 1962,
      "##kring": 1963,
      "läng": 1964,
      "##ius": 1965,
      "få": 1966,
      "##rott": 1967,
      "##zonen": 1968,
      "platser": 1969,
      "##änn": 1970,
      "tog": 1971,
      "##bruk": 1972,
      "området": 1973,
      "res": 1974,
      "##rod": 1975,
      "Ind": 1976,
      "##röm": 1977,
      "##oreala": 1978,
      "klimatzonen": 1979,
      "sydost": 1980,
      "##ukt": 1981,
      "kyrk": 1982,
      "##rinningsom": 1983,
      "liv": 1984,
      "Cre": 1985,
      "int": 1986,
      "##kl": 1987,
      "##iken": 1988,
      "##rad": 1989,
      "##led": 1990,
      "##nings": 1991,
      "mat": 1992,
      "La": 1993,
      "lag": 1994,
      "exem": 1995,
      "Ottawa": 1996,
      "vis": 1997,
      "##gång": 1998,
      "bes": 1999,
      "bas": 2000,
      "##sammans": 2001,
      "södra": 2002,
      "sydöstra": 2003,
      "##ire": 2004,
      "##ond": 2005,
      "##sklimat": 2006,
      "##andet": 2007,
      "fjärilsart": 2008,
      "Gu": 2009,
      "svenska": 2010,
      "##räck": 2011,
      "Ph": 2012,
      "##satt": 2013,
      "Fin": 2014,
      "tätbefolkat": 2015,
      "##erades": 2016,
      "##kon": 2017,
      "##erad": 2018,
      "nu": 2019,
      "ofta": 2020,
      "##ementet": 2021,
      "ser": 2022,
      "The": 2023,
      "norra": 2024,
      "Lac": 2025,
      "själv": 2026,
      "er": 2027,
      "##mp": 2028,
      "person": 2029,
      "##stad": 2030,
      "##skland": 2031,
      "##ica": 2032,
      "##ey": 2033,
      "##ropiskt": 2034,
      "På": 2035,
      "##håll": 2036,
      "##rar": 2037,
      "Ant": 2038,
      "##rakt": 2039,
      "omkring": 2040,
      "delstaten": 2041,
      "enligt": 2042,
      "Ut": 2043,
      "##avann": 2044,
      "##ensis": 2045,
      "Creek": 2046,
      "##eart": 2047,
      "##sätt": 2048,
      "##ial": 2049,
      "##ena": 2050,
      "##yra": 2051,
      "##yp": 2052,
      "##istri": 2053,
      "##yll": 2054,
      "tvåving": 2055,
      "mer": 2056,
      "##merik": 2057,
      "många": 2058,
      "film": 2059,
      "Sh": 2060,
      "##lem": 2061,
      "##heter": 2062,
      "##orna": 2063,
      "van": 2064,
      "##part": 2065,
      "##ingen": 2066,
      "##sa": 2067,
      "mål": 2068,
      "##gg": 2069,
      "##urop": 2070,
      "dag": 2071,
      "Vid": 2072,
      "fort": 2073,
      "öpp": 2074,
      "##eln": 2075,
      "denna": 2076,
      "tr": 2077,
      "##qu": 2078,
      "##ei": 2079,
      "##else": 2080,
      "amerik": 2081,
      "tvåvingeart": 2082,
      "##iker": 2083,
      "gjorde": 2084,
      "San": 2085,
      "##osa": 2086,
      "mest": 2087,
      "##bb": 2088,
      "förs": 2089,
      "##tern": 2090,
      "##sf": 2091,
      "utg": 2092,
      "##rum": 2093,
      "##ivers": 2094,
      "stä": 2095,
      "förb": 2096,
      "Gö": 2097,
      "kommunen": 2098,
      "##ja": 2099,
      "##rupp": 2100,
      "tillsammans": 2101,
      "Ett": 2102,
      "##sten": 2103,
      "Omgivningarna": 2104,
      "form": 2105,
      "exempel": 2106,
      "alla": 2107,
      "##lin": 2108,
      "##ct": 2109,
      "gäll": 2110,
      "##ida": 2111,
      "##stem": 2112,
      "stora": 2113,
      "tillhör": 2114,
      "ung": 2115,
      "##lad": 2116,
      "un": 2117,
      "gör": 2118,
      "##amm": 2119,
      "känd": 2120,
      "##ert": 2121,
      "##unn": 2122,
      "natur": 2123,
      "##rav": 2124,
      "jordbruk": 2125,
      "enda": 2126,
      "##skapet": 2127,
      "##äre": 2128,
      "Art": 2129,
      "##lighet": 2130,
      "pre": 2131,
      "##räm": 2132,
      "började": 2133,
      "Br": 2134,
      "US": 2135,
      "##rån": 2136,
      "Col": 2137,
      "##lö": 2138,
      "säson": 2139,
      "##nade": 2140,
      "Or": 2141,
      "ad": 2142,
      "##ke": 2143,
      "##ärn": 2144,
      "##väg": 2145,
      "##raft": 2146,
      "##slag": 2147,
      "##by": 2148,
      "församling": 2149,
      "västra": 2150,
      "##stå": 2151,
      "Väst": 2152,
      "##ommun": 2153,
      "Ge": 2154,
      "##ister": 2155,
      "utbred": 2156,
      "New": 2157,
      "Ad": 2158,
      "##råk": 2159,
      "Finland": 2160,
      "##ater": 2161,
      "bef": 2162,
      "##alv": 2163,
      "##ngel": 2164,
      "fot": 2165,
      "##ain": 2166,
      "##djur": 2167,
      "Bo": 2168,
      "hand": 2169,
      "##vär": 2170,
      "##anis": 2171,
      "##jän": 2172,
      "förek": 2173,
      "##länd": 2174,
      "##ioner": 2175,
      "##ula": 2176,
      "##iod": 2177,
      "folk": 2178,
      "##én": 2179,
      "Arten": 2180,
      "##rike": 2181,
      "Bar": 2182,
      "Fl": 2183,
      "par": 2184,
      "##arande": 2185,
      "Pro": 2186,
      "##hand": 2187,
      "USA": 2188,
      "##jör": 2189,
      "Carl": 2190,
      "dem": 2191,
      "##växter": 2192,
      "östra": 2193,
      "##äk": 2194,
      "##ationen": 2195,
      "##ström": 2196,
      "##eng": 2197,
      "##mark": 2198,
      "Per": 2199,
      "Man": 2200,
      "främ": 2201,
      "##ennes": 2202,
      "län": 2203,
      "nya": 2204,
      "##spel": 2205,
      "ch": 2206,
      "##sekt": 2207,
      "##klar": 2208,
      "##ite": 2209,
      "##nen": 2210,
      "##arbet": 2211,
      "##och": 2212,
      "##ress": 2213,
      "utveck": 2214,
      "vill": 2215,
      "##med": 2216,
      "dessa": 2217,
      "##orsk": 2218,
      "##az": 2219,
      "eg": 2220,
      "##ton": 2221,
      "ind": 2222,
      "##ea": 2223,
      "##arta": 2224,
      "prod": 2225,
      "Karl": 2226,
      "sock": 2227,
      "##ög": 2228,
      "val": 2229,
      "##elsen": 2230,
      "här": 2231,
      "musik": 2232,
      "##men": 2233,
      "##kom": 2234,
      "##ista": 2235,
      "Her": 2236,
      "histor": 2237,
      "hemib": 2238,
      "hemiboreala": 2239,
      "##iva": 2240,
      "Av": 2241,
      "Hans": 2242,
      "##lut": 2243,
      "grupp": 2244,
      "##arri": 2245,
      "Nord": 2246,
      "polit": 2247,
      "flyg": 2248,
      "utbredningsom": 2249,
      "lik": 2250,
      "el": 2251,
      "beg": 2252,
      "##lan": 2253,
      "varit": 2254,
      "Is": 2255,
      "trä": 2256,
      "gick": 2257,
      "äg": 2258,
      "Sven": 2259,
      "##jön": 2260,
      "##olan": 2261,
      "##ura": 2262,
      "jordbruksmark": 2263,
      "gen": 2264,
      "##spru": 2265,
      "##växtart": 2266,
      "början": 2267,
      "Frank": 2268,
      "honom": 2269,
      "##omb": 2270,
      "Tropiskt": 2271,
      "allt": 2272,
      "##urg": 2273,
      "##lade": 2274,
      "alb": 2275,
      "spelade": 2276,
      "##riget": 2277,
      "##rön": 2278,
      "staden": 2279,
      "kunde": 2280,
      "insekt": 2281,
      "##ii": 2282,
      "fan": 2283,
      "kat": 2284,
      "##konom": 2285,
      "##bygg": 2286,
      "vann": 2287,
      "fyra": 2288,
      "utbredningsområde": 2289,
      "inne": 2290,
      "##ings": 2291,
      "##ker": 2292,
      "förekomm": 2293,
      "kont": 2294,
      "innan": 2295,
      "##ax": 2296,
      "##rand": 2297,
      "##boll": 2298,
      "Artens": 2299,
      "##tter": 2300,
      "hos": 2301,
      "##ografi": 2302,
      "##rich": 2303,
      "##aria": 2304,
      "flytt": 2305,
      "##utom": 2306,
      "cir": 2307,
      "##lands": 2308,
      "##ner": 2309,
      "##ds": 2310,
      "##reg": 2311,
      "##jäl": 2312,
      "##rukt": 2313,
      "##ärefter": 2314,
      "Upp": 2315,
      "##net": 2316,
      "Ny": 2317,
      "fem": 2318,
      "##ace": 2319,
      "And": 2320,
      "vatten": 2321,
      "kung": 2322,
      "##ha": 2323,
      "##cent": 2324,
      "##sprung": 2325,
      "##fors": 2326,
      "fär": 2327,
      "väg": 2328,
      "##ity": 2329,
      "Sam": 2330,
      "##åde": 2331,
      "##terade": 2332,
      "All": 2333,
      "##öm": 2334,
      "te": 2335,
      "##va": 2336,
      "några": 2337,
      "ekonom": 2338,
      "Sc": 2339,
      "##las": 2340,
      "##eten": 2341,
      "##dom": 2342,
      "##arriär": 2343,
      "art": 2344,
      "namnet": 2345,
      "##ald": 2346,
      "blandskog": 2347,
      "bel": 2348,
      "Cer": 2349,
      "Ty": 2350,
      "##ank": 2351,
      "föret": 2352,
      "##ivis": 2353,
      "öv": 2354,
      "##rean": 2355,
      "##ustra": 2356,
      "##atus": 2357,
      "##ellt": 2358,
      "Dan": 2359,
      "Am": 2360,
      "delt": 2361,
      "medlem": 2362,
      "sträck": 2363,
      "##ones": 2364,
      "##pelare": 2365,
      "##yc": 2366,
      "##minist": 2367,
      "##ärk": 2368,
      "##band": 2369,
      "##ävling": 2370,
      "Hels": 2371,
      "##ator": 2372,
      "##jö": 2373,
      "##teborg": 2374,
      "Helsing": 2375,
      "fanns": 2376,
      "mark": 2377,
      "Klimat": 2378,
      "skalb": 2379,
      "##rogram": 2380,
      "##orb": 2381,
      "skalbagg": 2382,
      "##alis": 2383,
      "verksam": 2384,
      "Detta": 2385,
      "Göteborg": 2386,
      "barn": 2387,
      "vin": 2388,
      "re": 2389,
      "hela": 2390,
      "milj": 2391,
      "Pol": 2392,
      "son": 2393,
      "ska": 2394,
      "##ugor": 2395,
      "##oma": 2396,
      "##van": 2397,
      "Qu": 2398,
      "##ret": 2399,
      "##ition": 2400,
      "##ile": 2401,
      "##iz": 2402,
      "års": 2403,
      "akt": 2404,
      "##ide": 2405,
      "##han": 2406,
      "ort": 2407,
      "öst": 2408,
      "Un": 2409,
      "##bo": 2410,
      "ställ": 2411,
      "omgiv": 2412,
      "gav": 2413,
      "väl": 2414,
      "Ed": 2415,
      "off": 2416,
      "##fördes": 2417,
      "##lac": 2418,
      "ursprung": 2419,
      "tur": 2420,
      "von": 2421,
      "läm": 2422,
      "gällande": 2423,
      "##upp": 2424,
      "Till": 2425,
      "Europ": 2426,
      "##bar": 2427,
      "##cher": 2428,
      "##ric": 2429,
      "lå": 2430,
      "##sför": 2431,
      "##aka": 2432,
      "tem": 2433,
      "både": 2434,
      "växt": 2435,
      "kommer": 2436,
      "fil": 2437,
      "##ustrali": 2438,
      "##naden": 2439,
      "blir": 2440,
      "##tes": 2441,
      "##illa": 2442,
      "##uss": 2443,
      "Savann": 2444,
      "distri": 2445,
      "##ops": 2446,
      "Savannklimat": 2447,
      "Öster": 2448,
      "by": 2449,
      "##flugor": 2450,
      "cirka": 2451,
      "##yrka": 2452,
      "##nan": 2453,
      "##ationer": 2454,
      "##ighet": 2455,
      "part": 2456,
      "##iam": 2457,
      "författ": 2458,
      "Söd": 2459,
      "##af": 2460,
      "##partementet": 2461,
      "##lor": 2462,
      "##egor": 2463,
      "går": 2464,
      "org": 2465,
      "Jak": 2466,
      "univers": 2467,
      "##ministrat": 2468,
      "riks": 2469,
      "##pt": 2470,
      "dom": 2471,
      "##terna": 2472,
      "Be": 2473,
      "mod": 2474,
      "Bras": 2475,
      "bara": 2476,
      "Ol": 2477,
      "skog": 2478,
      "uppg": 2479,
      "##form": 2480,
      "Del": 2481,
      "##app": 2482,
      "##ingar": 2483,
      "##änt": 2484,
      "rad": 2485,
      "##ej": 2486,
      "##ode": 2487,
      "hus": 2488,
      "rätt": 2489,
      "uppt": 2490,
      "##mi": 2491,
      "förekommer": 2492,
      "släkte": 2493,
      "lj": 2494,
      "omfatt": 2495,
      "##rom": 2496,
      "skriv": 2497,
      "##its": 2498,
      "släpp": 2499,
      "##ish": 2500,
      "viss": 2501,
      "period": 2502,
      "##ogram": 2503,
      "##ternation": 2504,
      "sn": 2505,
      "används": 2506,
      "##blad": 2507,
      "äld": 2508,
      "##uld": 2509,
      "##orge": 2510,
      "hennes": 2511,
      "##idan": 2512,
      "tal": 2513,
      "Mount": 2514,
      "##otter": 2515,
      "##ubl": 2516,
      "##stånd": 2517,
      "före": 2518,
      "##old": 2519,
      "Dess": 2520,
      "##köp": 2521,
      "skalbaggsart": 2522,
      "bu": 2523,
      "svamp": 2524,
      "##olf": 2525,
      "plan": 2526,
      "##oss": 2527,
      "##out": 2528,
      "arten": 2529,
      "##skil": 2530,
      "något": 2531,
      "##ask": 2532,
      "skap": 2533,
      "låg": 2534,
      "##talien": 2535,
      "Johan": 2536,
      "##rinningsområdet": 2537,
      "Med": 2538,
      "sång": 2539,
      "##agn": 2540,
      "Frankrike": 2541,
      "bok": 2542,
      "##orp": 2543,
      "kvinn": 2544,
      "prof": 2545,
      "##sy": 2546,
      "##rim": 2547,
      "lär": 2548,
      "##ckt": 2549,
      "insektsart": 2550,
      "inga": 2551,
      "##ände": 2552,
      "##iel": 2553,
      "po": 2554,
      "TV": 2555,
      "rel": 2556,
      "##use": 2557,
      "##ander": 2558,
      "Hen": 2559,
      "Medel": 2560,
      "ön": 2561,
      "##atan": 2562,
      "amp": 2563,
      "##oner": 2564,
      "##ila": 2565,
      "##met": 2566,
      "övrig": 2567,
      "##irekt": 2568,
      "Arean": 2569,
      "sydlig": 2570,
      "Australi": 2571,
      "Histor": 2572,
      "##kar": 2573,
      "##ita": 2574,
      "socken": 2575,
      "löv": 2576,
      "##rade": 2577,
      "rom": 2578,
      "##ix": 2579,
      "##eh": 2580,
      "##ler": 2581,
      "##lex": 2582,
      "departementet": 2583,
      "Klimatet": 2584,
      "amerikansk": 2585,
      "samman": 2586,
      "##ath": 2587,
      "##indel": 2588,
      "Eng": 2589,
      "änd": 2590,
      "##ge": 2591,
      "##ägen": 2592,
      "##lägg": 2593,
      "album": 2594,
      "kort": 2595,
      "sträcker": 2596,
      "##ox": 2597,
      "inneb": 2598,
      "Cerro": 2599,
      "Bred": 2600,
      "##öt": 2601,
      "antalet": 2602,
      "##ält": 2603,
      "endast": 2604,
      "ned": 2605,
      "##svar": 2606,
      "får": 2607,
      "##unkt": 2608,
      "##ivt": 2609,
      "##ork": 2610,
      "därefter": 2611,
      "vikt": 2612,
      "små": 2613,
      "Bu": 2614,
      "egen": 2615,
      "Bro": 2616,
      "##ekn": 2617,
      "medan": 2618,
      "sätt": 2619,
      "##eringen": 2620,
      "##amb": 2621,
      "##gård": 2622,
      "ob": 2623,
      "##hav": 2624,
      "tro": 2625,
      "##ästa": 2626,
      "##als": 2627,
      "komp": 2628,
      "omgivande": 2629,
      "fotboll": 2630,
      "##ith": 2631,
      "deras": 2632,
      "bak": 2633,
      "##oth": 2634,
      "##bild": 2635,
      "John": 2636,
      "Ste": 2637,
      "##co": 2638,
      "tjän": 2639,
      "Helsingfors": 2640,
      "##ultur": 2641,
      "Will": 2642,
      "Indones": 2643,
      "antal": 2644,
      "##erande": 2645,
      "engel": 2646,
      "##eph": 2647,
      "##rea": 2648,
      "basen": 2649,
      "västlig": 2650,
      "##åda": 2651,
      "sex": 2652,
      "##roduc": 2653,
      "ger": 2654,
      "Indonesien": 2655,
      "num": 2656,
      "Gun": 2657,
      "##aceae": 2658,
      "le": 2659,
      "hjäl": 2660,
      "Mex": 2661,
      "##eller": 2662,
      "##ux": 2663,
      "##öll": 2664,
      "##lic": 2665,
      "##förande": 2666,
      "tot": 2667,
      "##ekel": 2668,
      "ner": 2669,
      "Bi": 2670,
      "##ött": 2671,
      "terrängen": 2672,
      "Mon": 2673,
      "universitet": 2674,
      "Tyskland": 2675,
      "##ins": 2676,
      "Från": 2677,
      "##amot": 2678,
      "mil": 2679,
      "Har": 2680,
      "växtlighet": 2681,
      "natt": 2682,
      "Re": 2683,
      "krä": 2684,
      "##rif": 2685,
      "tillb": 2686,
      "sjön": 2687,
      "##sc": 2688,
      "säsongen": 2689,
      "Bl": 2690,
      "##äs": 2691,
      "pop": 2692,
      "##ådes": 2693,
      "##amla": 2694,
      "fast": 2695,
      "männ": 2696,
      "Sveriges": 2697,
      "Pa": 2698,
      "far": 2699,
      "Jakarta": 2700,
      "##ice": 2701,
      "Bredden": 2702,
      "ingen": 2703,
      "lok": 2704,
      "kor": 2705,
      "nation": 2706,
      "Kommun": 2707,
      "##che": 2708,
      "##etenskap": 2709,
      "##rut": 2710,
      "##ham": 2711,
      "##elm": 2712,
      "profess": 2713,
      "bergig": 2714,
      "Sm": 2715,
      "fisk": 2716,
      "skrev": 2717,
      "Ag": 2718,
      "##öst": 2719,
      "la": 2720,
      "Som": 2721,
      "##djursart": 2722,
      "##onst": 2723,
      "##int": 2724,
      "slutet": 2725,
      "He": 2726,
      "stort": 2727,
      "Mel": 2728,
      "främst": 2729,
      "Ser": 2730,
      "möj": 2731,
      "Car": 2732,
      "##gar": 2733,
      "##äxter": 2734,
      "##ive": 2735,
      "Co": 2736,
      "sista": 2737,
      "sub": 2738,
      "##bund": 2739,
      "start": 2740,
      "kategor": 2741,
      "II": 2742,
      "##ropp": 2743,
      "delar": 2744,
      "Ander": 2745,
      "##råden": 2746,
      "##rek": 2747,
      "##bol": 2748,
      "##ritann": 2749,
      "##ides": 2750,
      "##ändes": 2751,
      "köp": 2752,
      "##när": 2753,
      "inneh": 2754,
      "##ående": 2755,
      "##iden": 2756,
      "##me": 2757,
      "##över": 2758,
      "åren": 2759,
      "##vit": 2760,
      "Storb": 2761,
      "##amer": 2762,
      "##ago": 2763,
      "ta": 2764,
      "##ban": 2765,
      "##lat": 2766,
      "administrat": 2767,
      "öppet": 2768,
      "##ipp": 2769,
      "Kung": 2770,
      "Storbritann": 2771,
      "##uell": 2772,
      "##iat": 2773,
      "Ma": 2774,
      "##umb": 2775,
      "mitt": 2776,
      "Lund": 2777,
      "##ymp": 2778,
      "##äxtart": 2779,
      "##istan": 2780,
      "Reg": 2781,
      "läg": 2782,
      "##utt": 2783,
      "sär": 2784,
      "##nt": 2785,
      "##räns": 2786,
      "##ral": 2787,
      "##una": 2788,
      "##stället": 2789,
      "Ex": 2790,
      "stekel": 2791,
      "Stockholms": 2792,
      "stat": 2793,
      "program": 2794,
      "id": 2795,
      "deb": 2796,
      "##grupp": 2797,
      "vilken": 2798,
      "fall": 2799,
      "eftersom": 2800,
      "Lond": 2801,
      "##agen": 2802,
      "god": 2803,
      "kvar": 2804,
      "the": 2805,
      "lite": 2806,
      "Mad": 2807,
      "##lades": 2808,
      "##serv": 2809,
      "##bland": 2810,
      "stekelart": 2811,
      "##åller": 2812,
      "gener": 2813,
      "##slä": 2814,
      "nor": 2815,
      "##ya": 2816,
      "Kal": 2817,
      "ge": 2818,
      "någon": 2819,
      "järn": 2820,
      "redan": 2821,
      "##skolan": 2822,
      "Enligt": 2823,
      "##igheter": 2824,
      "##ås": 2825,
      "halv": 2826,
      "personer": 2827,
      "sydvästra": 2828,
      "Christ": 2829,
      "låt": 2830,
      "ekonomiska": 2831,
      "##järt": 2832,
      "britt": 2833,
      "do": 2834,
      "ark": 2835,
      "Svenska": 2836,
      "skådes": 2837,
      "##ske": 2838,
      "klubb": 2839,
      "kallas": 2840,
      "medel": 2841,
      "gången": 2842,
      "count": 2843,
      "spec": 2844,
      "hot": 2845,
      "fler": 2846,
      "Af": 2847,
      "##orter": 2848,
      "##jer": 2849,
      "samband": 2850,
      "met": 2851,
      "rör": 2852,
      "London": 2853,
      "##port": 2854,
      "##for": 2855,
      "Ac": 2856,
      "em": 2857,
      "Mo": 2858,
      "##amen": 2859,
      "bi": 2860,
      "Ro": 2861,
      "kap": 2862,
      "##ón": 2863,
      "##ille": 2864,
      "##steklar": 2865,
      "Storbritannien": 2866,
      "##one": 2867,
      "du": 2868,
      "##kel": 2869,
      "##ligare": 2870,
      "människ": 2871,
      "divis": 2872,
      "##UC": 2873,
      "allm": 2874,
      "beh": 2875,
      "##äd": 2876,
      "soc": 2877,
      "Jos": 2878,
      "##chen": 2879,
      "Ver": 2880,
      "tiden": 2881,
      "temper": 2882,
      "##rades": 2883,
      "##näm": 2884,
      "##cia": 2885,
      "nordöstra": 2886,
      "##ilien": 2887,
      "Ab": 2888,
      "ang": 2889,
      "hur": 2890,
      "##ynd": 2891,
      "Malm": 2892,
      "##iella": 2893,
      "IUC": 2894,
      "##träd": 2895,
      "IUCN": 2896,
      "##ca": 2897,
      "##jort": 2898,
      "Australien": 2899,
      "Klad": 2900,
      "idag": 2901,
      "##enter": 2902,
      "tred": 2903,
      "Con": 2904,
      "##äss": 2905,
      "##ij": 2906,
      "##bert": 2907,
      "Kladogram": 2908,
      "Sv": 2909,
      "##drag": 2910,
      "seg": 2911,
      "Erik": 2912,
      "##arkt": 2913,
      "##ernas": 2914,
      "Rh": 2915,
      "sak": 2916,
      "lövskog": 2917,
      "Film": 2918,
      "Syd": 2919,
      "AB": 2920,
      "##anien": 2921,
      "sjuk": 2922,
      "Norr": 2923,
      "Hel": 2924,
      "##lek": 2925,
      "helt": 2926,
      "lyck": 2927,
      "##ått": 2928,
      "##elser": 2929,
      "tyska": 2930,
      "tillverk": 2931,
      "##itut": 2932,
      "Wil": 2933,
      "##änder": 2934,
      "##sala": 2935,
      "##plats": 2936,
      "##roll": 2937,
      "##anth": 2938,
      "deltog": 2939,
      "##ley": 2940,
      "Lind": 2941,
      "organis": 2942,
      "krig": 2943,
      "##ologi": 2944,
      "##pa": 2945,
      "vissa": 2946,
      "buskland": 2947,
      "Berg": 2948,
      "##fin": 2949,
      "busklandskap": 2950,
      "##liv": 2951,
      "##rund": 2952,
      "##smarker": 2953,
      "##alk": 2954,
      "##amnet": 2955,
      "milit": 2956,
      "##ament": 2957,
      "gamla": 2958,
      "direkt": 2959,
      "guld": 2960,
      "##plan": 2961,
      "##iserar": 2962,
      "##ua": 2963,
      "gift": 2964,
      "båda": 2965,
      "bruk": 2966,
      "inst": 2967,
      "framför": 2968,
      "##ader": 2969,
      "##sst": 2970,
      "tit": 2971,
      "gräsmarker": 2972,
      "##ism": 2973,
      "##satte": 2974,
      "##omin": 2975,
      "byggnad": 2976,
      "##par": 2977,
      "bra": 2978,
      "##rafik": 2979,
      "##sch": 2980,
      "kraft": 2981,
      "därför": 2982,
      "samhällen": 2983,
      "Krist": 2984,
      "##itekt": 2985,
      "##aler": 2986,
      "##anden": 2987,
      "##hi": 2988,
      "##äster": 2989,
      "utbild": 2990,
      "varje": 2991,
      "##skriget": 2992,
      "gräns": 2993,
      "istället": 2994,
      "##mann": 2995,
      "##fall": 2996,
      "##fäll": 2997,
      "dotter": 2998,
      "##fär": 2999,
      "ytter": 3000,
      "##artyg": 3001,
      "se": 3002,
      "Fred": 3003,
      "##ale": 3004,
      "##ident": 3005,
      "byggdes": 3006,
      "mons": 3007,
      "forsk": 3008,
      "Uppsala": 3009,
      "utgör": 3010,
      "Que": 3011,
      "##igen": 3012,
      "##ga": 3013,
      "##rän": 3014,
      "##enne": 3015,
      "inför": 3016,
      "monsun": 3017,
      "##landsklimat": 3018,
      "håll": 3019,
      "##igh": 3020,
      "bil": 3021,
      "hör": 3022,
      "##ogs": 3023,
      "monsunklimat": 3024,
      "England": 3025,
      "##ho": 3026,
      "Se": 3027,
      "##ös": 3028,
      "##err": 3029,
      "Kar": 3030,
      "Peter": 3031,
      "##vatt": 3032,
      "Sy": 3033,
      "##rika": 3034,
      "Des": 3035,
      "Lin": 3036,
      "##äckt": 3037,
      "kulle": 3038,
      "Antalet": 3039,
      "##ros": 3040,
      "betyd": 3041,
      "##ona": 3042,
      "ork": 3043,
      "styr": 3044,
      "Em": 3045,
      "und": 3046,
      "öken": 3047,
      "Sant": 3048,
      "area": 3049,
      "produc": 3050,
      "roll": 3051,
      "countyt": 3052,
      "William": 3053,
      "##ure": 3054,
      "Er": 3055,
      "##ården": 3056,
      "Mari": 3057,
      "VM": 3058,
      "##val": 3059,
      "utt": 3060,
      "kallt": 3061,
      "##huvud": 3062,
      "avg": 3063,
      "Mor": 3064,
      "Kommunen": 3065,
      "fle": 3066,
      "kring": 3067,
      "##gent": 3068,
      "framgång": 3069,
      "##ira": 3070,
      "fri": 3071,
      "##ept": 3072,
      "landskapet": 3073,
      "Biografi": 3074,
      "blivit": 3075,
      "Denna": 3076,
      "##atet": 3077,
      "vidare": 3078,
      "am": 3079,
      "##nes": 3080,
      "kyrkan": 3081,
      "dra": 3082,
      "red": 3083,
      "##sg": 3084,
      "##cis": 3085,
      "regnskog": 3086,
      "##ico": 3087,
      "##ublic": 3088,
      "fått": 3089,
      "medverk": 3090,
      "plac": 3091,
      "kyrka": 3092,
      "for": 3093,
      "##ryck": 3094,
      "##ening": 3095,
      "##okrat": 3096,
      "##bin": 3097,
      "ry": 3098,
      "Wal": 3099,
      "Men": 3100,
      "avsl": 3101,
      "##efär": 3102,
      "äldre": 3103,
      "Där": 3104,
      "##cker": 3105,
      "##delen": 3106,
      "näst": 3107,
      "sc": 3108,
      "##arnas": 3109,
      "karriär": 3110,
      "internation": 3111,
      "ak": 3112,
      "Alger": 3113,
      "Även": 3114,
      "##idé": 3115,
      "##oden": 3116,
      "länder": 3117,
      "Rom": 3118,
      "vad": 3119,
      "##uvarande": 3120,
      "vilka": 3121,
      "ökenklimat": 3122,
      "ele": 3123,
      "kategoriserar": 3124,
      "Cl": 3125,
      "gif": 3126,
      "lever": 3127,
      "produkt": 3128,
      "##nande": 3129,
      "rev": 3130,
      "savann": 3131,
      "Paris": 3132,
      "##uter": 3133,
      "fråg": 3134,
      "##seud": 3135,
      "växtart": 3136,
      "##ppklimat": 3137,
      "totalt": 3138,
      "utanför": 3139,
      "bildades": 3140,
      "##skola": 3141,
      "Sedan": 3142,
      "Fri": 3143,
      "##komm": 3144,
      "sten": 3145,
      "##dseg": 3146,
      "tex": 3147,
      "städseg": 3148,
      "tysk": 3149,
      "gånger": 3150,
      "##erg": 3151,
      "Po": 3152,
      "Gl": 3153,
      "flyttade": 3154,
      "##ydd": 3155,
      "träd": 3156,
      "ben": 3157,
      "##itter": 3158,
      "Te": 3159,
      "##bergs": 3160,
      "boreala": 3161,
      "filmen": 3162,
      "näm": 3163,
      "prakt": 3164,
      "Ha": 3165,
      "band": 3166,
      "##märk": 3167,
      "riksdag": 3168,
      "Tim": 3169,
      "tillbaka": 3170,
      "##aga": 3171,
      "Ko": 3172,
      "##rinningsområde": 3173,
      "##br": 3174,
      "orkidé": 3175,
      "##hor": 3176,
      "##ågs": 3177,
      "städsegrön": 3178,
      "##jen": 3179,
      "ledamot": 3180,
      "ca": 3181,
      "##ood": 3182,
      "kultur": 3183,
      "ordförande": 3184,
      "Pe": 3185,
      "delas": 3186,
      "klass": 3187,
      "somm": 3188,
      "City": 3189,
      "tävling": 3190,
      "##oni": 3191,
      "Danmark": 3192,
      "##atsen": 3193,
      "arm": 3194,
      "konstnär": 3195,
      "##ästare": 3196,
      "##eta": 3197,
      "##ori": 3198,
      "Tid": 3199,
      "##éb": 3200,
      "##vent": 3201,
      "bor": 3202,
      "särskil": 3203,
      "Chile": 3204,
      "##za": 3205,
      "##ict": 3206,
      "henne": 3207,
      "amerikanska": 3208,
      "##järn": 3209,
      "uts": 3210,
      "naturlig": 3211,
      "regnskogsklimat": 3212,
      "hitt": 3213,
      "##her": 3214,
      "hjälp": 3215,
      "lev": 3216,
      "kron": 3217,
      "##fer": 3218,
      "Bra": 3219,
      "spindel": 3220,
      "göra": 3221,
      "kallade": 3222,
      "full": 3223,
      "jäm": 3224,
      "##andra": 3225,
      "system": 3226,
      "##istiska": 3227,
      "Brasilien": 3228,
      "Tor": 3229,
      "##äder": 3230,
      "kunna": 3231,
      "##anc": 3232,
      "djur": 3233,
      "Dav": 3234,
      "serien": 3235,
      "annan": 3236,
      "Lu": 3237,
      "sna": 3238,
      "##skan": 3239,
      "##handling": 3240,
      "tredje": 3241,
      "des": 3242,
      "##omp": 3243,
      "sing": 3244,
      "##senter": 3245,
      "kör": 3246,
      "##erv": 3247,
      "mosa": 3248,
      "innebär": 3249,
      "nordvästra": 3250,
      "vän": 3251,
      "##ash": 3252,
      "##ama": 3253,
      "##iens": 3254,
      "Spanien": 3255,
      "Pet": 3256,
      "Paul": 3257,
      "pres": 3258,
      "public": 3259,
      "kol": 3260,
      "röd": 3261,
      "Je": 3262,
      "##kn": 3263,
      "##helm": 3264,
      "Mart": 3265,
      "tempererat": 3266,
      "beslut": 3267,
      "popul": 3268,
      "##arm": 3269,
      "chef": 3270,
      "##avrinningsområde": 3271,
      "##vi": 3272,
      "ungefär": 3273,
      "##sd": 3274,
      "##lia": 3275,
      "Inlandsklimat": 3276,
      "##itz": 3277,
      "längd": 3278,
      "spelar": 3279,
      "##kare": 3280,
      "oper": 3281,
      "anställ": 3282,
      "Gunung": 3283,
      "sol": 3284,
      "##iten": 3285,
      "##adel": 3286,
      "prä": 3287,
      "studerade": 3288,
      "distriktet": 3289,
      "##apen": 3290,
      "nuvarande": 3291,
      "förm": 3292,
      "mosaik": 3293,
      "Kl": 3294,
      "##burg": 3295,
      "##ward": 3296,
      "äm": 3297,
      "engelska": 3298,
      "bästa": 3299,
      "Charl": 3300,
      "allmän": 3301,
      "teck": 3302,
      "stäppklimat": 3303,
      "Sa": 3304,
      "##yrkan": 3305,
      "offic": 3306,
      "##vid": 3307,
      "ledde": 3308,
      "##avs": 3309,
      "nytt": 3310,
      "Sjön": 3311,
      "York": 3312,
      "glob": 3313,
      "syn": 3314,
      "stöd": 3315,
      "Mus": 3316,
      "Europa": 3317,
      "##lats": 3318,
      "##jekt": 3319,
      "Medelhav": 3320,
      "##ider": 3321,
      "##landet": 3322,
      "ljus": 3323,
      "samtid": 3324,
      "Ry": 3325,
      "företag": 3326,
      "säg": 3327,
      "Land": 3328,
      "släpptes": 3329,
      "##ören": 3330,
      "##blem": 3331,
      "Québ": 3332,
      "##ektar": 3333,
      "typ": 3334,
      "##farande": 3335,
      "Québec": 3336,
      "Cent": 3337,
      "berätt": 3338,
      "Avrinningsområdet": 3339,
      "At": 3340,
      "##off": 3341,
      "administrativ": 3342,
      "##album": 3343,
      "##miär": 3344,
      "Malmö": 3345,
      "We": 3346,
      "##ceae": 3347,
      "##adem": 3348,
      "Ing": 3349,
      "##staf": 3350,
      "Historia": 3351,
      "##iko": 3352,
      "##ågel": 3353,
      "snabb": 3354,
      "Bland": 3355,
      "miljoner": 3356,
      "ter": 3357,
      "Italien": 3358,
      "##ammar": 3359,
      "bort": 3360,
      "Johann": 3361,
      "språk": 3362,
      "bö": 3363,
      "##ländska": 3364,
      "arbetade": 3365,
      "författare": 3366,
      "räk": 3367,
      "Bur": 3368,
      "Tur": 3369,
      "rek": 3370,
      "vers": 3371,
      "flesta": 3372,
      "Nil": 3373,
      "##otten": 3374,
      "##arp": 3375,
      "mon": 3376,
      "skiv": 3377,
      "franska": 3378,
      "Ros": 3379,
      "Medelhavsklimat": 3380,
      "Mal": 3381,
      "##bro": 3382,
      "##ies": 3383,
      "##varande": 3384,
      "krit": 3385,
      "et": 3386,
      "##under": 3387,
      "SM": 3388,
      "kant": 3389,
      "##följ": 3390,
      "##ilver": 3391,
      "Sl": 3392,
      "Sim": 3393,
      "##ias": 3394,
      "Hall": 3395,
      "tekn": 3396,
      "kända": 3397,
      "ytterligare": 3398,
      "##ario": 3399,
      "kval": 3400,
      "##osit": 3401,
      "olymp": 3402,
      "hektar": 3403,
      "##jord": 3404,
      "tjänst": 3405,
      "##ole": 3406,
      "##kan": 3407,
      "Colomb": 3408,
      "##bart": 3409,
      "##veckling": 3410,
      "##unds": 3411,
      "##mask": 3412,
      "slutade": 3413,
      "ins": 3414,
      "##jut": 3415,
      "##onia": 3416,
      "rum": 3417,
      "Lag": 3418,
      "inled": 3419,
      "ibland": 3420,
      "Mich": 3421,
      "övrigt": 3422,
      "##ument": 3423,
      "Dessa": 3424,
      "längre": 3425,
      "repre": 3426,
      "bed": 3427,
      "##uren": 3428,
      "mät": 3429,
      "##fr": 3430,
      "Norra": 3431,
      "##abrik": 3432,
      "höj": 3433,
      "Alex": 3434,
      "därmed": 3435,
      "##nades": 3436,
      "##orth": 3437,
      "varier": 3438,
      "##ino": 3439,
      "##årt": 3440,
      "##iana": 3441,
      "##roc": 3442,
      "##dem": 3443,
      "fortfarande": 3444,
      "##ene": 3445,
      "##vern": 3446,
      "##jud": 3447,
      "Vär": 3448,
      "##nal": 3449,
      "##äkt": 3450,
      "Mac": 3451,
      "##åren": 3452,
      "Norge": 3453,
      "Lou": 3454,
      "Tro": 3455,
      "##äns": 3456,
      "bro": 3457,
      "Nation": 3458,
      "Mc": 3459,
      "##rift": 3460,
      "##eth": 3461,
      "##age": 3462,
      "##iner": 3463,
      "##omas": 3464,
      "barr": 3465,
      "##lopp": 3466,
      "##sättning": 3467,
      "##gren": 3468,
      "året": 3469,
      "##ämt": 3470,
      "innehåller": 3471,
      "måste": 3472,
      "slott": 3473,
      "strid": 3474,
      "arkitekt": 3475,
      "##huset": 3476,
      "utveckling": 3477,
      "stads": 3478,
      "##omy": 3479,
      "bid": 3480,
      "divisionen": 3481,
      "förv": 3482,
      "gu": 3483,
      "Cal": 3484,
      "##ani": 3485,
      "##öld": 3486,
      "vars": 3487,
      "sål": 3488,
      "samarbet": 3489,
      "##bra": 3490,
      "Mont": 3491,
      "Ta": 3492,
      "världskriget": 3493,
      "reproduc": 3494,
      "arter": 3495,
      "befolk": 3496,
      "ök": 3497,
      "##repp": 3498,
      "särskilt": 3499,
      "varav": 3500,
      "Jan": 3501,
      "Bol": 3502,
      "##ldrig": 3503,
      "##ökte": 3504,
      "Ru": 3505,
      "##jung": 3506,
      "##höj": 3507,
      "Kh": 3508,
      "Gust": 3509,
      "veck": 3510,
      "Sal": 3511,
      "pris": 3512,
      "svampart": 3513,
      "Kat": 3514,
      "användes": 3515,
      "kropp": 3516,
      "##delse": 3517,
      "##ions": 3518,
      "##omen": 3519,
      "##köping": 3520,
      "stod": 3521,
      "##mus": 3522,
      "##cus": 3523,
      "Brit": 3524,
      "Gustaf": 3525,
      "Me": 3526,
      "samtidigt": 3527,
      "##hamn": 3528,
      "kallad": 3529,
      "Söder": 3530,
      "##fekt": 3531,
      "poäng": 3532,
      "sidan": 3533,
      "IF": 3534,
      "Sten": 3535,
      "##rör": 3536,
      "##ständ": 3537,
      "lin": 3538,
      "vi": 3539,
      "Rober": 3540,
      "##que": 3541,
      "bety": 3542,
      "##inal": 3543,
      "Fr": 3544,
      "##osof": 3545,
      "militär": 3546,
      "##arg": 3547,
      "muse": 3548,
      "mor": 3549,
      "##oende": 3550,
      "##elt": 3551,
      "aldrig": 3552,
      "Schw": 3553,
      "Island": 3554,
      "##rem": 3555,
      "##uf": 3556,
      "såd": 3557,
      "ått": 3558,
      "professor": 3559,
      "##rip": 3560,
      "is": 3561,
      "beskriv": 3562,
      "mis": 3563,
      "##epp": 3564,
      "##rot": 3565,
      "trad": 3566,
      "bron": 3567,
      "##lder": 3568,
      "##eningen": 3569,
      "världen": 3570,
      "Maria": 3571,
      "Georg": 3572,
      "##ilar": 3573,
      "män": 3574,
      "reproducerande": 3575,
      "Indien": 3576,
      "via": 3577,
      "##jup": 3578,
      "ärt": 3579,
      "##ånd": 3580,
      "hamn": 3581,
      "##opter": 3582,
      "##nu": 3583,
      "##orten": 3584,
      "##rikt": 3585,
      "skall": 3586,
      "Res": 3587,
      "##ames": 3588,
      "turn": 3589,
      "gjort": 3590,
      "For": 3591,
      "Mexiko": 3592,
      "##vet": 3593,
      "rit": 3594,
      "avslut": 3595,
      "##ios": 3596,
      "intress": 3597,
      "landsk": 3598,
      "fukt": 3599,
      "Ben": 3600,
      "samling": 3601,
      "##ba": 3602,
      "sju": 3603,
      "Sain": 3604,
      "Tan": 3605,
      "område": 3606,
      "Sen": 3607,
      "satt": 3608,
      "##inna": 3609,
      "myr": 3610,
      "region": 3611,
      "Provin": 3612,
      "##oj": 3613,
      "##vist": 3614,
      "mode": 3615,
      "##sar": 3616,
      "##tan": 3617,
      "barrskog": 3618,
      "återv": 3619,
      "##ny": 3620,
      "Sar": 3621,
      "##skraft": 3622,
      "##stero": 3623,
      "##oder": 3624,
      "##ilis": 3625,
      "##rus": 3626,
      "##jet": 3627,
      "söderut": 3628,
      "##bladig": 3629,
      "Univers": 3630,
      "Fredrik": 3631,
      "##olit": 3632,
      "globalt": 3633,
      "##uel": 3634,
      "Ont": 3635,
      "norrut": 3636,
      "utför": 3637,
      "ref": 3638,
      "höll": 3639,
      "##ney": 3640,
      "slag": 3641,
      "Met": 3642,
      "##sman": 3643,
      "Ap": 3644,
      "Mot": 3645,
      "lämnade": 3646,
      "##innare": 3647,
      "täv": 3648,
      "grundades": 3649,
      "mö": 3650,
      "##format": 3651,
      "##olut": 3652,
      "Li": 3653,
      "Björ": 3654,
      "##skriv": 3655,
      "järnväg": 3656,
      "försv": 3657,
      "Ter": 3658,
      "##mot": 3659,
      "##ova": 3660,
      "Ul": 3661,
      "Ontario": 3662,
      "medeltid": 3663,
      "utgiv": 3664,
      "käll": 3665,
      "##hjärt": 3666,
      "Nor": 3667,
      "##outh": 3668,
      "##inner": 3669,
      "##lack": 3670,
      "##jordes": 3671,
      "skådespelare": 3672,
      "Ca": 3673,
      "##lund": 3674,
      "##äls": 3675,
      "##ve": 3676,
      "km2": 3677,
      "pass": 3678,
      "infl": 3679,
      "Hand": 3680,
      "##opsis": 3681,
      "##ubliken": 3682,
      "##les": 3683,
      "##river": 3684,
      "##ustri": 3685,
      "delstats": 3686,
      "Då": 3687,
      "cm": 3688,
      "häst": 3689,
      "grav": 3690,
      "##iellt": 3691,
      "Gustav": 3692,
      "grev": 3693,
      "Louis": 3694,
      "##over": 3695,
      "Bel": 3696,
      "##otek": 3697,
      "##itar": 3698,
      "Columb": 3699,
      "numera": 3700,
      "##pha": 3701,
      "periodiskt": 3702,
      "gifte": 3703,
      "san": 3704,
      "studier": 3705,
      "##huvudstaden": 3706,
      "svart": 3707,
      "bred": 3708,
      "resp": 3709,
      "fransk": 3710,
      "##ige": 3711,
      "står": 3712,
      "vit": 3713,
      "##ío": 3714,
      "egna": 3715,
      "##ima": 3716,
      "matcher": 3717,
      "regering": 3718,
      "Robert": 3719,
      "såsom": 3720,
      "##ländsk": 3721,
      "##ate": 3722,
      "förlor": 3723,
      "Gh": 3724,
      "##lick": 3725,
      "Berlin": 3726,
      "Jo": 3727,
      "fortsatte": 3728,
      "tillfäll": 3729,
      "Var": 3730,
      "##igheten": 3731,
      "blad": 3732,
      "##ini": 3733,
      "##kor": 3734,
      "##hl": 3735,
      "##indlar": 3736,
      "kriget": 3737,
      "##iaceae": 3738,
      "##mål": 3739,
      "##grund": 3740,
      "##på": 3741,
      "##ele": 3742,
      "historia": 3743,
      "klubben": 3744,
      "ordningen": 3745,
      "George": 3746,
      "spela": 3747,
      "##nde": 3748,
      "##trä": 3749,
      "lätt": 3750,
      "ovan": 3751,
      "människor": 3752,
      "##kter": 3753,
      "priv": 3754,
      "Pseud": 3755,
      "kvinnor": 3756,
      "Bay": 3757,
      "unders": 3758,
      "premiär": 3759,
      "##flyn": 3760,
      "Ek": 3761,
      "visar": 3762,
      "Här": 3763,
      "inter": 3764,
      "##alp": 3765,
      "OS": 3766,
      "##utveckling": 3767,
      "##ben": 3768,
      "inkl": 3769,
      "gå": 3770,
      "##uterade": 3771,
      "##lla": 3772,
      "skol": 3773,
      "litter": 3774,
      "nattflyn": 3775,
      "delstatshuvudstaden": 3776,
      "verksamhet": 3777,
      "##rax": 3778,
      "at": 3779,
      "exempelvis": 3780,
      "Gra": 3781,
      "mitten": 3782,
      "##fan": 3783,
      "##ota": 3784,
      "##sattes": 3785,
      "riket": 3786,
      "Kn": 3787,
      "italien": 3788,
      "indiv": 3789,
      "##vik": 3790,
      "spindelart": 3791,
      "Jean": 3792,
      "tj": 3793,
      "Phil": 3794,
      "##iteten": 3795,
      "spelades": 3796,
      "mör": 3797,
      "jur": 3798,
      "af": 3799,
      "Ung": 3800,
      "gård": 3801,
      "Count": 3802,
      "##stid": 3803,
      "##icus": 3804,
      "Alb": 3805,
      "sek": 3806,
      "##ette": 3807,
      "roman": 3808,
      "port": 3809,
      "president": 3810,
      "Jac": 3811,
      "##samhet": 3812,
      "##ebel": 3813,
      "Air": 3814,
      "Bor": 3815,
      "##förd": 3816,
      "hov": 3817,
      "nästan": 3818,
      "ursprungligen": 3819,
      "##eiz": 3820,
      "Gr": 3821,
      "##hop": 3822,
      "ansvar": 3823,
      "##isp": 3824,
      "##ända": 3825,
      "Sw": 3826,
      "##inge": 3827,
      "bandet": 3828,
      "Jawa": 3829,
      "##asa": 3830,
      "motor": 3831,
      "Öns": 3832,
      "Filmen": 3833,
      "bror": 3834,
      "social": 3835,
      "säll": 3836,
      "Havet": 3837,
      "##juk": 3838,
      "kantonen": 3839,
      "Min": 3840,
      "silver": 3841,
      "vetenskap": 3842,
      "##väl": 3843,
      "##useum": 3844,
      "##ci": 3845,
      "filosof": 3846,
      "##oter": 3847,
      "British": 3848,
      "##hjärtbladig": 3849,
      "gruppen": 3850,
      "albumet": 3851,
      "##eld": 3852,
      "##ília": 3853,
      "##rets": 3854,
      "##iro": 3855,
      "Saint": 3856,
      "igen": 3857,
      "##ierna": 3858,
      "Lud": 3859,
      "Kust": 3860,
      "klar": 3861,
      "##ão": 3862,
      "stift": 3863,
      "sch": 3864,
      "##horningar": 3865,
      "##rick": 3866,
      "färg": 3867,
      "Brasília": 3868,
      "bek": 3869,
      "Tr": 3870,
      "##yst": 3871,
      "Wilhelm": 3872,
      "##ibli": 3873,
      "Bog": 3874,
      "##oster": 3875,
      "Nya": 3876,
      "##slaget": 3877,
      "River": 3878,
      "##ju": 3879,
      "Befolk": 3880,
      "##eiska": 3881,
      "##bundet": 3882,
      "Sand": 3883,
      "Colombia": 3884,
      "kräft": 3885,
      "Kina": 3886,
      "August": 3887,
      "##ströms": 3888,
      "gem": 3889,
      "##tar": 3890,
      "prin": 3891,
      "kn": 3892,
      "##älj": 3893,
      "handel": 3894,
      "ac": 3895,
      "österut": 3896,
      "##pråk": 3897,
      "subt": 3898,
      "##ffär": 3899,
      "Lo": 3900,
      "##till": 3901,
      "avrinningsområdet": 3902,
      "##kur": 3903,
      "##redning": 3904,
      "##igur": 3905,
      "skick": 3906,
      "##åld": 3907,
      "##ane": 3908,
      "##uck": 3909,
      "Köp": 3910,
      "##seende": 3911,
      "övriga": 3912,
      "tar": 3913,
      "##ägg": 3914,
      "##erska": 3915,
      "##shus": 3916,
      "belägen": 3917,
      "Mic": 3918,
      "försök": 3919,
      "##án": 3920,
      "oftast": 3921,
      "säsong": 3922,
      "växter": 3923,
      "##gick": 3924,
      "Río": 3925,
      "låten": 3926,
      "Bir": 3927,
      "Konst": 3928,
      "##ti": 3929,
      "uppfördes": 3930,
      "##ifrån": 3931,
      "Väster": 3932,
      "##ängd": 3933,
      "Columbia": 3934,
      "##skar": 3935,
      "liten": 3936,
      "##asit": 3937,
      "livskraft": 3938,
      "hett": 3939,
      "Val": 3940,
      "nomin": 3941,
      "trans": 3942,
      "##aris": 3943,
      "medlemmar": 3944,
      "Kab": 3945,
      "Pal": 3946,
      "långa": 3947,
      "mätare": 3948,
      "David": 3949,
      "Kr": 3950,
      "ye": 3951,
      "elekt": 3952,
      "ren": 3953,
      "##bel": 3954,
      "Mat": 3955,
      "Namnet": 3956,
      "Desa": 3957,
      "##vig": 3958,
      "Distri": 3959,
      "Madrid": 3960,
      "Mil": 3961,
      "respekt": 3962,
      "västerut": 3963,
      "hära": 3964,
      "##arken": 3965,
      "Södra": 3966,
      "Mer": 3967,
      "##oides": 3968,
      "ungdom": 3969,
      "lyckades": 3970,
      "##rodukt": 3971,
      "områden": 3972,
      "olympiska": 3973,
      "##uch": 3974,
      "##ostad": 3975,
      "Pi": 3976,
      "##ford": 3977,
      "förl": 3978,
      "uppdrag": 3979,
      "Göteborgs": 3980,
      "Los": 3981,
      "problem": 3982,
      "##stol": 3983,
      "trol": 3984,
      "Lib": 3985,
      "eta": 3986,
      "Bak": 3987,
      "klä": 3988,
      "##ovjet": 3989,
      "bos": 3990,
      "krist": 3991,
      "##iskop": 3992,
      "lat": 3993,
      "når": 3994,
      "arbete": 3995,
      "##ställning": 3996,
      "##sspelare": 3997,
      "bestäm": 3998,
      "Thomas": 3999,
      "färd": 4000,
      "Gre": 4001,
      "Mag": 4002,
      "##skt": 4003,
      "upptäckt": 4004,
      "ville": 4005,
      "gamm": 4006,
      "försvar": 4007,
      "representer": 4008,
      "##iter": 4009,
      "distrikt": 4010,
      "livskraftig": 4011,
      "##det": 4012,
      "##servat": 4013,
      "Port": 4014,
      "##rikes": 4015,
      "procent": 4016,
      "Ho": 4017,
      "vanligt": 4018,
      "Rio": 4019,
      "##ahl": 4020,
      "##formen": 4021,
      "##ckte": 4022,
      "##ordning": 4023,
      "##yo": 4024,
      "##assen": 4025,
      "County": 4026,
      "exp": 4027,
      "dagar": 4028,
      "Rich": 4029,
      "##kall": 4030,
      "Lar": 4031,
      "##åten": 4032,
      "aktiv": 4033,
      "Dj": 4034,
      "fartyg": 4035,
      "Sol": 4036,
      "kons": 4037,
      "röst": 4038,
      "Charles": 4039,
      "##bok": 4040,
      "##etter": 4041,
      "##rep": 4042,
      "Anna": 4043,
      "##film": 4044,
      "##ador": 4045,
      "##ournal": 4046,
      "tillhörde": 4047,
      "##be": 4048,
      "##fjär": 4049,
      "bol": 4050,
      "långt": 4051,
      "Folk": 4052,
      "##ific": 4053,
      "ålder": 4054,
      "Internation": 4055,
      "##järvi": 4056,
      "modern": 4057,
      "South": 4058,
      "avvatt": 4059,
      "##ghan": 4060,
      "mag": 4061,
      "brö": 4062,
      "##ockey": 4063,
      "tag": 4064,
      "Dra": 4065,
      "högre": 4066,
      "haft": 4067,
      "##syk": 4068,
      "djup": 4069,
      "Hög": 4070,
      "eff": 4071,
      "##ologiska": 4072,
      "##byggnad": 4073,
      "uppgick": 4074,
      "ban": 4075,
      "Las": 4076,
      "dat": 4077,
      "Quebra": 4078,
      "##vers": 4079,
      "Kō": 4080,
      "politiker": 4081,
      "##ublik": 4082,
      "dog": 4083,
      "utnäm": 4084,
      "##omyia": 4085,
      "Dal": 4086,
      "##rond": 4087,
      "säga": 4088,
      "Ger": 4089,
      "jap": 4090,
      "##ema": 4091,
      "##ré": 4092,
      "##ump": 4093,
      "Quebrada": 4094,
      "West": 4095,
      "Kustklimat": 4096,
      "höjd": 4097,
      "##skrif": 4098,
      "hopp": 4099,
      "fiskart": 4100,
      "##pro": 4101,
      "##yggnad": 4102,
      "Fil": 4103,
      "##nare": 4104,
      "##mos": 4105,
      "stark": 4106,
      "orsak": 4107,
      "##sled": 4108,
      "Andra": 4109,
      "##ect": 4110,
      "##emat": 4111,
      "startade": 4112,
      "vattnet": 4113,
      "fuktigt": 4114,
      "Kon": 4115,
      "##andid": 4116,
      "##ria": 4117,
      "##isten": 4118,
      "##illnad": 4119,
      "##adels": 4120,
      "avs": 4121,
      "Can": 4122,
      "ännu": 4123,
      "ent": 4124,
      "central": 4125,
      "##hem": 4126,
      "##ign": 4127,
      "subtropiskt": 4128,
      "fung": 4129,
      "##fisk": 4130,
      "##stes": 4131,
      "mestadels": 4132,
      "politiska": 4133,
      "förhåll": 4134,
      "övert": 4135,
      "##sväxtart": 4136,
      "Afghan": 4137,
      "brittiska": 4138,
      "Ryss": 4139,
      "##fot": 4140,
      "##ånga": 4141,
      "Ak": 4142,
      "##kta": 4143,
      "##ugg": 4144,
      "##tra": 4145,
      "##gruppen": 4146,
      "##hög": 4147,
      "släkt": 4148,
      "Rad": 4149,
      "Camp": 4150,
      "kara": 4151,
      "Rik": 4152,
      "##isc": 4153,
      "guvern": 4154,
      "##ty": 4155,
      "##ivå": 4156,
      "tradition": 4157,
      "##umet": 4158,
      "##ystem": 4159,
      "##arktis": 4160,
      "anses": 4161,
      "##samlingen": 4162,
      "Hill": 4163,
      "##enten": 4164,
      "serie": 4165,
      "utom": 4166,
      "Go": 4167,
      "vapen": 4168,
      "funkt": 4169,
      "laget": 4170,
      "liksom": 4171,
      "##osp": 4172,
      "##verket": 4173,
      "Mountain": 4174,
      "##ådde": 4175,
      "##esi": 4176,
      "varandra": 4177,
      "kust": 4178,
      "Ka": 4179,
      "materi": 4180,
      "trots": 4181,
      "tim": 4182,
      "Argent": 4183,
      "Ur": 4184,
      "##isse": 4185,
      "kär": 4186,
      "##ringar": 4187,
      "Rab": 4188,
      "Afghanistan": 4189,
      "##alj": 4190,
      "medverkade": 4191,
      "kallar": 4192,
      "jag": 4193,
      "Ra": 4194,
      "Brook": 4195,
      "##sjö": 4196,
      "hund": 4197,
      "##olv": 4198,
      "Alf": 4199,
      "Sund": 4200,
      "ab": 4201,
      "mar": 4202,
      "relig": 4203,
      "##ski": 4204,
      "åtta": 4205,
      "ingick": 4206,
      "ring": 4207,
      "bif": 4208,
      "##organis": 4209,
      "Fried": 4210,
      "As": 4211,
      "Österrike": 4212,
      "Cor": 4213,
      "Genom": 4214,
      "post": 4215,
      "Skån": 4216,
      "spelare": 4217,
      "flertal": 4218,
      "Bon": 4219,
      "Bern": 4220,
      "Anders": 4221,
      "Wh": 4222,
      "Ou": 4223,
      "Mexico": 4224,
      "föränd": 4225,
      "dubb": 4226,
      "brev": 4227,
      "##köpings": 4228,
      "Gen": 4229,
      "begrav": 4230,
      "Don": 4231,
      "ass": 4232,
      "##sväxter": 4233,
      "ytan": 4234,
      "kopp": 4235,
      "##odes": 4236,
      "##dde": 4237,
      "Jon": 4238,
      "##unk": 4239,
      "##ensam": 4240,
      "##usk": 4241,
      "Ham": 4242,
      "##ross": 4243,
      "strand": 4244,
      "landskommun": 4245,
      "##ktär": 4246,
      "##isa": 4247,
      "Park": 4248,
      "##ämp": 4249,
      "Gar": 4250,
      "lika": 4251,
      "tio": 4252,
      "stil": 4253,
      "##arlament": 4254,
      "långhorningar": 4255,
      "##atern": 4256,
      "##äld": 4257,
      "ej": 4258,
      "föddes": 4259,
      "Hem": 4260,
      "trafik": 4261,
      "avsnitt": 4262,
      "##inska": 4263,
      "##stads": 4264,
      "Hol": 4265,
      "My": 4266,
      "uppmärk": 4267,
      "##unnit": 4268,
      "Handling": 4269,
      "Sä": 4270,
      "##anda": 4271,
      "##stitut": 4272,
      "dels": 4273,
      "##anus": 4274,
      "##yggor": 4275,
      "respektive": 4276,
      "rö": 4277,
      "användas": 4278,
      "läns": 4279,
      "Öst": 4280,
      "di": 4281,
      "insp": 4282,
      "använda": 4283,
      "##skatt": 4284,
      "##orer": 4285,
      "text": 4286,
      "Pas": 4287,
      "invig": 4288,
      "##arie": 4289,
      "bo": 4290,
      "europ": 4291,
      "##ösa": 4292,
      "Ax": 4293,
      "##rust": 4294,
      "kej": 4295,
      "##arten": 4296,
      "pat": 4297,
      "##HL": 4298,
      "So": 4299,
      "miss": 4300,
      "Stat": 4301,
      "avled": 4302,
      "James": 4303,
      "ast": 4304,
      "##lik": 4305,
      "tving": 4306,
      "omfattar": 4307,
      "Stora": 4308,
      "##spindlar": 4309,
      "vanlig": 4310,
      "##nderna": 4311,
      "förklar": 4312,
      "Joseph": 4313,
      "sym": 4314,
      "tilldel": 4315,
      "##histor": 4316,
      "Tre": 4317,
      "##ano": 4318,
      "##oria": 4319,
      "tyd": 4320,
      "##full": 4321,
      "##otá": 4322,
      "yng": 4323,
      "ish": 4324,
      "sid": 4325,
      "##edde": 4326,
      "dessutom": 4327,
      "gavs": 4328,
      "##ästerskap": 4329,
      "själva": 4330,
      "##lav": 4331,
      "Bogotá": 4332,
      "##läng": 4333,
      "Coll": 4334,
      "Tel": 4335,
      "medic": 4336,
      "##ager": 4337,
      "fotbollsspelare": 4338,
      "##ktor": 4339,
      "North": 4340,
      "dansk": 4341,
      "Cla": 4342,
      "arran": 4343,
      "##oret": 4344,
      "fly": 4345,
      "Santa": 4346,
      "##unda": 4347,
      "Hennes": 4348,
      "Bre": 4349,
      "##staur": 4350,
      "##ugh": 4351,
      "kräftdjursart": 4352,
      "##ael": 4353,
      "##ligg": 4354,
      "Mellan": 4355,
      "internationella": 4356,
      "##ärt": 4357,
      "##delning": 4358,
      "##stern": 4359,
      "fång": 4360,
      "##vänd": 4361,
      "Alexander": 4362,
      "Wien": 4363,
      "Herc": 4364,
      "Ba": 4365,
      "fågel": 4366,
      "##jan": 4367,
      "match": 4368,
      "Eg": 4369,
      "tvåhjärtbladig": 4370,
      "##oper": 4371,
      "##lipp": 4372,
      "##inen": 4373,
      "##rottning": 4374,
      "Ep": 4375,
      "##mare": 4376,
      "##alus": 4377,
      "##estiv": 4378,
      "Di": 4379,
      "##ibliotek": 4380,
      "ög": 4381,
      "Friedrich": 4382,
      "offent": 4383,
      "nummer": 4384,
      "effekt": 4385,
      "spår": 4386,
      "Hu": 4387,
      "meddel": 4388,
      "Martin": 4389,
      "togs": 4390,
      "ton": 4391,
      "student": 4392,
      "##allen": 4393,
      "skilj": 4394,
      "##ritar": 4395,
      "##uft": 4396,
      "Utb": 4397,
      "benäm": 4398,
      "norm": 4399,
      "Kabul": 4400,
      "Santi": 4401,
      "dok": 4402,
      "Köpen": 4403,
      "##ony": 4404,
      "fjärde": 4405,
      "result": 4406,
      "##stritar": 4407,
      "driv": 4408,
      "##skol": 4409,
      "##zz": 4410,
      "##annen": 4411,
      "växte": 4412,
      "Argentina": 4413,
      "##demokrat": 4414,
      "Magn": 4415,
      "bestod": 4416,
      "##röv": 4417,
      "komma": 4418,
      "##enser": 4419,
      "sem": 4420,
      "Est": 4421,
      "##ilus": 4422,
      "Provincia": 4423,
      "gra": 4424,
      "härad": 4425,
      "hän": 4426,
      "Henrik": 4427,
      "trupp": 4428,
      "##eden": 4429,
      "##ands": 4430,
      "##ningsutveckling": 4431,
      "##öka": 4432,
      "Pl": 4433,
      "dans": 4434,
      "##uts": 4435,
      "Vi": 4436,
      "skydd": 4437,
      "scen": 4438,
      "kallades": 4439,
      "artik": 4440,
      "bakom": 4441,
      "eget": 4442,
      "kur": 4443,
      "fj": 4444,
      "##ndes": 4445,
      "##onom": 4446,
      "##sjön": 4447,
      "Fer": 4448,
      "disk": 4449,
      "##uella": 4450,
      "##ito": 4451,
      "##aller": 4452,
      "Algeriet": 4453,
      "bytt": 4454,
      "Adolf": 4455,
      "slutt": 4456,
      "##iforn": 4457,
      "Befolkningsutveckling": 4458,
      "##rättades": 4459,
      "Pat": 4460,
      "##värg": 4461,
      "drog": 4462,
      "##emål": 4463,
      "##flyg": 4464,
      "##ipl": 4465,
      "Staden": 4466,
      "##dar": 4467,
      "##odde": 4468,
      "Tj": 4469,
      "Kungliga": 4470,
      "boken": 4471,
      "##oy": 4472,
      "Någ": 4473,
      "regeringen": 4474,
      "Underarter": 4475,
      "Kyrk": 4476,
      "Att": 4477,
      "föres": 4478,
      "Eur": 4479,
      "sida": 4480,
      "##ly": 4481,
      "Su": 4482,
      "Ir": 4483,
      "##roller": 4484,
      "##fält": 4485,
      "##yggnaden": 4486,
      "visade": 4487,
      "Dag": 4488,
      "Lars": 4489,
      "spelat": 4490,
      "Gud": 4491,
      "Santiago": 4492,
      "##to": 4493,
      "Jap": 4494,
      "yta": 4495,
      "##lingar": 4496,
      "relat": 4497,
      "Van": 4498,
      "dal": 4499,
      "sjöp": 4500,
      "##sut": 4501,
      "##ague": 4502,
      "använder": 4503,
      "Mark": 4504,
      "vanligen": 4505,
      "fäng": 4506,
      "Bill": 4507,
      "dikt": 4508,
      "talets": 4509,
      "polis": 4510,
      "##rondiss": 4511,
      "fas": 4512,
      "##ines": 4513,
      "Hy": 4514,
      "##åglar": 4515,
      "##akten": 4516,
      "##skott": 4517,
      "Ryssland": 4518,
      "gemensam": 4519,
      "##höjden": 4520,
      "##astor": 4521,
      "III": 4522,
      "deltag": 4523,
      "nådde": 4524,
      "eng": 4525,
      "Kōh": 4526,
      "teater": 4527,
      "##inus": 4528,
      "såg": 4529,
      "##kra": 4530,
      "##ko": 4531,
      "##urt": 4532,
      "##blomm": 4533,
      "##reter": 4534,
      "företaget": 4535,
      "##änner": 4536,
      "orkidéer": 4537,
      "gammal": 4538,
      "##gården": 4539,
      "Henry": 4540,
      "Bosn": 4541,
      "##osition": 4542,
      "titeln": 4543,
      "##wa": 4544,
      "##sven": 4545,
      "##skaper": 4546,
      "##teck": 4547,
      "kontrakt": 4548,
      "arrondiss": 4549,
      "Sta": 4550,
      "Ju": 4551,
      "##iber": 4552,
      "Olof": 4553,
      "Ast": 4554,
      "##raff": 4555,
      "##egov": 4556,
      "skillnad": 4557,
      "Marock": 4558,
      "skådespel": 4559,
      "##smin": 4560,
      "##elia": 4561,
      "påverk": 4562,
      "Fre": 4563,
      "##ulpt": 4564,
      "Bul": 4565,
      "Francis": 4566,
      "savannskog": 4567,
      "Koud": 4568,
      "##önster": 4569,
      "Dom": 4570,
      "psyk": 4571,
      "Cap": 4572,
      "fys": 4573,
      "##ademien": 4574,
      "formula": 4575,
      "##rix": 4576,
      "beteck": 4577,
      "starkt": 4578,
      "##vs": 4579,
      "Bosnien": 4580,
      "längs": 4581,
      "Fal": 4582,
      "Do": 4583,
      "Edward": 4584,
      "##cy": 4585,
      "äldsta": 4586,
      "genomför": 4587,
      "##ytor": 4588,
      "##unta": 4589,
      "##pelen": 4590,
      "herr": 4591,
      "##ión": 4592,
      "##cess": 4593,
      "gjordes": 4594,
      "##ulus": 4595,
      "handlar": 4596,
      "ihop": 4597,
      "låtar": 4598,
      "##järnen": 4599,
      "##usa": 4600,
      "Marocko": 4601,
      "##ight": 4602,
      "##cke": 4603,
      "##kont": 4604,
      "ne": 4605,
      "rym": 4606,
      "##tag": 4607,
      "##egel": 4608,
      "##namn": 4609,
      "##ningsp": 4610,
      "liknande": 4611,
      "##ländor": 4612,
      "återvände": 4613,
      "minst": 4614,
      "brittisk": 4615,
      "tän": 4616,
      "Mü": 4617,
      "kandid": 4618,
      "skolan": 4619,
      "##fjärilar": 4620,
      "##ygger": 4621,
      "##istisk": 4622,
      "danska": 4623,
      "##rarna": 4624,
      "##mär": 4625,
      "##brott": 4626,
      "Schweiz": 4627,
      "##assa": 4628,
      "topp": 4629,
      "fört": 4630,
      "##add": 4631,
      "Delhi": 4632,
      "##edd": 4633,
      "##atten": 4634,
      "##ruktbar": 4635,
      "##ensen": 4636,
      "sim": 4637,
      "##läm": 4638,
      "Ox": 4639,
      "mott": 4640,
      "arrondissementet": 4641,
      "##rocent": 4642,
      "egent": 4643,
      "##öns": 4644,
      "##sked": 4645,
      "jämför": 4646,
      "im": 4647,
      "Därefter": 4648,
      "mång": 4649,
      "hust": 4650,
      "länge": 4651,
      "vik": 4652,
      "##rys": 4653,
      "bostad": 4654,
      "##adi": 4655,
      "##bi": 4656,
      "##let": 4657,
      "##cha": 4658,
      "##ört": 4659,
      "##ration": 4660,
      "##omat": 4661,
      "förest": 4662,
      "regi": 4663,
      "Vall": 4664,
      "uppströms": 4665,
      "##emang": 4666,
      "Tra": 4667,
      "stats": 4668,
      "##lo": 4669,
      "##cip": 4670,
      "Pan": 4671,
      "Lev": 4672,
      "##ār": 4673,
      "##ulata": 4674,
      "Rud": 4675,
      "behand": 4676,
      "##urn": 4677,
      "League": 4678,
      "träff": 4679,
      "##ment": 4680,
      "affär": 4681,
      "##iger": 4682,
      "##HI": 4683,
      "debut": 4684,
      "omfattande": 4685,
      "betrakt": 4686,
      "konta": 4687,
      "borg": 4688,
      "Soc": 4689,
      "Kū": 4690,
      "Pre": 4691,
      "förlorade": 4692,
      "svampar": 4693,
      "##itu": 4694,
      "Juli": 4695,
      "civ": 4696,
      "gäller": 4697,
      "##iell": 4698,
      "brott": 4699,
      "##språk": 4700,
      "##örer": 4701,
      "säker": 4702,
      "äl": 4703,
      "##erats": 4704,
      "klassen": 4705,
      "Utöver": 4706,
      "##inia": 4707,
      "Stad": 4708,
      "Kro": 4709,
      "enbart": 4710,
      "Smith": 4711,
      "od": 4712,
      "Hercegov": 4713,
      "sett": 4714,
      "lärare": 4715,
      "ly": 4716,
      "##anna": 4717,
      "Richard": 4718,
      "ofruktbar": 4719,
      "##ela": 4720,
      "##issa": 4721,
      "lät": 4722,
      "Hus": 4723,
      "##ior": 4724,
      "Nic": 4725,
      "böcker": 4726,
      "University": 4727,
      "Amer": 4728,
      "Västra": 4729,
      "Spel": 4730,
      "War": 4731,
      "##åning": 4732,
      "##myggor": 4733,
      "##ifol": 4734,
      "självständ": 4735,
      "sommars": 4736,
      "Området": 4737,
      "gym": 4738,
      "bidrag": 4739,
      "dåvarande": 4740,
      "##oul": 4741,
      "karaktär": 4742,
      "##iri": 4743,
      "SMHI": 4744,
      "##ía": 4745,
      "beläg": 4746,
      "orkidéart": 4747,
      "bär": 4748,
      "##kes": 4749,
      "##sel": 4750,
      "klock": 4751,
      "skedde": 4752,
      "Grand": 4753,
      "Christian": 4754,
      "##ärd": 4755,
      "Hercegovina": 4756,
      "##isseau": 4757,
      "sjukdom": 4758,
      "##andard": 4759,
      "grå": 4760,
      "vä": 4761,
      "##erus": 4762,
      "##ivet": 4763,
      "betydelse": 4764,
      "##emente": 4765,
      "District": 4766,
      "tidigt": 4767,
      "##mästare": 4768,
      "Sel": 4769,
      "##iller": 4770,
      "##ze": 4771,
      "dvärg": 4772,
      "kronor": 4773,
      "##ois": 4774,
      "##anen": 4775,
      "Ruisseau": 4776,
      "Ram": 4777,
      "Stor": 4778,
      "Luc": 4779,
      "snabbt": 4780,
      "##act": 4781,
      "##ense": 4782,
      "delavrinningsområde": 4783,
      "##öarna": 4784,
      "##iidae": 4785,
      "mårev": 4786,
      "utbildning": 4787,
      "On": 4788,
      "journal": 4789,
      "##iph": 4790,
      "Vil": 4791,
      "främsta": 4792,
      "kors": 4793,
      "Plat": 4794,
      "##nda": 4795,
      "##räk": 4796,
      "##innes": 4797,
      "##atum": 4798,
      "##system": 4799,
      "påb": 4800,
      "##ryt": 4801,
      "domin": 4802,
      "räknas": 4803,
      "##gången": 4804,
      "alltid": 4805,
      "Delavrinningsområde": 4806,
      "leg": 4807,
      "##own": 4808,
      "Rabat": 4809,
      "##eringar": 4810,
      "arbetar": 4811,
      "jud": 4812,
      "erb": 4813,
      "##läktet": 4814,
      "##ool": 4815,
      "huset": 4816,
      "##ophyll": 4817,
      "vattenytor": 4818,
      "Ten": 4819,
      "motsvar": 4820,
      "Sj": 4821,
      "##fråg": 4822,
      "##rym": 4823,
      "##asser": 4824,
      "##höll": 4825,
      "##räv": 4826,
      "##ado": 4827,
      "begräns": 4828,
      "##len": 4829,
      "Köpenhamn": 4830,
      "sjöprocent": 4831,
      "såväl": 4832,
      "##ame": 4833,
      "betyder": 4834,
      "börjar": 4835,
      "sold": 4836,
      "efterträd": 4837,
      "troligen": 4838,
      "Holm": 4839,
      "##orus": 4840,
      "##sted": 4841,
      "inspel": 4842,
      "restaur": 4843,
      "ägde": 4844,
      "motstånd": 4845,
      "Fram": 4846,
      "##kv": 4847,
      "inb": 4848,
      "##resent": 4849,
      "Ang": 4850,
      "Kūh": 4851,
      "bevar": 4852,
      "Eric": 4853,
      "republiken": 4854,
      "koll": 4855,
      "debuterade": 4856,
      "Anton": 4857,
      "##smed": 4858,
      "##ampar": 4859,
      "flott": 4860,
      "valde": 4861,
      "Loma": 4862,
      "Andre": 4863,
      "Medelhöjden": 4864,
      "framgångs": 4865,
      "##ogen": 4866,
      "soci": 4867,
      "##napp": 4868,
      "##amerika": 4869,
      "##ero": 4870,
      "Ku": 4871,
      "flock": 4872,
      "##formation": 4873,
      "##styr": 4874,
      "Pla": 4875,
      "##chef": 4876,
      "häl": 4877,
      "Vict": 4878,
      "##ension": 4879,
      "##reterare": 4880,
      "drabb": 4881,
      "##pe": 4882,
      "##ynt": 4883,
      "##mel": 4884,
      "##punkt": 4885,
      "konkur": 4886,
      "##ifter": 4887,
      "##skär": 4888,
      "##pris": 4889,
      "prote": 4890,
      "##iti": 4891,
      "Angel": 4892,
      "just": 4893,
      "##stein": 4894,
      "sommarspelen": 4895,
      "##ubben": 4896,
      "stjärn": 4897,
      "dr": 4898,
      "##ilt": 4899,
      "Arro": 4900,
      "general": 4901,
      "tjänstg": 4902,
      "tunn": 4903,
      "Utbredning": 4904,
      "##öjt": 4905,
      "astron": 4906,
      "##orea": 4907,
      "##oda": 4908,
      "luft": 4909,
      "varm": 4910,
      "Kong": 4911,
      "rapp": 4912,
      "Magnus": 4913,
      "##cel": 4914,
      "Johannes": 4915,
      "Andersson": 4916,
      "Op": 4917,
      "besök": 4918,
      "vari": 4919,
      "Neder": 4920,
      "Många": 4921,
      "ann": 4922,
      "Osc": 4923,
      "fakt": 4924,
      "månader": 4925,
      "heter": 4926,
      "Cy": 4927,
      "##iot": 4928,
      "Ni": 4929,
      "##ertig": 4930,
      "ursprungliga": 4931,
      "##urus": 4932,
      "alltså": 4933,
      "##ital": 4934,
      "märk": 4935,
      "##aph": 4936,
      "bygga": 4937,
      "praktfjärilar": 4938,
      "##vård": 4939,
      "brok": 4940,
      "regel": 4941,
      "Ele": 4942,
      "Historik": 4943,
      "räd": 4944,
      "##qvist": 4945,
      "Senare": 4946,
      "känt": 4947,
      "parti": 4948,
      "skär": 4949,
      "centrum": 4950,
      "Tom": 4951,
      "Lov": 4952,
      "vinter": 4953,
      "Öre": 4954,
      "Daniel": 4955,
      "Dessutom": 4956,
      "Maj": 4957,
      "Stud": 4958,
      "##rab": 4959,
      "##komst": 4960,
      "##ield": 4961,
      "Red": 4962,
      "Kir": 4963,
      "##ismen": 4964,
      "version": 4965,
      "bosatt": 4966,
      "Black": 4967,
      "Trots": 4968,
      "ro": 4969,
      "delvis": 4970,
      "ov": 4971,
      "hår": 4972,
      "dy": 4973,
      "Hed": 4974,
      "##ättre": 4975,
      "##ision": 4976,
      "Id": 4977,
      "föräld": 4978,
      "drag": 4979,
      "Marie": 4980,
      "filmer": 4981,
      "Hal": 4982,
      "etabl": 4983,
      "sprid": 4984,
      "profession": 4985,
      "följd": 4986,
      "industri": 4987,
      "##ternat": 4988,
      "##bara": 4989,
      "Tv": 4990,
      "gitar": 4991,
      "Nils": 4992,
      "##öts": 4993,
      "##plar": 4994,
      "##arn": 4995,
      "##heim": 4996,
      "mask": 4997,
      "Japan": 4998,
      "landskap": 4999,
      "##ansen": 5000,
      "##anj": 5001,
      "fred": 5002,
      "ses": 5003,
      "##gu": 5004,
      "##lös": 5005,
      "Sn": 5006,
      "##stod": 5007,
      "ill": 5008,
      "##ssk": 5009,
      "##maskart": 5010,
      "##we": 5011,
      "##vall": 5012,
      "Bas": 5013,
      "lades": 5014,
      "Mes": 5015,
      "snart": 5016,
      "flöd": 5017,
      "gr": 5018,
      "tills": 5019,
      "##ophila": 5020,
      "Lapp": 5021,
      "konf": 5022,
      "Matt": 5023,
      "vux": 5024,
      "##rak": 5025,
      "påbörj": 5026,
      "Max": 5027,
      "ap": 5028,
      "##aggar": 5029,
      "##sätta": 5030,
      "strax": 5031,
      "bättre": 5032,
      "Liv": 5033,
      "Hein": 5034,
      "##fen": 5035,
      "Ke": 5036,
      "Punta": 5037,
      "##dels": 5038,
      "##emi": 5039,
      "Sig": 5040,
      "häck": 5041,
      "armén": 5042,
      "da": 5043,
      "##way": 5044,
      "hösten": 5045,
      "höga": 5046,
      "##zo": 5047,
      "##orf": 5048,
      "##ān": 5049,
      "konser": 5050,
      "cy": 5051,
      "##likt": 5052,
      "##ebb": 5053,
      "##rådena": 5054,
      "Od": 5055,
      "Huvud": 5056,
      "gränsen": 5057,
      "##elle": 5058,
      "##rov": 5059,
      "Mu": 5060,
      "grek": 5061,
      "lant": 5062,
      "##åk": 5063,
      "bodde": 5064,
      "##ynta": 5065,
      "##loppet": 5066,
      "imp": 5067,
      "Lim": 5068,
      "norska": 5069,
      "Com": 5070,
      "Rec": 5071,
      "##parasit": 5072,
      "udde": 5073,
      "Sav": 5074,
      "byn": 5075,
      "Vin": 5076,
      "syster": 5077,
      "Part": 5078,
      "kungen": 5079,
      "##wood": 5080,
      "blod": 5081,
      "mynd": 5082,
      "sluttar": 5083,
      "litteratur": 5084,
      "der": 5085,
      "brokparasit": 5086,
      "##arb": 5087,
      "brokparasitsteklar": 5088,
      "Bou": 5089,
      "gud": 5090,
      "bildade": 5091,
      "hy": 5092,
      "##ebygg": 5093,
      "ras": 5094,
      "Jack": 5095,
      "Örebro": 5096,
      "förbund": 5097,
      "##ror": 5098,
      "ryska": 5099,
      "Grek": 5100,
      "##ivision": 5101,
      "##nast": 5102,
      "institut": 5103,
      "orig": 5104,
      "##gatan": 5105,
      "upptäcktes": 5106,
      "engag": 5107,
      "förbunds": 5108,
      "modell": 5109,
      "sker": 5110,
      "mel": 5111,
      "Michael": 5112,
      "##stopp": 5113,
      "##ester": 5114,
      "mera": 5115,
      "ljud": 5116,
      "ros": 5117,
      "Pier": 5118,
      "##ington": 5119,
      "##ór": 5120,
      "mängd": 5121,
      "blå": 5122,
      "Rock": 5123,
      "sommaren": 5124,
      "##klag": 5125,
      "katol": 5126,
      "kost": 5127,
      "Meg": 5128,
      "bev": 5129,
      "använde": 5130,
      "Rob": 5131,
      "Vill": 5132,
      "##hu": 5133,
      "Albert": 5134,
      "vitt": 5135,
      "##förening": 5136,
      "##cu": 5137,
      "special": 5138,
      "fatt": 5139,
      "##isser": 5140,
      "##jul": 5141,
      "idrott": 5142,
      "brukar": 5143,
      "arranger": 5144,
      "##ère": 5145,
      "##amin": 5146,
      "viktig": 5147,
      "##ited": 5148,
      "##riska": 5149,
      "innebar": 5150,
      "tåg": 5151,
      "Got": 5152,
      "##hov": 5153,
      "##omer": 5154,
      "hotad": 5155,
      "##unionen": 5156,
      "##ires": 5157,
      "##wan": 5158,
      "Arm": 5159,
      "##enos": 5160,
      "##ektor": 5161,
      "##förs": 5162,
      "##ali": 5163,
      "pastor": 5164,
      "flick": 5165,
      "ledare": 5166,
      "stället": 5167,
      "vanliga": 5168,
      "Beng": 5169,
      "vita": 5170,
      "her": 5171,
      "avrinningsom": 5172,
      "Lan": 5173,
      "##xa": 5174,
      "privat": 5175,
      "##hall": 5176,
      "anslut": 5177,
      "flygplan": 5178,
      "hum": 5179,
      "indel": 5180,
      "fält": 5181,
      "Cha": 5182,
      "Dar": 5183,
      "världens": 5184,
      "präst": 5185,
      "biflö": 5186,
      "upplag": 5187,
      "Tam": 5188,
      "sammans": 5189,
      "##holms": 5190,
      "slog": 5191,
      "Inom": 5192,
      "Ön": 5193,
      "defin": 5194,
      "##anthus": 5195,
      "##stående": 5196,
      "Alla": 5197,
      "##ligheten": 5198,
      "##onde": 5199,
      "##bildning": 5200,
      "ärtväxter": 5201,
      "Gro": 5202,
      "##arat": 5203,
      "##egång": 5204,
      "##II": 5205,
      "finalen": 5206,
      "##eland": 5207,
      "utnämndes": 5208,
      "##oba": 5209,
      "Flor": 5210,
      "Axel": 5211,
      "varierad": 5212,
      "Djur": 5213,
      "samarbete": 5214,
      "##ställningar": 5215,
      "##esten": 5216,
      "##serien": 5217,
      "##lare": 5218,
      "##etag": 5219,
      "##examen": 5220,
      "anspråk": 5221,
      "täck": 5222,
      "##sländor": 5223,
      "avvattnar": 5224,
      "kanal": 5225,
      "Cast": 5226,
      "Rep": 5227,
      "major": 5228,
      "stadens": 5229,
      "##ikanska": 5230,
      "##do": 5231,
      "##upen": 5232,
      "##ellertid": 5233,
      "gran": 5234,
      "amb": 5235,
      "Grön": 5236,
      "##oken": 5237,
      "funktion": 5238,
      "uppf": 5239,
      "##orgs": 5240,
      "Hyp": 5241,
      "##tera": 5242,
      "##etaget": 5243,
      "##ava": 5244,
      "ig": 5245,
      "Ga": 5246,
      "Tri": 5247,
      "Otto": 5248,
      "samtliga": 5249,
      "invigdes": 5250,
      "Några": 5251,
      "finans": 5252,
      "##änna": 5253,
      "flödar": 5254,
      "marknad": 5255,
      "armé": 5256,
      "äkten": 5257,
      "##vingar": 5258,
      "##ili": 5259,
      "tak": 5260,
      "lopp": 5261,
      "Tillsammans": 5262,
      "##idrott": 5263,
      "##ningsm": 5264,
      "torn": 5265,
      "ok": 5266,
      "skriven": 5267,
      "Nat": 5268,
      "utsågs": 5269,
      "förste": 5270,
      "##aktör": 5271,
      "##äremot": 5272,
      "Airport": 5273,
      "##agu": 5274,
      "##hard": 5275,
      "##usten": 5276,
      "riksdelen": 5277,
      "Mur": 5278,
      "parlament": 5279,
      "emot": 5280,
      "prefekt": 5281,
      "tidningen": 5282,
      "##songen": 5283,
      "möjligt": 5284,
      "upphör": 5285,
      "uppskatt": 5286,
      "tel": 5287,
      "##cho": 5288,
      "yngre": 5289,
      "##person": 5290,
      "skapa": 5291,
      "Församlingen": 5292,
      "Kristian": 5293,
      "##hopp": 5294,
      "grundade": 5295,
      "Värm": 5296,
      "No": 5297,
      "platsen": 5298,
      "##wig": 5299,
      "Kap": 5300,
      "partiet": 5301,
      "uppkall": 5302,
      "uppför": 5303,
      "inflyt": 5304,
      "Eu": 5305,
      "inåt": 5306,
      "##ressen": 5307,
      "beroende": 5308,
      "makt": 5309,
      "##läck": 5310,
      "rygg": 5311,
      "##desordning": 5312,
      "biflödesordning": 5313,
      "medeltida": 5314,
      "hav": 5315,
      "Mod": 5316,
      "Brun": 5317,
      "Ven": 5318,
      "##ür": 5319,
      "fören": 5320,
      "behöv": 5321,
      "exemplar": 5322,
      "Band": 5323,
      "##mor": 5324,
      "##period": 5325,
      "följde": 5326,
      "##amo": 5327,
      "##platsen": 5328,
      "material": 5329,
      "##kort": 5330,
      "Gab": 5331,
      "björ": 5332,
      "Sankt": 5333,
      "förutom": 5334,
      "biskop": 5335,
      "ås": 5336,
      "##botten": 5337,
      "##zon": 5338,
      "ledning": 5339,
      "##lära": 5340,
      "döm": 5341,
      "##bas": 5342,
      "engelsk": 5343,
      "##ssp": 5344,
      "##uta": 5345,
      "forn": 5346,
      "national": 5347,
      "##ni": 5348,
      "##ycken": 5349,
      "valdes": 5350,
      "##hang": 5351,
      "##rol": 5352,
      "skrivit": 5353,
      "manus": 5354,
      "begrepp": 5355,
      "astero": 5356,
      "skepp": 5357,
      "##hr": 5358,
      "##splan": 5359,
      "gul": 5360,
      "produktion": 5361,
      "Små": 5362,
      "beseg": 5363,
      "tilldelades": 5364,
      "minsk": 5365,
      "##itets": 5366,
      "Leon": 5367,
      "##usen": 5368,
      "samhället": 5369,
      "hölls": 5370,
      "Pu": 5371,
      "Administrat": 5372,
      "dokument": 5373,
      "##ise": 5374,
      "Maur": 5375,
      "Timur": 5376,
      "##ordet": 5377,
      "undervis": 5378,
      "landets": 5379,
      "Bat": 5380,
      "rock": 5381,
      "##länderna": 5382,
      "Ze": 5383,
      "bör": 5384,
      "Sil": 5385,
      "ident": 5386,
      "fabrik": 5387,
      "##oli": 5388,
      "Flyg": 5389,
      "Jes": 5390,
      "Nik": 5391,
      "##ylt": 5392,
      "Kaliforn": 5393,
      "lokala": 5394,
      "Sjö": 5395,
      "yr": 5396,
      "##ersk": 5397,
      "sand": 5398,
      "##ink": 5399,
      "insekter": 5400,
      "finska": 5401,
      "tolk": 5402,
      "nät": 5403,
      "utgörs": 5404,
      "FC": 5405,
      "##jektet": 5406,
      "##larna": 5407,
      "##omyc": 5408,
      "Wor": 5409,
      "as": 5410,
      "##räckligt": 5411,
      "därpå": 5412,
      "##näs": 5413,
      "##ifier": 5414,
      "##rument": 5415,
      "skad": 5416,
      "##anter": 5417,
      "Jacob": 5418,
      "Gal": 5419,
      "skulpt": 5420,
      "##vägen": 5421,
      "Nu": 5422,
      "Polen": 5423,
      "represent": 5424,
      "moder": 5425,
      "svår": 5426,
      "##udd": 5427,
      "bergstopp": 5428,
      "byggnader": 5429,
      "kombin": 5430,
      "Mas": 5431,
      "forskning": 5432,
      "gt": 5433,
      "##inger": 5434,
      "Jer": 5435,
      "##ennis": 5436,
      "United": 5437,
      "##ndeart": 5438,
      "rund": 5439,
      "rec": 5440,
      "värd": 5441,
      "##ocke": 5442,
      "##acken": 5443,
      "Tex": 5444,
      "Musik": 5445,
      "##nst": 5446,
      "##ativ": 5447,
      "singel": 5448,
      "gräs": 5449,
      "ack": 5450,
      "ep": 5451,
      "valet": 5452,
      "Wall": 5453,
      "kolon": 5454,
      "naturre": 5455,
      "seri": 5456,
      "##teri": 5457,
      "on": 5458,
      "bebygg": 5459,
      "National": 5460,
      "Bry": 5461,
      "kal": 5462,
      "kamp": 5463,
      "##spekt": 5464,
      "##lagt": 5465,
      "Ass": 5466,
      "icke": 5467,
      "station": 5468,
      "norsk": 5469,
      "##sländeart": 5470,
      "park": 5471,
      "##läggning": 5472,
      "##inder": 5473,
      "##rans": 5474,
      "Sock": 5475,
      "relativt": 5476,
      "Sovjet": 5477,
      "titel": 5478,
      "con": 5479,
      "neder": 5480,
      "häv": 5481,
      "energ": 5482,
      "##anger": 5483,
      "uppmärksam": 5484,
      "##ange": 5485,
      "ägg": 5486,
      "tron": 5487,
      "Región": 5488,
      "##orum": 5489,
      "återupp": 5490,
      "innehåll": 5491,
      "Kalifornien": 5492,
      "##rona": 5493,
      "Holl": 5494,
      "##ringen": 5495,
      "Skåne": 5496,
      "glas": 5497,
      "##gäng": 5498,
      "##aster": 5499,
      "##but": 5500,
      "lans": 5501,
      "arbeten": 5502,
      "Grekland": 5503,
      "##adens": 5504,
      "Äl": 5505,
      "Tidigare": 5506,
      "og": 5507,
      "lt": 5508,
      "peng": 5509,
      "EM": 5510,
      "##ästerskapet": 5511,
      "tävlade": 5512,
      "programmet": 5513,
      "##arah": 5514,
      "Na": 5515,
      "Da": 5516,
      "förvalt": 5517,
      "##ords": 5518,
      "##uba": 5519,
      "##träff": 5520,
      "##sområdet": 5521,
      "##ht": 5522,
      "##oro": 5523,
      "fördel": 5524,
      "##jänst": 5525,
      "bröd": 5526,
      "ätt": 5527,
      "bytte": 5528,
      "Ban": 5529,
      "dig": 5530,
      "##agnar": 5531,
      "beröm": 5532,
      "museum": 5533,
      "Lab": 5534,
      "gäst": 5535,
      "ensam": 5536,
      "##iy": 5537,
      "Cas": 5538,
      "##ägare": 5539,
      "flyttades": 5540,
      "enkel": 5541,
      "diam": 5542,
      "Stra": 5543,
      "Över": 5544,
      "försökte": 5545,
      "##nsp": 5546,
      "##baggar": 5547,
      "erk": 5548,
      "##iff": 5549,
      "##ury": 5550,
      "##skont": 5551,
      "Margar": 5552,
      "Elis": 5553,
      "##etes": 5554,
      "bad": 5555,
      "italienska": 5556,
      "höger": 5557,
      "##partiet": 5558,
      "to": 5559,
      "##ory": 5560,
      "Ple": 5561,
      "säsonger": 5562,
      "eld": 5563,
      "hustru": 5564,
      "##nant": 5565,
      "slaget": 5566,
      "rid": 5567,
      "Teng": 5568,
      "ärtväxtart": 5569,
      "##sw": 5570,
      "vägen": 5571,
      "Eli": 5572,
      "Roy": 5573,
      "Anth": 5574,
      "Az": 5575,
      "##hund": 5576,
      "##iteter": 5577,
      "inklud": 5578,
      "##evo": 5579,
      "ansåg": 5580,
      "nio": 5581,
      "##still": 5582,
      "##aner": 5583,
      "##arina": 5584,
      "##atser": 5585,
      "Call": 5586,
      "emellertid": 5587,
      "risk": 5588,
      "Pen": 5589,
      "båt": 5590,
      "lån": 5591,
      "##unc": 5592,
      "##ania": 5593,
      "Idag": 5594,
      "lagen": 5595,
      "##bil": 5596,
      "Asp": 5597,
      "såldes": 5598,
      "##minister": 5599,
      "grevskapet": 5600,
      "Två": 5601,
      "Prin": 5602,
      "erhöll": 5603,
      "beräk": 5604,
      "##ypt": 5605,
      "nig": 5606,
      "##eslut": 5607,
      "##ordon": 5608,
      "miljö": 5609,
      "Ann": 5610,
      "##fri": 5611,
      "Lept": 5612,
      "##ison": 5613,
      "##usive": 5614,
      "spelet": 5615,
      "##jä": 5616,
      "gren": 5617,
      "kandidat": 5618,
      "skild": 5619,
      "Eftersom": 5620,
      "ersattes": 5621,
      "Lep": 5622,
      "posit": 5623,
      "Central": 5624,
      "Johansson": 5625,
      "doktor": 5626,
      "##ledare": 5627,
      "grupper": 5628,
      "värde": 5629,
      "Plan": 5630,
      "kommit": 5631,
      "##une": 5632,
      "skrevs": 5633,
      "##eby": 5634,
      "Pot": 5635,
      "lokal": 5636,
      "##marker": 5637,
      "##ín": 5638,
      "information": 5639,
      "Låten": 5640,
      "projekt": 5641,
      "alternat": 5642,
      "tryck": 5643,
      "Division": 5644,
      "##orden": 5645,
      "uppe": 5646,
      "##obb": 5647,
      "Åren": 5648,
      "Arroyo": 5649,
      "##har": 5650,
      "Dem": 5651,
      "Bru": 5652,
      "resultat": 5653,
      "leder": 5654,
      "##empel": 5655,
      "##fil": 5656,
      "vist": 5657,
      "Ör": 5658,
      "dryg": 5659,
      "##anne": 5660,
      "ek": 5661,
      "vunnit": 5662,
      "Super": 5663,
      "Borg": 5664,
      "fel": 5665,
      "##olo": 5666,
      "tri": 5667,
      "porträtt": 5668,
      "##förbundet": 5669,
      "##chus": 5670,
      "##gas": 5671,
      "##ville": 5672,
      "##ligheter": 5673,
      "##rac": 5674,
      "papp": 5675,
      "International": 5676,
      "Fa": 5677,
      "test": 5678,
      "Dam": 5679,
      "Wales": 5680,
      "##ikation": 5681,
      "Kalmar": 5682,
      "##itionen": 5683,
      "##otus": 5684,
      "Sul": 5685,
      "arbeta": 5686,
      "##verka": 5687,
      "##atik": 5688,
      "##last": 5689,
      "brun": 5690,
      "Peak": 5691,
      "##krets": 5692,
      "mac": 5693,
      "byggnaden": 5694,
      "Ren": 5695,
      "Hot": 5696,
      "Gran": 5697,
      "##iment": 5698,
      "bit": 5699,
      "##éer": 5700,
      "##ike": 5701,
      "##real": 5702,
      "tävlingen": 5703,
      "kontakt": 5704,
      "Åbo": 5705,
      "##bäck": 5706,
      "grad": 5707,
      "Mol": 5708,
      "Lill": 5709,
      "ämbet": 5710,
      "##änts": 5711,
      "##okus": 5712,
      "individ": 5713,
      "dennes": 5714,
      "##eteck": 5715,
      "inrättades": 5716,
      "Samma": 5717,
      "Nederländerna": 5718,
      "##win": 5719,
      "vänster": 5720,
      "##sområde": 5721,
      "asteroid": 5722,
      "##cens": 5723,
      "##stedt": 5724,
      "##aväxter": 5725,
      "tillstånd": 5726,
      "##ställningen": 5727,
      "init": 5728,
      "##idium": 5729,
      "Helsingborg": 5730,
      "exper": 5731,
      "##öjtnant": 5732,
      "biart": 5733,
      "Reserv": 5734,
      "##jöd": 5735,
      "##holmen": 5736,
      "prim": 5737,
      "##uth": 5738,
      "ansågs": 5739,
      "##icola": 5740,
      "svårt": 5741,
      "förbätt": 5742,
      "##ales": 5743,
      "nivå": 5744,
      "##irk": 5745,
      "##far": 5746,
      "##ärare": 5747,
      "Första": 5748,
      "Lång": 5749,
      "##asp": 5750,
      "##råket": 5751,
      "##löt": 5752,
      "##flytt": 5753,
      "moderna": 5754,
      "skola": 5755,
      "##ulära": 5756,
      "hålla": 5757,
      "Alfred": 5758,
      "##ygd": 5759,
      "våld": 5760,
      "Administrativ": 5761,
      "##växt": 5762,
      "##verksamhet": 5763,
      "hertig": 5764,
      "Liban": 5765,
      "Kyrkan": 5766,
      "tillkom": 5767,
      "Nilsson": 5768,
      "Ell": 5769,
      "uttryck": 5770,
      "målare": 5771,
      "##sons": 5772,
      "marken": 5773,
      "Grupp": 5774,
      "##iske": 5775,
      "##gs": 5776,
      "standard": 5777,
      "anal": 5778,
      "spanska": 5779,
      "vice": 5780,
      "historik": 5781,
      "Rid": 5782,
      "Trich": 5783,
      "##pass": 5784,
      "Öv": 5785,
      "##etts": 5786,
      "käns": 5787,
      "förbundslandet": 5788,
      "Käll": 5789,
      "våren": 5790,
      "tagit": 5791,
      "lägre": 5792,
      "##servator": 5793,
      "senaste": 5794,
      "inklusive": 5795,
      "EU": 5796,
      "Litt": 5797,
      "##svampar": 5798,
      "##sköld": 5799,
      "Albumet": 5800,
      "##öter": 5801,
      "stab": 5802,
      "säkerhet": 5803,
      "##inea": 5804,
      "Aï": 5805,
      "##oe": 5806,
      "Gi": 5807,
      "##äbb": 5808,
      "Du": 5809,
      "##ulerade": 5810,
      "inrikt": 5811,
      "##ces": 5812,
      "##skon": 5813,
      "Oscar": 5814,
      "Champ": 5815,
      "organisation": 5816,
      "allmänna": 5817,
      "##sin": 5818,
      "##åga": 5819,
      "symbol": 5820,
      "Järn": 5821,
      "livet": 5822,
      "##lingen": 5823,
      "##bolag": 5824,
      "##familj": 5825,
      "##ilia": 5826,
      "Aires": 5827,
      "##skild": 5828,
      "Ken": 5829,
      "##ocent": 5830,
      "##ić": 5831,
      "##åra": 5832,
      "Vir": 5833,
      "Lunds": 5834,
      "Sab": 5835,
      "introduc": 5836,
      "köpte": 5837,
      "sådan": 5838,
      "sändes": 5839,
      "##unde": 5840,
      "dam": 5841,
      "Buenos": 5842,
      "##log": 5843,
      "punkt": 5844,
      "##adern": 5845,
      "##ruktur": 5846,
      "flockblomm": 5847,
      "##alia": 5848,
      "##emb": 5849,
      "Redan": 5850,
      "sal": 5851,
      "dagens": 5852,
      "unga": 5853,
      "Antarktis": 5854,
      "Flera": 5855,
      "nöd": 5856,
      "historiska": 5857,
      "##olis": 5858,
      "framträd": 5859,
      "SV": 5860,
      "Phyll": 5861,
      "överg": 5862,
      "Cup": 5863,
      "##jus": 5864,
      "long": 5865,
      "svar": 5866,
      "undersök": 5867,
      "##senterade": 5868,
      "##rost": 5869,
      "##bolaget": 5870,
      "##yx": 5871,
      "misst": 5872,
      "Mars": 5873,
      "Buk": 5874,
      "##mäkt": 5875,
      "färdig": 5876,
      "##oa": 5877,
      "naturreservat": 5878,
      "##ekan": 5879,
      "##enden": 5880,
      "demokrat": 5881,
      "brack": 5882,
      "dvärgstritar": 5883,
      "följer": 5884,
      "##reb": 5885,
      "##shire": 5886,
      "##illo": 5887,
      "##bott": 5888,
      "##aterna": 5889,
      "##smål": 5890,
      "varmt": 5891,
      "Elisab": 5892,
      "##hm": 5893,
      "##oz": 5894,
      "ställde": 5895,
      "Tot": 5896,
      "Bal": 5897,
      "lös": 5898,
      "Tjeck": 5899,
      "svenskt": 5900,
      "undant": 5901,
      "##opus": 5902,
      "Tekn": 5903,
      "arean": 5904,
      "##eger": 5905,
      "Heinrich": 5906,
      "##unga": 5907,
      "World": 5908,
      "europeiska": 5909,
      "##ötland": 5910,
      "ide": 5911,
      "månad": 5912,
      "framtid": 5913,
      "Der": 5914,
      "##mera": 5915,
      "Por": 5916,
      "##ids": 5917,
      "ting": 5918,
      "studio": 5919,
      "fyr": 5920,
      "Lappland": 5921,
      "Djebel": 5922,
      "if": 5923,
      "##sky": 5924,
      "kommuner": 5925,
      "eröv": 5926,
      "##yntaxa": 5927,
      "Dyntaxa": 5928,
      "##rypt": 5929,
      "##ryp": 5930,
      "lö": 5931,
      "##uva": 5932,
      "Vis": 5933,
      "förslag": 5934,
      "städer": 5935,
      "ytt": 5936,
      "Fort": 5937,
      "Il": 5938,
      "sist": 5939,
      "##istr": 5940,
      "##stone": 5941,
      "Rib": 5942,
      "riksdagen": 5943,
      "intresse": 5944,
      "förstör": 5945,
      "##ez": 5946,
      "##området": 5947,
      "##marna": 5948,
      "Geografi": 5949,
      "förut": 5950,
      "##agt": 5951,
      "latin": 5952,
      "##ibland": 5953,
      "tidiga": 5954,
      "##sterna": 5955,
      "Bengt": 5956,
      "regisser": 5957,
      "##elius": 5958,
      "##svenskan": 5959,
      "Bell": 5960,
      "Gunnar": 5961,
      "förlag": 5962,
      "##eral": 5963,
      "##skriften": 5964,
      "##ummer": 5965,
      "##kap": 5966,
      "Oper": 5967,
      "veckor": 5968,
      "division": 5969,
      "##innan": 5970,
      "Far": 5971,
      "##ogon": 5972,
      "verkade": 5973,
      "##ucc": 5974,
      "##röst": 5975,
      "föreställ": 5976,
      "pil": 5977,
      "uppfatt": 5978,
      "högt": 5979,
      "baserad": 5980,
      "##jöl": 5981,
      "bracksteklar": 5982,
      "frukt": 5983,
      "##odd": 5984,
      "utvecklades": 5985,
      "Björn": 5986,
      "journalist": 5987,
      "slutligen": 5988,
      "##dagen": 5989,
      "steg": 5990,
      "antingen": 5991,
      "##roph": 5992,
      "Familj": 5993,
      "bäst": 5994,
      "##vard": 5995,
      "##aväxtart": 5996,
      "prov": 5997,
      "pot": 5998,
      "##ush": 5999,
      "##eda": 6000,
      "##författ": 6001,
      "tra": 6002,
      "Jämt": 6003,
      "levde": 6004,
      "Fär": 6005,
      "##din": 6006,
      "Org": 6007,
      "brons": 6008,
      "Cat": 6009,
      "frågor": 6010,
      "##risk": 6011,
      "inspir": 6012,
      "lämna": 6013,
      "Ref": 6014,
      "Hor": 6015,
      "##onym": 6016,
      "Cro": 6017,
      "##si": 6018,
      "Pul": 6019,
      "bygger": 6020,
      "##onien": 6021,
      "sport": 6022,
      "Samtid": 6023,
      "##ills": 6024,
      "skapade": 6025,
      "Ungern": 6026,
      "fäst": 6027,
      "Tall": 6028,
      "mött": 6029,
      "avgör": 6030,
      "erbjud": 6031,
      "##field": 6032,
      "Kron": 6033,
      "revolut": 6034,
      "##ungen": 6035,
      "blom": 6036,
      "mak": 6037,
      "vetenskapliga": 6038,
      "##bud": 6039,
      "skriva": 6040,
      "##skydd": 6041,
      "påträff": 6042,
      "diameter": 6043,
      "##öda": 6044,
      "Tet": 6045,
      "##itis": 6046,
      "inf": 6047,
      "Tour": 6048,
      "Eug": 6049,
      "Skott": 6050,
      "Hab": 6051,
      "##grä": 6052,
      "Boh": 6053,
      "Hyd": 6054,
      "Aten": 6055,
      "reserv": 6056,
      "igenom": 6057,
      "verksamheten": 6058,
      "Stefan": 6059,
      "väld": 6060,
      "Comp": 6061,
      "drygt": 6062,
      "Lid": 6063,
      "Laguna": 6064,
      "skiljer": 6065,
      "##sminister": 6066,
      "##slyck": 6067,
      "##astighet": 6068,
      "släppte": 6069,
      "##vand": 6070,
      "##ifolia": 6071,
      "##ilda": 6072,
      "tack": 6073,
      "##bord": 6074,
      "##rup": 6075,
      "befäl": 6076,
      "Saraj": 6077,
      "##atis": 6078,
      "vir": 6079,
      "##azz": 6080,
      "##ften": 6081,
      "##isterna": 6082,
      "Dol": 6083,
      "##änk": 6084,
      "Jön": 6085,
      "Förutom": 6086,
      "beskrivs": 6087,
      "betydande": 6088,
      "##ower": 6089,
      "ps": 6090,
      "klipp": 6091,
      "brand": 6092,
      "webb": 6093,
      "underarten": 6094,
      "mörk": 6095,
      "folkräk": 6096,
      "sö": 6097,
      "##rädde": 6098,
      "##itel": 6099,
      "ret": 6100,
      "##ännen": 6101,
      "Värld": 6102,
      "Kroat": 6103,
      "ev": 6104,
      "jakt": 6105,
      "Cop": 6106,
      "NHL": 6107,
      "befolkningen": 6108,
      "friidrott": 6109,
      "tjänstgjorde": 6110,
      "kull": 6111,
      "Ume": 6112,
      "ång": 6113,
      "Kor": 6114,
      "sommar": 6115,
      "##urs": 6116,
      "##uca": 6117,
      "Sarajevo": 6118,
      "öppna": 6119,
      "minuter": 6120,
      "däribland": 6121,
      "kar": 6122,
      "författaren": 6123,
      "##cep": 6124,
      "individer": 6125,
      "Ras": 6126,
      "Ped": 6127,
      "op": 6128,
      "Jar": 6129,
      "##vä": 6130,
      "gården": 6131,
      "kvarter": 6132,
      "viktigaste": 6133,
      "AI": 6134,
      "Barat": 6135,
      "Östra": 6136,
      "gymnas": 6137,
      "Fo": 6138,
      "svarta": 6139,
      "##atter": 6140,
      "Cór": 6141,
      "Gör": 6142,
      "förhållande": 6143,
      "anfall": 6144,
      "##ques": 6145,
      "stjär": 6146,
      "Queens": 6147,
      "##ugo": 6148,
      "##änneteck": 6149,
      "vind": 6150,
      "flygplats": 6151,
      "hård": 6152,
      "##ruz": 6153,
      "tvingades": 6154,
      "ögon": 6155,
      "regiss": 6156,
      "##rh": 6157,
      "avlade": 6158,
      "upprätt": 6159,
      "Vel": 6160,
      "komposit": 6161,
      "##igheterna": 6162,
      "##uellt": 6163,
      "kraftigt": 6164,
      "Belg": 6165,
      "##ieb": 6166,
      "##stift": 6167,
      "##uer": 6168,
      "kontroll": 6169,
      "ifrån": 6170,
      "##angel": 6171,
      "##skl": 6172,
      "bibliotek": 6173,
      "##unnits": 6174,
      "seder": 6175,
      "organ": 6176,
      "figur": 6177,
      "drottning": 6178,
      "##chn": 6179,
      "##delar": 6180,
      "Jag": 6181,
      "Miss": 6182,
      "finländsk": 6183,
      "Cam": 6184,
      "##ylla": 6185,
      "##acker": 6186,
      "Ernst": 6187,
      "Tar": 6188,
      "kvinnliga": 6189,
      "sh": 6190,
      "byggde": 6191,
      "föremål": 6192,
      "##färd": 6193,
      "Little": 6194,
      "Ly": 6195,
      "perioden": 6196,
      "mand": 6197,
      "Pierre": 6198,
      "SS": 6199,
      "seger": 6200,
      "sångare": 6201,
      "Tengah": 6202,
      "orten": 6203,
      "floden": 6204,
      "pengar": 6205,
      "Så": 6206,
      "Exempel": 6207,
      "professionell": 6208,
      "ökade": 6209,
      "konstrukt": 6210,
      "kallat": 6211,
      "##alar": 6212,
      "godk": 6213,
      "inledde": 6214,
      "##läggningen": 6215,
      "##sby": 6216,
      "syfte": 6217,
      "Ob": 6218,
      "präg": 6219,
      "##ativa": 6220,
      "##län": 6221,
      "misslyck": 6222,
      "Samtidigt": 6223,
      "dagen": 6224,
      "Säsongen": 6225,
      "Sing": 6226,
      "hette": 6227,
      "##ivi": 6228,
      "##yer": 6229,
      "avstånd": 6230,
      "uppgift": 6231,
      "Gäv": 6232,
      "##atformen": 6233,
      "kem": 6234,
      "världsm": 6235,
      "##iljö": 6236,
      "##sex": 6237,
      "sur": 6238,
      "Dep": 6239,
      "final": 6240,
      "##klubb": 6241,
      "##ares": 6242,
      "tätt": 6243,
      "##ki": 6244,
      "religi": 6245,
      "##eus": 6246,
      "Walker": 6247,
      "Ström": 6248,
      "##mast": 6249,
      "Verk": 6250,
      "##enta": 6251,
      "##kyrka": 6252,
      "##blom": 6253,
      "##skomm": 6254,
      "##program": 6255,
      "##chi": 6256,
      "##cht": 6257,
      "##ången": 6258,
      "##strand": 6259,
      "territ": 6260,
      "##vens": 6261,
      "adel": 6262,
      "##forsk": 6263,
      "##sbl": 6264,
      "##aea": 6265,
      "kritik": 6266,
      "inget": 6267,
      "##vakt": 6268,
      "bestående": 6269,
      "##rass": 6270,
      "##uvel": 6271,
      "fi": 6272,
      "##står": 6273,
      "##ängden": 6274,
      "översätt": 6275,
      "##stiden": 6276,
      "mörd": 6277,
      "Karriär": 6278,
      "##jon": 6279,
      "fokus": 6280,
      "nominatformen": 6281,
      "Kin": 6282,
      "##edag": 6283,
      "##korea": 6284,
      "##bach": 6285,
      "##lden": 6286,
      "Rap": 6287,
      "##värd": 6288,
      "##ude": 6289,
      "##onn": 6290,
      "##iform": 6291,
      "märks": 6292,
      "Bab": 6293,
      "##manland": 6294,
      "##ellen": 6295,
      "närmaste": 6296,
      "prins": 6297,
      "##ilen": 6298,
      "fru": 6299,
      "ändå": 6300,
      "vide": 6301,
      "guvernementet": 6302,
      "straff": 6303,
      "To": 6304,
      "Tanjung": 6305,
      "Orten": 6306,
      "##konst": 6307,
      "direktör": 6308,
      "gått": 6309,
      "##ästaren": 6310,
      "matemat": 6311,
      "sålde": 6312,
      "femte": 6313,
      "förening": 6314,
      "##musik": 6315,
      "resa": 6316,
      "ena": 6317,
      "##orget": 6318,
      "Ludwig": 6319,
      "Lago": 6320,
      "stäm": 6321,
      "rollen": 6322,
      "##ionens": 6323,
      "kvinna": 6324,
      "Lor": 6325,
      "##schef": 6326,
      "##olor": 6327,
      "utrikes": 6328,
      "##ary": 6329,
      "stann": 6330,
      "omfattade": 6331,
      "##ningss": 6332,
      "typer": 6333,
      "Mos": 6334,
      "Bart": 6335,
      "##alan": 6336,
      "##ipes": 6337,
      "egentligen": 6338,
      "ko": 6339,
      "Angeles": 6340,
      "##svall": 6341,
      "fotograf": 6342,
      "##sund": 6343,
      "##sburg": 6344,
      "staten": 6345,
      "Gävle": 6346,
      "Linn": 6347,
      "##samma": 6348,
      "##inc": 6349,
      "##efter": 6350,
      "##lim": 6351,
      "##båt": 6352,
      "Jab": 6353,
      "representerad": 6354,
      "##brun": 6355,
      "##opl": 6356,
      "Ana": 6357,
      "populär": 6358,
      "tom": 6359,
      "meddelade": 6360,
      "Hav": 6361,
      "##olin": 6362,
      "Kall": 6363,
      "Freder": 6364,
      "SVT": 6365,
      "läkare": 6366,
      "filosofie": 6367,
      "##inav": 6368,
      "allra": 6369,
      "Följ": 6370,
      "Afrika": 6371,
      "##isch": 6372,
      "Aïn": 6373,
      "övergick": 6374,
      "fyl": 6375,
      "##häng": 6376,
      "##berget": 6377,
      "Vissa": 6378,
      "##färg": 6379,
      "Finlands": 6380,
      "##räff": 6381,
      "##ations": 6382,
      "extra": 6383,
      "##useet": 6384,
      "Bert": 6385,
      "Ev": 6386,
      "##odor": 6387,
      "fö": 6388,
      "upphörde": 6389,
      "pal": 6390,
      "återfin": 6391,
      "varför": 6392,
      "Les": 6393,
      "krav": 6394,
      "##ingo": 6395,
      "##delningen": 6396,
      "##iven": 6397,
      "Sydney": 6398,
      "##endom": 6399,
      "trum": 6400,
      "vår": 6401,
      "##lam": 6402,
      "Barn": 6403,
      "##sgatan": 6404,
      "##ophora": 6405,
      "musiker": 6406,
      "Ali": 6407,
      "landslag": 6408,
      "officiella": 6409,
      "back": 6410,
      "##etta": 6411,
      "##kast": 6412,
      "ordet": 6413,
      "##rael": 6414,
      "##ege": 6415,
      "Bad": 6416,
      "##rens": 6417,
      "##rande": 6418,
      "##igg": 6419,
      "Jord": 6420,
      "bildar": 6421,
      "##allt": 6422,
      "sådana": 6423,
      "Egyp": 6424,
      "arbetet": 6425,
      "använts": 6426,
      "##aliska": 6427,
      "##steg": 6428,
      "ända": 6429,
      "Char": 6430,
      "##byggnaden": 6431,
      "##delsen": 6432,
      "##gångar": 6433,
      "##ågeln": 6434,
      "##itch": 6435,
      "jul": 6436,
      "pseud": 6437,
      "Records": 6438,
      "spelas": 6439,
      "Jakob": 6440,
      "##aket": 6441,
      "Grande": 6442,
      "disp": 6443,
      "##rafiken": 6444,
      "Hag": 6445,
      "##vetenskap": 6446,
      "Cour": 6447,
      "##rang": 6448,
      "Palm": 6449,
      "##bor": 6450,
      "Utseende": 6451,
      "Egypten": 6452,
      "Umeå": 6453,
      "##sidan": 6454,
      "##osc": 6455,
      "##apnet": 6456,
      "##olen": 6457,
      "ägare": 6458,
      "##station": 6459,
      "##ierade": 6460,
      "matchen": 6461,
      "##urst": 6462,
      "##uga": 6463,
      "Henri": 6464,
      "sedermera": 6465,
      "allvar": 6466,
      "Osl": 6467,
      "sjöarna": 6468,
      "Arth": 6469,
      "kärlek": 6470,
      "kanske": 6471,
      "##di": 6472,
      "Mün": 6473,
      "##dal": 6474,
      "politik": 6475,
      "utgav": 6476,
      "##annol": 6477,
      "roller": 6478,
      "##oceph": 6479,
      "Ig": 6480,
      "Adam": 6481,
      "kommunal": 6482,
      "##satta": 6483,
      "Son": 6484,
      "Libanon": 6485,
      "Ps": 6486,
      "##ár": 6487,
      "##wn": 6488,
      "Larsson": 6489,
      "End": 6490,
      "Institut": 6491,
      "österrik": 6492,
      "förläng": 6493,
      "##röna": 6494,
      "sänd": 6495,
      "th": 6496,
      "##ks": 6497,
      "##ningsv": 6498,
      "##ollar": 6499,
      "kompl": 6500,
      "José": 6501,
      "tör": 6502,
      "Song": 6503,
      "trädgård": 6504,
      "Scot": 6505,
      "dit": 6506,
      "doms": 6507,
      "hemma": 6508,
      "##osus": 6509,
      "##igan": 6510,
      "##ote": 6511,
      "##område": 6512,
      "väldigt": 6513,
      "skatt": 6514,
      "Boliv": 6515,
      "läk": 6516,
      "grön": 6517,
      "##vika": 6518,
      "##otta": 6519,
      "undantag": 6520,
      "##idi": 6521,
      "##yre": 6522,
      "utspel": 6523,
      "heder": 6524,
      "##akes": 6525,
      "Si": 6526,
      "##anan": 6527,
      "##stud": 6528,
      "uppkallad": 6529,
      "denne": 6530,
      "vinna": 6531,
      "##mossart": 6532,
      "ext": 6533,
      "förekom": 6534,
      "inflytande": 6535,
      "##aff": 6536,
      "säger": 6537,
      "gall": 6538,
      "tor": 6539,
      "##iket": 6540,
      "Monte": 6541,
      "motsvarar": 6542,
      "##löp": 6543,
      "##andinav": 6544,
      "civil": 6545,
      "##arens": 6546,
      "##uri": 6547,
      "##givare": 6548,
      "dator": 6549,
      "##eds": 6550,
      "Domin": 6551,
      "##dd": 6552,
      "##lov": 6553,
      "utgjorde": 6554,
      "mult": 6555,
      "examen": 6556,
      "##öner": 6557,
      "saknar": 6558,
      "kejs": 6559,
      "registr": 6560,
      "anställda": 6561,
      "Heter": 6562,
      "##skrona": 6563,
      "##ome": 6564,
      "illust": 6565,
      "##hålla": 6566,
      "pian": 6567,
      "publik": 6568,
      "May": 6569,
      "skapades": 6570,
      "klart": 6571,
      "Emil": 6572,
      "##rof": 6573,
      "bakgrund": 6574,
      "delarna": 6575,
      "##onsin": 6576,
      "fack": 6577,
      "Ker": 6578,
      "länet": 6579,
      "##ältet": 6580,
      "varierar": 6581,
      "mänsk": 6582,
      "Im": 6583,
      "Blan": 6584,
      "nationella": 6585,
      "lav": 6586,
      "##ji": 6587,
      "Bah": 6588,
      "fängelse": 6589,
      "##beck": 6590,
      "Skottland": 6591,
      "##vor": 6592,
      "##ävlingen": 6593,
      "##uma": 6594,
      "bladmossart": 6595,
      "bry": 6596,
      "##roduktion": 6597,
      "dubbel": 6598,
      "aut": 6599,
      "kärn": 6600,
      "##inerna": 6601,
      "##ryckt": 6602,
      "Cu": 6603,
      "ström": 6604,
      "menar": 6605,
      "##svarande": 6606,
      "##anes": 6607,
      "medborg": 6608,
      "##odon": 6609,
      "##ogl": 6610,
      "Tab": 6611,
      "äktenskap": 6612,
      "##skrift": 6613,
      "presenter": 6614,
      "##lande": 6615,
      "##aljer": 6616,
      "##eria": 6617,
      "Vas": 6618,
      "King": 6619,
      "återfinns": 6620,
      "bank": 6621,
      "exist": 6622,
      "initiat": 6623,
      "bon": 6624,
      "kam": 6625,
      "ackum": 6626,
      "##ums": 6627,
      "Mak": 6628,
      "##laget": 6629,
      "##kh": 6630,
      "##eborg": 6631,
      "##skepp": 6632,
      "##ugu": 6633,
      "Arbet": 6634,
      "skid": 6635,
      "jorden": 6636,
      "sats": 6637,
      "wadi": 6638,
      "##jo": 6639,
      "snäck": 6640,
      "ingenjör": 6641,
      "##ruket": 6642,
      "##ustrin": 6643,
      "kräv": 6644,
      "sign": 6645,
      "Ljung": 6646,
      "Olymp": 6647,
      "##āl": 6648,
      "##ingart": 6649,
      "##any": 6650,
      "##handel": 6651,
      "##uda": 6652,
      "##arv": 6653,
      "håller": 6654,
      "vet": 6655,
      "militära": 6656,
      "##spelet": 6657,
      "process": 6658,
      "juvel": 6659,
      "##fåglar": 6660,
      "##ellet": 6661,
      "stycken": 6662,
      "verkar": 6663,
      "entiteten": 6664,
      "but": 6665,
      "kyrkog": 6666,
      "Kroatien": 6667,
      "Hell": 6668,
      "värv": 6669,
      "Bris": 6670,
      "behov": 6671,
      "rov": 6672,
      "##ega": 6673,
      "##rien": 6674,
      "kamm": 6675,
      "Feder": 6676,
      "##orsäck": 6677,
      "sporsäck": 6678,
      "högst": 6679,
      "regl": 6680,
      "Simon": 6681,
      "Vasa": 6682,
      "sovjet": 6683,
      "##slagen": 6684,
      "Hammar": 6685,
      "##san": 6686,
      "##yder": 6687,
      "förlust": 6688,
      "Big": 6689,
      "genomfördes": 6690,
      "##fta": 6691,
      "hal": 6692,
      "försälj": 6693,
      "##skaff": 6694,
      "valkrets": 6695,
      "##odell": 6696,
      "funnits": 6697,
      "Aph": 6698,
      "##olt": 6699,
      "Status": 6700,
      "skrif": 6701,
      "Johns": 6702,
      "Hö": 6703,
      "sporsäcksvampar": 6704,
      "##ophyllum": 6705,
      "Queensland": 6706,
      "Long": 6707,
      "##malm": 6708,
      "förvär": 6709,
      "Österg": 6710,
      "##omma": 6711,
      "##räkt": 6712,
      "Väx": 6713,
      "##isen": 6714,
      "##förda": 6715,
      "knapp": 6716,
      "tand": 6717,
      "##sätter": 6718,
      "Europeiska": 6719,
      "storlek": 6720,
      "stadsdelen": 6721,
      "##idia": 6722,
      "öppen": 6723,
      "socialdemokrat": 6724,
      "##ief": 6725,
      "Företaget": 6726,
      "##arbetare": 6727,
      "##löss": 6728,
      "radio": 6729,
      "öarna": 6730,
      "Sovjetunionen": 6731,
      "##läkt": 6732,
      "talen": 6733,
      "##svägen": 6734,
      "Ober": 6735,
      "##ih": 6736,
      "##hark": 6737,
      "##icum": 6738,
      "##get": 6739,
      "##räft": 6740,
      "Pter": 6741,
      "skjut": 6742,
      "härst": 6743,
      "##ynnar": 6744,
      "Lilla": 6745,
      "dör": 6746,
      "sydöst": 6747,
      "Västerås": 6748,
      "Somm": 6749,
      "visa": 6750,
      "nästa": 6751,
      "##namnet": 6752,
      "domstol": 6753,
      "församlingen": 6754,
      "mästare": 6755,
      "##oris": 6756,
      "##fiskar": 6757,
      "sociala": 6758,
      "Moh": 6759,
      "Nova": 6760,
      "ges": 6761,
      "##ér": 6762,
      "##ästerskapen": 6763,
      "##ellersta": 6764,
      "Oc": 6765,
      "viktiga": 6766,
      "##ør": 6767,
      "uppgifter": 6768,
      "publicerades": 6769,
      "##bär": 6770,
      "arbetat": 6771,
      "##slin": 6772,
      "##mon": 6773,
      "Mary": 6774,
      "Bot": 6775,
      "##liggande": 6776,
      "##iae": 6777,
      "Gil": 6778,
      "me": 6779,
      "Region": 6780,
      "däremot": 6781,
      "God": 6782,
      "öar": 6783,
      "##olag": 6784,
      "Lik": 6785,
      "stav": 6786,
      "##umen": 6787,
      "##feld": 6788,
      "##spår": 6789,
      "Pel": 6790,
      "utök": 6791,
      "resul": 6792,
      "##rob": 6793,
      "##nytt": 6794,
      "Rog": 6795,
      "##ättning": 6796,
      "ledande": 6797,
      "livsm": 6798,
      "##öcker": 6799,
      "##orh": 6800,
      "sånger": 6801,
      "##bane": 6802,
      "##ämnd": 6803,
      "brän": 6804,
      "försöker": 6805,
      "##rel": 6806,
      "behandling": 6807,
      "##bit": 6808,
      "bal": 6809,
      "föräldrar": 6810,
      "tränare": 6811,
      "dipl": 6812,
      "arbets": 6813,
      "utform": 6814,
      "japansk": 6815,
      "##iop": 6816,
      "##ilja": 6817,
      "uppmärksamm": 6818,
      "upphov": 6819,
      "utförde": 6820,
      "ringmaskart": 6821,
      "ishockey": 6822,
      "##mäktige": 6823,
      "##gående": 6824,
      "##sväg": 6825,
      "möjlighet": 6826,
      "##ologisk": 6827,
      "Oslo": 6828,
      "IV": 6829,
      "tolv": 6830,
      "upplö": 6831,
      "Sur": 6832,
      "qu": 6833,
      "##fabrik": 6834,
      "Ark": 6835,
      "##banan": 6836,
      "Glac": 6837,
      "Rod": 6838,
      "passer": 6839,
      "tillgäng": 6840,
      "Not": 6841,
      "Sof": 6842,
      "flav": 6843,
      "##du": 6844,
      "inre": 6845,
      "sår": 6846,
      "släkten": 6847,
      "kul": 6848,
      "vanligtvis": 6849,
      "##aktig": 6850,
      "##itat": 6851,
      "resten": 6852,
      "Älv": 6853,
      "Dock": 6854,
      "Bolivia": 6855,
      "Bakgrund": 6856,
      "officiellt": 6857,
      "mas": 6858,
      "kart": 6859,
      "tekniska": 6860,
      "##rego": 6861,
      "pen": 6862,
      "##eende": 6863,
      "kontin": 6864,
      "bolag": 6865,
      "##iftet": 6866,
      "utrust": 6867,
      "gods": 6868,
      "##jäll": 6869,
      "översättning": 6870,
      "Mun": 6871,
      "sitter": 6872,
      "infördes": 6873,
      "kapten": 6874,
      "ackumulerade": 6875,
      "Dub": 6876,
      "##ningens": 6877,
      "Prades": 6878,
      "gär": 6879,
      "överlev": 6880,
      "##rätten": 6881,
      "app": 6882,
      "bud": 6883,
      "##kla": 6884,
      "semif": 6885,
      "##sport": 6886,
      "rädd": 6887,
      "kanadens": 6888,
      "##storp": 6889,
      "bevis": 6890,
      "##gh": 6891,
      "##iji": 6892,
      "##ule": 6893,
      "##press": 6894,
      "Grönland": 6895,
      "log": 6896,
      "##ston": 6897,
      "lista": 6898,
      "ordin": 6899,
      "##emon": 6900,
      "##skottet": 6901,
      "precis": 6902,
      "##övd": 6903,
      "vård": 6904,
      "Radio": 6905,
      "jurid": 6906,
      "Sin": 6907,
      "Santo": 6908,
      "Ludvig": 6909,
      "##listan": 6910,
      "##eira": 6911,
      "Carol": 6912,
      "publicerade": 6913,
      "dramat": 6914,
      "Byggnaden": 6915,
      "kra": 6916,
      "Laur": 6917,
      "lic": 6918,
      "##otte": 6919,
      "försvars": 6920,
      "##harkran": 6921,
      "mär": 6922,
      "##atta": 6923,
      "##ulla": 6924,
      "lut": 6925,
      "##enia": 6926,
      "##lans": 6927,
      "##ävlingarna": 6928,
      "poj": 6929,
      "liber": 6930,
      "##skilda": 6931,
      "medicin": 6932,
      "##aljör": 6933,
      "magn": 6934,
      "##anta": 6935,
      "mångfot": 6936,
      "förd": 6937,
      "São": 6938,
      "kompon": 6939,
      "uttal": 6940,
      "Linné": 6941,
      "Pradesh": 6942,
      "avslutade": 6943,
      "behöver": 6944,
      "fyll": 6945,
      "##harkrankar": 6946,
      "##redik": 6947,
      "##splats": 6948,
      "Iran": 6949,
      "italiensk": 6950,
      "##fartyg": 6951,
      "##rast": 6952,
      "##iserade": 6953,
      "centimeter": 6954,
      "##ställdes": 6955,
      "Kv": 6956,
      "##egori": 6957,
      "täckt": 6958,
      "##ternet": 6959,
      "##ornis": 6960,
      "Jebel": 6961,
      "##oher": 6962,
      "häng": 6963,
      "Gott": 6964,
      "Bei": 6965,
      "IK": 6966,
      "##ledning": 6967,
      "skrift": 6968,
      "säl": 6969,
      "##ee": 6970,
      "##run": 6971,
      "super": 6972,
      "speciellt": 6973,
      "##asin": 6974,
      "Australia": 6975,
      "Franz": 6976,
      "närmare": 6977,
      "Arg": 6978,
      "Kur": 6979,
      "Ferdin": 6980,
      "situ": 6981,
      "##antarktis": 6982,
      "Följande": 6983,
      "##linjen": 6984,
      "##kraft": 6985,
      "##uten": 6986,
      "##rock": 6987,
      "##ekreterare": 6988,
      "os": 6989,
      "Irland": 6990,
      "utmärk": 6991,
      "stäng": 6992,
      "öppnade": 6993,
      "run": 6994,
      "##uz": 6995,
      "kines": 6996,
      "Nap": 6997,
      "##ips": 6998,
      "ishocke": 6999,
      "##författare": 7000,
      "vare": 7001,
      "studioalbum": 7002,
      "##yph": 7003,
      "Wind": 7004,
      "##bottens": 7005,
      "flod": 7006,
      "reste": 7007,
      "Prag": 7008,
      "System": 7009,
      "Point": 7010,
      "Córrego": 7011,
      "hamnade": 7012,
      "mun": 7013,
      "Hum": 7014,
      "rub": 7015,
      "japanska": 7016,
      "Eup": 7017,
      "rot": 7018,
      "##stre": 7019,
      "Britt": 7020,
      "assist": 7021,
      "##nspinnare": 7022,
      "troll": 7023,
      "Pod": 7024,
      "återigen": 7025,
      "##gör": 7026,
      "björnspinnare": 7027,
      "##ye": 7028,
      "Glacier": 7029,
      "You": 7030,
      "lager": 7031,
      "offentliga": 7032,
      "##kester": 7033,
      "Just": 7034,
      "regemente": 7035,
      "ställning": 7036,
      "Social": 7037,
      "fjäder": 7038,
      "Svensk": 7039,
      "tros": 7040,
      "landst": 7041,
      "serier": 7042,
      "nam": 7043,
      "##ipend": 7044,
      "elever": 7045,
      "universitetet": 7046,
      "utkom": 7047,
      "huvudb": 7048,
      "neg": 7049,
      "##fören": 7050,
      "##går": 7051,
      "##församling": 7052,
      "Villa": 7053,
      "##otyp": 7054,
      "lägger": 7055,
      "##gå": 7056,
      "anställd": 7057,
      "##ender": 7058,
      "Arn": 7059,
      "##ngd": 7060,
      "##högskolan": 7061,
      "Ti": 7062,
      "##well": 7063,
      "huvudstad": 7064,
      "ole": 7065,
      "Gamla": 7066,
      "##board": 7067,
      "betydligt": 7068,
      "Fel": 7069,
      "Ill": 7070,
      "heller": 7071,
      "##aktion": 7072,
      "museet": 7073,
      "juvelvingar": 7074,
      "Ferdinand": 7075,
      "revs": 7076,
      "##ican": 7077,
      "Das": 7078,
      "Stre": 7079,
      "populära": 7080,
      "Nav": 7081,
      "Serien": 7082,
      "Pap": 7083,
      "bilder": 7084,
      "Award": 7085,
      "##ás": 7086,
      "##ther": 7087,
      "Hockey": 7088,
      "##mun": 7089,
      "Inför": 7090,
      "enhet": 7091,
      "##acc": 7092,
      "fjärilar": 7093,
      "##edda": 7094,
      "dekor": 7095,
      "medeltiden": 7096,
      "##opt": 7097,
      "##olont": 7098,
      "Win": 7099,
      "com": 7100,
      "politisk": 7101,
      "Vilhelm": 7102,
      "##iks": 7103,
      "rymd": 7104,
      "Kol": 7105,
      "##ouk": 7106,
      "##ktes": 7107,
      "motsvarande": 7108,
      "##rörelsen": 7109,
      "##ls": 7110,
      "It": 7111,
      "##mo": 7112,
      "##vo": 7113,
      "bolaget": 7114,
      "Oph": 7115,
      "Rosen": 7116,
      "Sri": 7117,
      "inslag": 7118,
      "former": 7119,
      "spar": 7120,
      "Mah": 7121,
      "##mid": 7122,
      "Corn": 7123,
      "föreningen": 7124,
      "Ray": 7125,
      "dram": 7126,
      "sjukhus": 7127,
      "kult": 7128,
      "biograf": 7129,
      "##obel": 7130,
      "##ifl": 7131,
      "Samuel": 7132,
      "mandat": 7133,
      "uppn": 7134,
      "Kam": 7135,
      "Utt": 7136,
      "##ätte": 7137,
      "##bana": 7138,
      "ir": 7139,
      "kast": 7140,
      "##smannen": 7141,
      "forskare": 7142,
      "Bud": 7143,
      "##vikt": 7144,
      "urval": 7145,
      "Sud": 7146,
      "alk": 7147,
      "perman": 7148,
      "intill": 7149,
      "##ssätt": 7150,
      "slottet": 7151,
      "ambass": 7152,
      "Småland": 7153,
      "instrument": 7154,
      "Lam": 7155,
      "måreväxter": 7156,
      "sonen": 7157,
      "##acka": 7158,
      "Alto": 7159,
      "Tru": 7160,
      "upplev": 7161,
      "##laren": 7162,
      "##förbund": 7163,
      "utvecklade": 7164,
      "Rudolf": 7165,
      "Och": 7166,
      "##ée": 7167,
      "pension": 7168,
      "vuxna": 7169,
      "dollar": 7170,
      "##asta": 7171,
      "Wash": 7172,
      "nej": 7173,
      "lade": 7174,
      "##yrt": 7175,
      "Deras": 7176,
      "Mid": 7177,
      "##ural": 7178,
      "##sor": 7179,
      "##otes": 7180,
      "grekiska": 7181,
      "Kongo": 7182,
      "källa": 7183,
      "mur": 7184,
      "Vad": 7185,
      "orm": 7186,
      "##nag": 7187,
      "##icer": 7188,
      "##arbete": 7189,
      "Hermann": 7190,
      "nr": 7191,
      "berättar": 7192,
      "kunskap": 7193,
      "##samheten": 7194,
      "Varje": 7195,
      "renover": 7196,
      "##arskap": 7197,
      "##sav": 7198,
      "nere": 7199,
      "inleddes": 7200,
      "Lenn": 7201,
      "medför": 7202,
      "Dis": 7203,
      "lek": 7204,
      "##vok": 7205,
      "Brisbane": 7206,
      "last": 7207,
      "befinner": 7208,
      "Adel": 7209,
      "priset": 7210,
      "##uff": 7211,
      "##ingenjör": 7212,
      "##havare": 7213,
      "anord": 7214,
      "##amma": 7215,
      "##onis": 7216,
      "gitarr": 7217,
      "##stjär": 7218,
      "##rollen": 7219,
      "internationellt": 7220,
      "Juan": 7221,
      "stopp": 7222,
      "##imb": 7223,
      "psalm": 7224,
      "Jabal": 7225,
      "##ound": 7226,
      "##allet": 7227,
      "konc": 7228,
      "sidor": 7229,
      "nedan": 7230,
      "##sök": 7231,
      "Nov": 7232,
      "officer": 7233,
      "utöv": 7234,
      "##yle": 7235,
      "beford": 7236,
      "Tak": 7237,
      "##ps": 7238,
      "omnäm": 7239,
      "kyrkans": 7240,
      "##mond": 7241,
      "Pass": 7242,
      "Turk": 7243,
      "Pasir": 7244,
      "##ati": 7245,
      "innehöll": 7246,
      "aktiva": 7247,
      "ving": 7248,
      "våg": 7249,
      "kir": 7250,
      "minnes": 7251,
      "Linköping": 7252,
      "Filipp": 7253,
      "##pan": 7254,
      "anklag": 7255,
      "##dam": 7256,
      "varefter": 7257,
      "Off": 7258,
      "oleander": 7259,
      "Salt": 7260,
      "##uro": 7261,
      "##agan": 7262,
      "##ssons": 7263,
      "##NA": 7264,
      "rob": 7265,
      "##klass": 7266,
      "##lätt": 7267,
      "##åningom": 7268,
      "##ridge": 7269,
      "Green": 7270,
      "döda": 7271,
      "##ical": 7272,
      "frit": 7273,
      "##aca": 7274,
      "sän": 7275,
      "Mill": 7276,
      "fus": 7277,
      "Ach": 7278,
      "##reformen": 7279,
      "mig": 7280,
      "Francisco": 7281,
      "Pop": 7282,
      "##ylus": 7283,
      "Cab": 7284,
      "##kropp": 7285,
      "Fiji": 7286,
      "sannol": 7287,
      "utnytt": 7288,
      "princip": 7289,
      "##nam": 7290,
      "slogs": 7291,
      "##quist": 7292,
      "småningom": 7293,
      "##porter": 7294,
      "Petter": 7295,
      "Zag": 7296,
      "förh": 7297,
      "Kast": 7298,
      "##omus": 7299,
      "Teg": 7300,
      "Leuc": 7301,
      "bot": 7302,
      "Chic": 7303,
      "Bob": 7304,
      "##eman": 7305,
      "##zi": 7306,
      "##tering": 7307,
      "vand": 7308,
      "landslaget": 7309,
      "##rib": 7310,
      "användning": 7311,
      "##skrifter": 7312,
      "Dor": 7313,
      "övre": 7314,
      "##leå": 7315,
      "Föreningen": 7316,
      "avb": 7317,
      "Guy": 7318,
      "drev": 7319,
      "##organisation": 7320,
      "strä": 7321,
      "##ase": 7322,
      "##atem": 7323,
      "##eps": 7324,
      "parall": 7325,
      "##platser": 7326,
      "##fund": 7327,
      "beläget": 7328,
      "Dic": 7329,
      "CD": 7330,
      "Sec": 7331,
      "##deb": 7332,
      "Ala": 7333,
      "satte": 7334,
      "öppnades": 7335,
      "Boken": 7336,
      "##imm": 7337,
      "##ledes": 7338,
      "metall": 7339,
      "##erenser": 7340,
      "sköld": 7341,
      "Josef": 7342,
      "Cir": 7343,
      "##polit": 7344,
      "Gora": 7345,
      "##ssystem": 7346,
      "kontroller": 7347,
      "##skrivning": 7348,
      "##eir": 7349,
      "##agande": 7350,
      "East": 7351,
      "##olas": 7352,
      "##eff": 7353,
      "Svart": 7354,
      "Tjeckien": 7355,
      "##go": 7356,
      "korta": 7357,
      "kristna": 7358,
      "menade": 7359,
      "##organ": 7360,
      "Chrys": 7361,
      "guvernör": 7362,
      "teknik": 7363,
      "##gär": 7364,
      "##irig": 7365,
      "Utloppet": 7366,
      "ordinarie": 7367,
      "##istik": 7368,
      "##ato": 7369,
      "##oca": 7370,
      "syftar": 7371,
      "tegel": 7372,
      "##stens": 7373,
      "##museum": 7374,
      "Dre": 7375,
      "##po": 7376,
      "München": 7377,
      "##rogrammet": 7378,
      "Pil": 7379,
      "##vatten": 7380,
      "hind": 7381,
      "##oker": 7382,
      "röda": 7383,
      "##ads": 7384,
      "betraktas": 7385,
      "mångfotingart": 7386,
      "Räk": 7387,
      "motiv": 7388,
      "Kategori": 7389,
      "förrän": 7390,
      "kyrkob": 7391,
      "medverkat": 7392,
      "Mosk": 7393,
      "##itekten": 7394,
      "Dahl": 7395,
      "##yla": 7396,
      "las": 7397,
      "##valt": 7398,
      "fien": 7399,
      "studera": 7400,
      "köptes": 7401,
      "singeln": 7402,
      "Gabri": 7403,
      "skalbaggar": 7404,
      "linje": 7405,
      "origin": 7406,
      "##orin": 7407,
      "Lanka": 7408,
      "koncent": 7409,
      "##ömet": 7410,
      "leda": 7411,
      "##örde": 7412,
      "hämt": 7413,
      "##rerade": 7414,
      "Innan": 7415,
      "##optera": 7416,
      "gett": 7417,
      "ör": 7418,
      "storm": 7419,
      "##cer": 7420,
      "##arder": 7421,
      "blomm": 7422,
      "republik": 7423,
      "##älven": 7424,
      "tunnel": 7425,
      "##ear": 7426,
      "fungerar": 7427,
      "timmar": 7428,
      "##agus": 7429,
      "någonsin": 7430,
      "##skade": 7431,
      "IFK": 7432,
      "Knut": 7433,
      "##shövd": 7434,
      "##fart": 7435,
      "mol": 7436,
      "dött": 7437,
      "litet": 7438,
      "##alism": 7439,
      "##ornet": 7440,
      "framställ": 7441,
      "elev": 7442,
      "tyck": 7443,
      "måreväxtart": 7444,
      "##sid": 7445,
      "slå": 7446,
      "synner": 7447,
      "utseende": 7448,
      "vänner": 7449,
      "areal": 7450,
      "##ocarp": 7451,
      "hed": 7452,
      "varian": 7453,
      "kontor": 7454,
      "##ows": 7455,
      "soldater": 7456,
      "Bour": 7457,
      "##cell": 7458,
      "sök": 7459,
      "##amat": 7460,
      "astronomen": 7461,
      "don": 7462,
      "fynd": 7463,
      "kortare": 7464,
      "##unna": 7465,
      "##estival": 7466,
      "##egro": 7467,
      "Cañ": 7468,
      "befolkning": 7469,
      "##lit": 7470,
      "##osten": 7471,
      "##smat": 7472,
      "Hj": 7473,
      "styrelse": 7474,
      "Form": 7475,
      "##ademi": 7476,
      "tillfällen": 7477,
      "##con": 7478,
      "##ebo": 7479,
      "dist": 7480,
      "##osia": 7481,
      "interv": 7482,
      "beskriver": 7483,
      "Steph": 7484,
      "botten": 7485,
      "##mak": 7486,
      "skyd": 7487,
      "##sakademien": 7488,
      "kött": 7489,
      "konstru": 7490,
      "Norden": 7491,
      "kroppen": 7492,
      "##rian": 7493,
      "##älje": 7494,
      "Star": 7495,
      "Bang": 7496,
      "Cur": 7497,
      "##hamns": 7498,
      "##kommande": 7499,
      "##sträck": 7500,
      "##oppor": 7501,
      "Vit": 7502,
      "Nordamerika": 7503,
      "Mats": 7504,
      "##ardo": 7505,
      "##ussen": 7506,
      "##minstone": 7507,
      "Astero": 7508,
      "##ui": 7509,
      "normalt": 7510,
      "Gol": 7511,
      "Thor": 7512,
      "ämnen": 7513,
      "styrk": 7514,
      "status": 7515,
      "representerade": 7516,
      "Rum": 7517,
      "##hjäl": 7518,
      "##imus": 7519,
      "##wer": 7520,
      "##osoma": 7521,
      "Beck": 7522,
      "Hå": 7523,
      "hit": 7524,
      "Rev": 7525,
      "Sym": 7526,
      "##ografiska": 7527,
      "##spinnare": 7528,
      "avse": 7529,
      "##ete": 7530,
      "##estivalen": 7531,
      "pul": 7532,
      "världs": 7533,
      "##kontor": 7534,
      "How": 7535,
      "underhåll": 7536,
      "beslutade": 7537,
      "##öjd": 7538,
      "##ologin": 7539,
      "hälften": 7540,
      "Washington": 7541,
      "läs": 7542,
      "Stan": 7543,
      "Mi": 7544,
      "##ariket": 7545,
      "viv": 7546,
      "##äckte": 7547,
      "##ges": 7548,
      "Ång": 7549,
      "##oven": 7550,
      "Totalt": 7551,
      "territor": 7552,
      "avanc": 7553,
      "syns": 7554,
      "pans": 7555,
      "##etiska": 7556,
      "##nens": 7557,
      "riv": 7558,
      "trupper": 7559,
      "sade": 7560,
      "##latsen": 7561,
      "häls": 7562,
      "elektron": 7563,
      "Belgien": 7564,
      "##ampa": 7565,
      "Wood": 7566,
      "accep": 7567,
      "##efte": 7568,
      "metod": 7569,
      "Låt": 7570,
      "Ria": 7571,
      "Tem": 7572,
      "bur": 7573,
      "Victoria": 7574,
      "tillräckligt": 7575,
      "skivan": 7576,
      "##lösa": 7577,
      "avslöj": 7578,
      "allmänt": 7579,
      "##ians": 7580,
      "Cra": 7581,
      "sammanhang": 7582,
      "gas": 7583,
      "noter": 7584,
      "Myc": 7585,
      "takt": 7586,
      "ägs": 7587,
      "Dend": 7588,
      "Bod": 7589,
      "utgavs": 7590,
      "internationell": 7591,
      "##äkring": 7592,
      "sällan": 7593,
      "yrkes": 7594,
      "Mitt": 7595,
      "##enskap": 7596,
      "##icul": 7597,
      "katolska": 7598,
      "verket": 7599,
      "Skär": 7600,
      "redaktör": 7601,
      "Hit": 7602,
      "snar": 7603,
      "ag": 7604,
      "kalk": 7605,
      "##stav": 7606,
      "##lle": 7607,
      "kvalific": 7608,
      "Fu": 7609,
      "##ikern": 7610,
      "utvecklingen": 7611,
      "politiskt": 7612,
      "helg": 7613,
      "äng": 7614,
      "##åldern": 7615,
      "Statens": 7616,
      "Vän": 7617,
      "källor": 7618,
      "Scotia": 7619,
      "##idens": 7620,
      "Suc": 7621,
      "Arthur": 7622,
      "Alm": 7623,
      "refor": 7624,
      "Hart": 7625,
      "Brach": 7626,
      "##ido": 7627,
      "flagg": 7628,
      "otill": 7629,
      "##ates": 7630,
      "vattendraget": 7631,
      "Häls": 7632,
      "##yth": 7633,
      "Dr": 7634,
      "tillf": 7635,
      "spelaren": 7636,
      "##ics": 7637,
      "##rateg": 7638,
      "##ail": 7639,
      "slav": 7640,
      "Phou": 7641,
      "prop": 7642,
      "##aux": 7643,
      "kloster": 7644,
      "AIK": 7645,
      "##antus": 7646,
      "##ningsb": 7647,
      "##omet": 7648,
      "tas": 7649,
      "Nar": 7650,
      "Suva": 7651,
      "visades": 7652,
      "##zer": 7653,
      "##byn": 7654,
      "Eriksson": 7655,
      "föred": 7656,
      "bröst": 7657,
      "Räknas": 7658,
      "Aust": 7659,
      "##AS": 7660,
      "Hamp": 7661,
      "##yk": 7662,
      "hemm": 7663,
      "##ångare": 7664,
      "avvattnas": 7665,
      "aukt": 7666,
      "Gall": 7667,
      "##inalen": 7668,
      "##skåd": 7669,
      "torp": 7670,
      "Brown": 7671,
      "svans": 7672,
      "framförallt": 7673,
      "rekord": 7674,
      "döp": 7675,
      "him": 7676,
      "Vol": 7677,
      "##beroende": 7678,
      "framåt": 7679,
      "tillbring": 7680,
      "Depart": 7681,
      "närvarande": 7682,
      "##uber": 7683,
      "levande": 7684,
      "Kra": 7685,
      "huvudbältet": 7686,
      "melod": 7687,
      "Gard": 7688,
      "sum": 7689,
      "gräsart": 7690,
      "Gym": 7691,
      "Fab": 7692,
      "##sberg": 7693,
      "max": 7694,
      "##okal": 7695,
      "##sledamot": 7696,
      "##ein": 7697,
      "Södert": 7698,
      "stånd": 7699,
      "huvudort": 7700,
      "##ollen": 7701,
      "##istiskt": 7702,
      "exped": 7703,
      "Royal": 7704,
      "Mass": 7705,
      "Dia": 7706,
      "McC": 7707,
      "Bukit": 7708,
      "förel": 7709,
      "bevarade": 7710,
      "##oi": 7711,
      "##itta": 7712,
      "tillverkades": 7713,
      "##andena": 7714,
      "hjärt": 7715,
      "förde": 7716,
      "utmär": 7717,
      "##illiga": 7718,
      "hyll": 7719,
      "Akt": 7720,
      "Hos": 7721,
      "kommiss": 7722,
      "dömdes": 7723,
      "Asteroiden": 7724,
      "##aland": 7725,
      "##iers": 7726,
      "##rant": 7727,
      "Manit": 7728,
      "##anga": 7729,
      "Kultur": 7730,
      "Dalarna": 7731,
      "dial": 7732,
      "##daf": 7733,
      "skriver": 7734,
      "Olsson": 7735,
      "kyrkoher": 7736,
      "Sundsvall": 7737,
      "sattes": 7738,
      "Norrköping": 7739,
      "framgångar": 7740,
      "liknar": 7741,
      "vån": 7742,
      "versionen": 7743,
      "Love": 7744,
      "##rare": 7745,
      "prefekturen": 7746,
      "Hamb": 7747,
      "##hal": 7748,
      "Tok": 7749,
      "förbindel": 7750,
      "betal": 7751,
      "nå": 7752,
      "törel": 7753,
      "giv": 7754,
      "avl": 7755,
      "organisationen": 7756,
      "Zeeland": 7757,
      "genombrott": 7758,
      "Jär": 7759,
      "Spring": 7760,
      "##rett": 7761,
      "halvgrä": 7762,
      "##tex": 7763,
      "systemet": 7764,
      "##viken": 7765,
      "närmast": 7766,
      "##ostäder": 7767,
      "skogar": 7768,
      "##isering": 7769,
      "näbb": 7770,
      "omfattning": 7771,
      "##rata": 7772,
      "Asien": 7773,
      "##ifer": 7774,
      "uppstod": 7775,
      "##ami": 7776,
      "##smakten": 7777,
      "##hidae": 7778,
      "fläck": 7779,
      "##ues": 7780,
      "##stan": 7781,
      "##olax": 7782,
      "##mannen": 7783,
      "##sey": 7784,
      "##cuador": 7785,
      "kväll": 7786,
      "stå": 7787,
      "Gon": 7788,
      "grod": 7789,
      "Lang": 7790,
      "Jonas": 7791,
      "tättingar": 7792,
      "Bö": 7793,
      "event": 7794,
      "##aus": 7795,
      "##urer": 7796,
      "##mod": 7797,
      "High": 7798,
      "lov": 7799,
      "trö": 7800,
      "romerska": 7801,
      "##styrelsen": 7802,
      "##aro": 7803,
      "trett": 7804,
      "myt": 7805,
      "språket": 7806,
      "Ari": 7807,
      "systematik": 7808,
      "App": 7809,
      "Bet": 7810,
      "etapp": 7811,
      "##iera": 7812,
      "bidrog": 7813,
      "myror": 7814,
      "##atiska": 7815,
      "##rient": 7816,
      "ritningar": 7817,
      "Sem": 7818,
      "olyck": 7819,
      "##irektör": 7820,
      "bomb": 7821,
      "nämnas": 7822,
      "kejsar": 7823,
      "##phaer": 7824,
      "Myr": 7825,
      "Western": 7826,
      "Pri": 7827,
      "tons": 7828,
      "total": 7829,
      "##riga": 7830,
      "Engel": 7831,
      "Mey": 7832,
      "##dalen": 7833,
      "goda": 7834,
      "kro": 7835,
      "##alo": 7836,
      "##ensson": 7837,
      "Beirut": 7838,
      "arke": 7839,
      "##oga": 7840,
      "åtminstone": 7841,
      "##föreningen": 7842,
      "##amål": 7843,
      "Halm": 7844,
      "Sum": 7845,
      "##bom": 7846,
      "##ställd": 7847,
      "Wolf": 7848,
      "##karriär": 7849,
      "lilla": 7850,
      "förkort": 7851,
      "ax": 7852,
      "hjul": 7853,
      "anslutning": 7854,
      "##ña": 7855,
      "avrinningsområdena": 7856,
      "kry": 7857,
      "Strand": 7858,
      "Bank": 7859,
      "SK": 7860,
      "##elin": 7861,
      "Socknen": 7862,
      "FF": 7863,
      "sammanlagt": 7864,
      "fönster": 7865,
      "ägnade": 7866,
      "bergsp": 7867,
      "##istrikt": 7868,
      "Tekniska": 7869,
      "##vide": 7870,
      "gram": 7871,
      "skrifter": 7872,
      "rättigheter": 7873,
      "##skiftet": 7874,
      "##ando": 7875,
      "Ron": 7876,
      "Ran": 7877,
      "##bour": 7878,
      "projektet": 7879,
      "stadsdel": 7880,
      "##läd": 7881,
      "Pulau": 7882,
      "nordiska": 7883,
      "##delser": 7884,
      "graf": 7885,
      "##unkten": 7886,
      "arg": 7887,
      "spets": 7888,
      "bedöm": 7889,
      "##vapen": 7890,
      "##rer": 7891,
      "##reis": 7892,
      "färger": 7893,
      "egenskaper": 7894,
      "Järnväg": 7895,
      "avhandling": 7896,
      "kommers": 7897,
      "Rey": 7898,
      "cal": 7899,
      "##bes": 7900,
      "sjung": 7901,
      "gott": 7902,
      "##strä": 7903,
      "makten": 7904,
      "##lant": 7905,
      "##tekn": 7906,
      "##sättningar": 7907,
      "tredj": 7908,
      "##agare": 7909,
      "##ript": 7910,
      "##askar": 7911,
      "##itioner": 7912,
      "##lest": 7913,
      "##ekonom": 7914,
      "Året": 7915,
      "gränsar": 7916,
      "Melolont": 7917,
      "krets": 7918,
      "Växjö": 7919,
      "nödvänd": 7920,
      "##ual": 7921,
      "##fågel": 7922,
      "Serra": 7923,
      "##faren": 7924,
      "##grupper": 7925,
      "Num": 7926,
      "##ställande": 7927,
      "##rey": 7928,
      "vanligaste": 7929,
      "karriären": 7930,
      "Manitoba": 7931,
      "##ose": 7932,
      "Dy": 7933,
      "sat": 7934,
      "yttre": 7935,
      "parasit": 7936,
      "influ": 7937,
      "kvart": 7938,
      "##bandet": 7939,
      "utgå": 7940,
      "Jesus": 7941,
      "Beg": 7942,
      "placerade": 7943,
      "anpass": 7944,
      "Py": 7945,
      "##rekt": 7946,
      "Mål": 7947,
      "gjord": 7948,
      "##phus": 7949,
      "Franç": 7950,
      "tan": 7951,
      "##apt": 7952,
      "Sydkorea": 7953,
      "Rub": 7954,
      "##oci": 7955,
      "hästar": 7956,
      "##edagog": 7957,
      "sträv": 7958,
      "Cham": 7959,
      "våt": 7960,
      "hörde": 7961,
      "borger": 7962,
      "Comm": 7963,
      "vårt": 7964,
      "objekt": 7965,
      "##stor": 7966,
      "fortsätta": 7967,
      "Ath": 7968,
      "Lit": 7969,
      "Amph": 7970,
      "est": 7971,
      "##rädande": 7972,
      "ovans": 7973,
      "But": 7974,
      "Ama": 7975,
      "fjäll": 7976,
      "känneteck": 7977,
      "kvalster": 7978,
      "##elsens": 7979,
      "##umin": 7980,
      "nordvästlig": 7981,
      "snäckart": 7982,
      "##hets": 7983,
      "lämp": 7984,
      "##usin": 7985,
      "##tiden": 7986,
      "##fru": 7987,
      "fader": 7988,
      "utställning": 7989,
      "##skusten": 7990,
      "Dh": 7991,
      "##opa": 7992,
      "##shuset": 7993,
      "Prix": 7994,
      "Tengg": 7995,
      "##fly": 7996,
      "Lad": 7997,
      "parish": 7998,
      "##servatoriet": 7999,
      "##ivan": 8000,
      "klassiska": 8001,
      "cell": 8002,
      "Vikt": 8003,
      "kong": 8004,
      "tidig": 8005,
      "Alban": 8006,
      "Sun": 8007,
      "##arab": 8008,
      "föll": 8009,
      "sekreterare": 8010,
      "White": 8011,
      "André": 8012,
      "delta": 8013,
      "Es": 8014,
      "Guld": 8015,
      "avrinningsområden": 8016,
      "##kyrkan": 8017,
      "ske": 8018,
      "Darah": 8019,
      "##olaget": 8020,
      "australi": 8021,
      "dägg": 8022,
      "pastorat": 8023,
      "##esa": 8024,
      "Lee": 8025,
      "fråga": 8026,
      "Fot": 8027,
      "##förhåll": 8028,
      "intervju": 8029,
      "Scott": 8030,
      "kg": 8031,
      "##ierra": 8032,
      "##eton": 8033,
      "##ogn": 8034,
      "##inst": 8035,
      "avtal": 8036,
      "tax": 8037,
      "##rats": 8038,
      "Hom": 8039,
      "##spart": 8040,
      "American": 8041,
      "Bohus": 8042,
      "hål": 8043,
      "##ycl": 8044,
      "Göran": 8045,
      "Kun": 8046,
      "##vinsen": 8047,
      "malv": 8048,
      "Portug": 8049,
      "School": 8050,
      "tillhörande": 8051,
      "##skontrakt": 8052,
      "##orts": 8053,
      "delades": 8054,
      "##apé": 8055,
      "Arch": 8056,
      "##män": 8057,
      "Klubben": 8058,
      "Först": 8059,
      "utgiven": 8060,
      "sälls": 8061,
      "Koudiat": 8062,
      "Ah": 8063,
      "##samt": 8064,
      "Melolonthidae": 8065,
      "##omycetes": 8066,
      "byggd": 8067,
      "##dell": 8068,
      "ändrades": 8069,
      "##ldern": 8070,
      "Jacques": 8071,
      "##språkiga": 8072,
      "Kim": 8073,
      "##mes": 8074,
      "myrten": 8075,
      "förmod": 8076,
      "##mö": 8077,
      "##orpor": 8078,
      "Fe": 8079,
      "hävd": 8080,
      "##dera": 8081,
      "Vetenskap": 8082,
      "polska": 8083,
      "föregång": 8084,
      "forsknings": 8085,
      "##öde": 8086,
      "integ": 8087,
      "##ässel": 8088,
      "överst": 8089,
      "överlä": 8090,
      "Hur": 8091,
      "Ecuador": 8092,
      "anim": 8093,
      "attack": 8094,
      "Tenggara": 8095,
      "##priset": 8096,
      "ärk": 8097,
      "##ray": 8098,
      "uppmärksamhet": 8099,
      "sårbar": 8100,
      "Cruz": 8101,
      "Lö": 8102,
      "##rådets": 8103,
      "inträff": 8104,
      "Anne": 8105,
      "anser": 8106,
      "sent": 8107,
      "Jämtland": 8108,
      "Mala": 8109,
      "##iser": 8110,
      "Tal": 8111,
      "begravd": 8112,
      "bildas": 8113,
      "##efteå": 8114,
      "tätort": 8115,
      "utbredning": 8116,
      "Antonio": 8117,
      "Rivi": 8118,
      "således": 8119,
      "##yspelare": 8120,
      "##agor": 8121,
      "gat": 8122,
      "Margareta": 8123,
      "Pin": 8124,
      "##itud": 8125,
      "amar": 8126,
      "##sverk": 8127,
      "##manlands": 8128,
      "advok": 8129,
      "Västerg": 8130,
      "bekräft": 8131,
      "Guatem": 8132,
      "spansk": 8133,
      "##ötet": 8134,
      "Ever": 8135,
      "syss": 8136,
      "Sach": 8137,
      "flykt": 8138,
      "##rål": 8139,
      "##asc": 8140,
      "Seg": 8141,
      "##ün": 8142,
      "minska": 8143,
      "##ope": 8144,
      "##livet": 8145,
      "banan": 8146,
      "svär": 8147,
      "SC": 8148,
      "frågan": 8149,
      "##ventyr": 8150,
      "##elen": 8151,
      "Ara": 8152,
      "ligan": 8153,
      "##skrig": 8154,
      "##rium": 8155,
      "hitta": 8156,
      "slags": 8157,
      "Ross": 8158,
      "##ittén": 8159,
      "##eles": 8160,
      "Pr": 8161,
      "tvåa": 8162,
      "föreg": 8163,
      "##ydde": 8164,
      "ens": 8165,
      "Lew": 8166,
      "modeller": 8167,
      "söner": 8168,
      "Wik": 8169,
      "##ligaste": 8170,
      "##lanssteklar": 8171,
      "Moskva": 8172,
      "Sydaf": 8173,
      "tillämp": 8174,
      "##häst": 8175,
      "Inter": 8176,
      "##riter": 8177,
      "framgångsrika": 8178,
      "folkm": 8179,
      "Ytter": 8180,
      "##resident": 8181,
      "##sats": 8182,
      "##dis": 8183,
      "beror": 8184,
      "bröt": 8185,
      "Internationella": 8186,
      "Gotland": 8187,
      "##elserna": 8188,
      "Brand": 8189,
      "solen": 8190,
      "##essen": 8191,
      "utbildade": 8192,
      "öka": 8193,
      "##server": 8194,
      "grunden": 8195,
      "handboll": 8196,
      "tank": 8197,
      "ran": 8198,
      "följa": 8199,
      "ordning": 8200,
      "##sättningen": 8201,
      "pall": 8202,
      "position": 8203,
      "##smän": 8204,
      "övertog": 8205,
      "##flott": 8206,
      "bergsked": 8207,
      "temperatur": 8208,
      "bib": 8209,
      "##test": 8210,
      "greve": 8211,
      "Domingo": 8212,
      "konstnären": 8213,
      "påträffats": 8214,
      "Referenser": 8215,
      "Kj": 8216,
      "Israel": 8217,
      "##ance": 8218,
      "sa": 8219,
      "##fton": 8220,
      "spindeldjursart": 8221,
      "##oslav": 8222,
      "##iensis": 8223,
      "hårt": 8224,
      "##raden": 8225,
      "upptäck": 8226,
      "Ther": 8227,
      "Ess": 8228,
      "anlä": 8229,
      "Eva": 8230,
      "##industri": 8231,
      "starka": 8232,
      "permanent": 8233,
      "mass": 8234,
      "Texas": 8235,
      "ph": 8236,
      "kapell": 8237,
      "upplöstes": 8238,
      "##uan": 8239,
      "##ionde": 8240,
      "##aba": 8241,
      "##chin": 8242,
      "##industrin": 8243,
      "Dev": 8244,
      "sälj": 8245,
      "Horn": 8246,
      "lägen": 8247,
      "##skolor": 8248,
      "Tit": 8249,
      "##slam": 8250,
      "##ente": 8251,
      "förvärv": 8252,
      "avsked": 8253,
      "Bure": 8254,
      "Fågeln": 8255,
      "Kuba": 8256,
      "##ssam": 8257,
      "administrativa": 8258,
      "stick": 8259,
      "##ites": 8260,
      "Guatemala": 8261,
      "Crypt": 8262,
      "börja": 8263,
      "jobb": 8264,
      "##derna": 8265,
      "överfördes": 8266,
      "artist": 8267,
      "Lem": 8268,
      "element": 8269,
      "barnen": 8270,
      "häns": 8271,
      "naz": 8272,
      "##shuvud": 8273,
      "lägga": 8274,
      "hundra": 8275,
      "##skal": 8276,
      "autom": 8277,
      "skådespelaren": 8278,
      "Tay": 8279,
      "##lay": 8280,
      "ten": 8281,
      "traditionella": 8282,
      "##ässigt": 8283,
      "låta": 8284,
      "##oto": 8285,
      "telef": 8286,
      "Johnson": 8287,
      "överste": 8288,
      "Syn": 8289,
      "France": 8290,
      "Nusa": 8291,
      "utred": 8292,
      "stål": 8293,
      "Ash": 8294,
      "Et": 8295,
      "artiklar": 8296,
      "Zagreb": 8297,
      "visat": 8298,
      "bergspass": 8299,
      "##iets": 8300,
      "Harry": 8301,
      "College": 8302,
      "##äste": 8303,
      "##reta": 8304,
      "Eti": 8305,
      "gro": 8306,
      "lock": 8307,
      "##rimin": 8308,
      "Law": 8309,
      "fåglar": 8310,
      "beställ": 8311,
      "fastighet": 8312,
      "anges": 8313,
      "Yo": 8314,
      "tab": 8315,
      "##vinn": 8316,
      "tror": 8317,
      "kop": 8318,
      "Barcel": 8319,
      "Riks": 8320,
      "Chicago": 8321,
      "Troll": 8322,
      "Virg": 8323,
      "tung": 8324,
      "schw": 8325,
      "##zuel": 8326,
      "transport": 8327,
      "Sib": 8328,
      "##arin": 8329,
      "##fenben": 8330,
      "alkoh": 8331,
      "finländska": 8332,
      "##apa": 8333,
      "##ianus": 8334,
      "Igar": 8335,
      "anlägg": 8336,
      "Kenn": 8337,
      "tecken": 8338,
      "löp": 8339,
      "nattsländeart": 8340,
      "##maskar": 8341,
      "bedriv": 8342,
      "besökte": 8343,
      "VD": 8344,
      "##arth": 8345,
      "samlade": 8346,
      "##nämnda": 8347,
      "Spelet": 8348,
      "Center": 8349,
      "begreppet": 8350,
      "Jul": 8351,
      "##ocera": 8352,
      "##kul": 8353,
      "rysk": 8354,
      "smal": 8355,
      "Seoul": 8356,
      "##bu": 8357,
      "##mande": 8358,
      "##talet": 8359,
      "Fall": 8360,
      "socknen": 8361,
      "Värmland": 8362,
      "privata": 8363,
      "Ball": 8364,
      "romanen": 8365,
      "musiken": 8366,
      "Ins": 8367,
      "Reservatet": 8368,
      "artister": 8369,
      "##idea": 8370,
      "rank": 8371,
      "vänt": 8372,
      "avgräns": 8373,
      "##sal": 8374,
      "Music": 8375,
      "##fal": 8376,
      "##ilton": 8377,
      "rapporter": 8378,
      "##sblomm": 8379,
      "vall": 8380,
      "Savolax": 8381,
      "ekonomi": 8382,
      "##bladet": 8383,
      "##systemet": 8384,
      "Frit": 8385,
      "Sang": 8386,
      "anlades": 8387,
      "##elj": 8388,
      "##eiro": 8389,
      "hab": 8390,
      "honan": 8391,
      "##ärer": 8392,
      "##skjut": 8393,
      "arab": 8394,
      "kommunerna": 8395,
      "##sborg": 8396,
      "Trans": 8397,
      "Julius": 8398,
      "Etiop": 8399,
      "##bell": 8400,
      "Grund": 8401,
      "Melod": 8402,
      "##flygplan": 8403,
      "ambassad": 8404,
      "Bandet": 8405,
      "Mall": 8406,
      "##gor": 8407,
      "kyrkor": 8408,
      "##äker": 8409,
      "##aya": 8410,
      "Act": 8411,
      "pjä": 8412,
      "arv": 8413,
      "##erial": 8414,
      "##rons": 8415,
      "Augu": 8416,
      "Pon": 8417,
      "Vik": 8418,
      "mob": 8419,
      "##eli": 8420,
      "Victor": 8421,
      "tingslag": 8422,
      "tillför": 8423,
      "energi": 8424,
      "utveckla": 8425,
      "länkar": 8426,
      "akantus": 8427,
      "##rera": 8428,
      "##endet": 8429,
      "Ent": 8430,
      "##smus": 8431,
      "##antas": 8432,
      "allmänhet": 8433,
      "viktigt": 8434,
      "Pach": 8435,
      "utspelar": 8436,
      "##tyskland": 8437,
      "lokaler": 8438,
      "los": 8439,
      "##områden": 8440,
      "Skog": 8441,
      "##äpp": 8442,
      "frist": 8443,
      "komed": 8444,
      "##usch": 8445,
      "mötte": 8446,
      "utd": 8447,
      "efterfölj": 8448,
      "##ossor": 8449,
      "nationalp": 8450,
      "regissör": 8451,
      "specif": 8452,
      "Igarapé": 8453,
      "lavart": 8454,
      "Persson": 8455,
      "press": 8456,
      "Atlan": 8457,
      "##āh": 8458,
      "##ipennis": 8459,
      "Run": 8460,
      "Rivière": 8461,
      "##stil": 8462,
      "##ckerna": 8463,
      "separ": 8464,
      "Club": 8465,
      "Elisabeth": 8466,
      "Deb": 8467,
      "lära": 8468,
      "##otrich": 8469,
      "Poly": 8470,
      "Björk": 8471,
      "##wall": 8472,
      "vol": 8473,
      "Gir": 8474,
      "##lista": 8475,
      "ständ": 8476,
      "Person": 8477,
      "my": 8478,
      "##igenom": 8479,
      "##dotter": 8480,
      "skäl": 8481,
      "##ém": 8482,
      "historien": 8483,
      "hud": 8484,
      "##tor": 8485,
      "##ifera": 8486,
      "##ylind": 8487,
      "##jukdom": 8488,
      "Ribeir": 8489,
      "antag": 8490,
      "François": 8491,
      "Ost": 8492,
      "bilda": 8493,
      "fordon": 8494,
      "tids": 8495,
      "##omor": 8496,
      "Gruppen": 8497,
      "kommunreformen": 8498,
      "tydligt": 8499,
      "nämns": 8500,
      "Gabriel": 8501,
      "Costa": 8502,
      "gemensamma": 8503,
      "##arius": 8504,
      "##ågor": 8505,
      "akadem": 8506,
      "salt": 8507,
      "händer": 8508,
      "Tol": 8509,
      "mått": 8510,
      "##lie": 8511,
      "##inda": 8512,
      "Ring": 8513,
      "##enberg": 8514,
      "Ribeirão": 8515,
      "hjär": 8516,
      "##ätet": 8517,
      "Ans": 8518,
      "##jas": 8519,
      "##yet": 8520,
      "##por": 8521,
      "minor": 8522,
      "##örn": 8523,
      "##arus": 8524,
      "##oo": 8525,
      "minne": 8526,
      "oberoende": 8527,
      "Tas": 8528,
      "##sfull": 8529,
      "##eget": 8530,
      "Guinea": 8531,
      "##rikanska": 8532,
      "##oten": 8533,
      "sällskap": 8534,
      "äter": 8535,
      "##regionen": 8536,
      "vinst": 8537,
      "##back": 8538,
      "##ären": 8539,
      "##efatt": 8540,
      "##obius": 8541,
      "##illeri": 8542,
      "avsnittet": 8543,
      "Blek": 8544,
      "EP": 8545,
      "##departementet": 8546,
      "##shög": 8547,
      "Vidare": 8548,
      "##litter": 8549,
      "orden": 8550,
      "namng": 8551,
      "##emedel": 8552,
      "spelen": 8553,
      "Andreas": 8554,
      "Tw": 8555,
      "##ès": 8556,
      "startades": 8557,
      "Dominikanska": 8558,
      "texten": 8559,
      "##itté": 8560,
      "miljarder": 8561,
      "turk": 8562,
      "olympisk": 8563,
      "Wilson": 8564,
      "##vara": 8565,
      "##amento": 8566,
      "##emin": 8567,
      "##institut": 8568,
      "förmåga": 8569,
      "##ökt": 8570,
      "natten": 8571,
      "människan": 8572,
      "Cath": 8573,
      "##escens": 8574,
      "öd": 8575,
      "snarare": 8576,
      "Bran": 8577,
      "##utbildning": 8578,
      "##figur": 8579,
      "fir": 8580,
      "Harris": 8581,
      "nämligen": 8582,
      "fria": 8583,
      "värvades": 8584,
      "planer": 8585,
      "enskilda": 8586,
      "vul": 8587,
      "Åland": 8588,
      "##skarriär": 8589,
      "tillgång": 8590,
      "Nam": 8591,
      "mik": 8592,
      "jazz": 8593,
      "religion": 8594,
      "FN": 8595,
      "dyg": 8596,
      "Därför": 8597,
      "hom": 8598,
      "Teater": 8599,
      "##herre": 8600,
      "Lat": 8601,
      "Försvar": 8602,
      "gar": 8603,
      "##året": 8604,
      "##ancer": 8605,
      "fann": 8606,
      "##uppg": 8607,
      "omedel": 8608,
      "förber": 8609,
      "småort": 8610,
      "lantbruk": 8611,
      "##tjärnen": 8612,
      "Chal": 8613,
      "##sfisk": 8614,
      "konservat": 8615,
      "flockblommiga": 8616,
      "##stal": 8617,
      "Bent": 8618,
      "utifrån": 8619,
      "Allsvenskan": 8620,
      "Walter": 8621,
      "##sexamen": 8622,
      "Lec": 8623,
      "mekan": 8624,
      "sägs": 8625,
      "sekt": 8626,
      "äger": 8627,
      "##berga": 8628,
      "inbörde": 8629,
      "Prim": 8630,
      "##IS": 8631,
      "närings": 8632,
      "ljung": 8633,
      "##jar": 8634,
      "##regemente": 8635,
      "produkter": 8636,
      "jätt": 8637,
      "enkelt": 8638,
      "##iza": 8639,
      "tänkt": 8640,
      "##icip": 8641,
      "Christoph": 8642,
      "##anuel": 8643,
      "Rut": 8644,
      "initiativ": 8645,
      "Sz": 8646,
      "länderna": 8647,
      "Ghar": 8648,
      "##företag": 8649,
      "##yi": 8650,
      "Isla": 8651,
      "Ale": 8652,
      "grann": 8653,
      "Jones": 8654,
      "Katarina": 8655,
      "##ils": 8656,
      "##ique": 8657,
      "inval": 8658,
      "##ctus": 8659,
      "årligen": 8660,
      "##ationerna": 8661,
      "##és": 8662,
      "brist": 8663,
      "Årets": 8664,
      "frågorna": 8665,
      "##medel": 8666,
      "varvid": 8667,
      "##oki": 8668,
      "kil": 8669,
      "Gull": 8670,
      "##ahr": 8671,
      "##fanter": 8672,
      "Strauss": 8673,
      "lett": 8674,
      "Källor": 8675,
      "Viet": 8676,
      "fal": 8677,
      "styrelsen": 8678,
      "##mästaren": 8679,
      "lokalt": 8680,
      "Pont": 8681,
      "stannade": 8682,
      "##nest": 8683,
      "Estland": 8684,
      "##kår": 8685,
      "avskaff": 8686,
      "frihet": 8687,
      "ersatte": 8688,
      "tecknare": 8689,
      "##skytt": 8690,
      "original": 8691,
      "äventyr": 8692,
      "##äcken": 8693,
      "särskild": 8694,
      "Västergötland": 8695,
      "Etiopien": 8696,
      "Eri": 8697,
      "##no": 8698,
      "##arer": 8699,
      "Tu": 8700,
      "##varo": 8701,
      "gitarrist": 8702,
      "##litt": 8703,
      "##osh": 8704,
      "##bury": 8705,
      "##skor": 8706,
      "##sförbund": 8707,
      "texter": 8708,
      "friidrottare": 8709,
      "skil": 8710,
      "Stig": 8711,
      "Elfenben": 8712,
      "köpa": 8713,
      "##krig": 8714,
      "##erner": 8715,
      "make": 8716,
      "mjöl": 8717,
      "marknaden": 8718,
      "allmänheten": 8719,
      "##enz": 8720,
      "##rell": 8721,
      "Rac": 8722,
      "##ammen": 8723,
      "genomförde": 8724,
      "päls": 8725,
      "Luleå": 8726,
      "Top": 8727,
      "##aki": 8728,
      "Sofia": 8729,
      "morg": 8730,
      "##bal": 8731,
      "BK": 8732,
      "Peru": 8733,
      "kvalsterart": 8734,
      "install": 8735,
      "gest": 8736,
      "##antha": 8737,
      "småharkrankar": 8738,
      "bilar": 8739,
      "stre": 8740,
      "##endomen": 8741,
      "diplomat": 8742,
      "##prin": 8743,
      "fylumet": 8744,
      "opp": 8745,
      "##omys": 8746,
      "##ocha": 8747,
      "##iste": 8748,
      "Abra": 8749,
      "dim": 8750,
      "titt": 8751,
      "##folk": 8752,
      "separat": 8753,
      "universitets": 8754,
      "Clark": 8755,
      "förhind": 8756,
      "inrätt": 8757,
      "religiösa": 8758,
      "##ŏng": 8759,
      "##etten": 8760,
      "baserat": 8761,
      "Ja": 8762,
      "Departamento": 8763,
      "##centrum": 8764,
      "Madag": 8765,
      "ink": 8766,
      "##bon": 8767,
      "etn": 8768,
      "##ologen": 8769,
      "Mör": 8770,
      "lit": 8771,
      "ruf": 8772,
      "Båda": 8773,
      "Um": 8774,
      "##abel": 8775,
      "anställdes": 8776,
      "##ordförande": 8777,
      "Bonn": 8778,
      "påm": 8779,
      "##mers": 8780,
      "framstående": 8781,
      "##sbyggnad": 8782,
      "programledare": 8783,
      "myrart": 8784,
      "Lek": 8785,
      "Elit": 8786,
      "Blom": 8787,
      "##anthes": 8788,
      "ekonomisk": 8789,
      "fullständ": 8790,
      "havs": 8791,
      "lys": 8792,
      "##kin": 8793,
      "mord": 8794,
      "elva": 8795,
      "Int": 8796,
      "årets": 8797,
      "##izi": 8798,
      "påbörjades": 8799,
      "Mach": 8800,
      "fäl": 8801,
      "##fte": 8802,
      "tidskriften": 8803,
      "##akter": 8804,
      "fadern": 8805,
      "hjälpa": 8806,
      "upplagan": 8807,
      "Herman": 8808,
      "reklam": 8809,
      "Him": 8810,
      "Rein": 8811,
      "Chap": 8812,
      "kräver": 8813,
      "härstammar": 8814,
      "Pris": 8815,
      "Eskil": 8816,
      "Led": 8817,
      "##ytan": 8818,
      "##iffr": 8819,
      "Ofta": 8820,
      "polisen": 8821,
      "##ults": 8822,
      "vintern": 8823,
      "##iflora": 8824,
      "dirig": 8825,
      "Eurov": 8826,
      "Chil": 8827,
      "tillverkade": 8828,
      "##vån": 8829,
      "##världen": 8830,
      "##sida": 8831,
      "tjock": 8832,
      "Kvar": 8833,
      "Sir": 8834,
      "häckar": 8835,
      "##asen": 8836,
      "Ned": 8837,
      "##iderna": 8838,
      "##udi": 8839,
      "##aeus": 8840,
      "sökte": 8841,
      "##svetenskap": 8842,
      "##shoppor": 8843,
      "flottan": 8844,
      "Elfenbenskusten": 8845,
      "##elis": 8846,
      "##elli": 8847,
      "rac": 8848,
      "köns": 8849,
      "Sulaw": 8850,
      "börjat": 8851,
      "Theodor": 8852,
      "co": 8853,
      "papper": 8854,
      "Tran": 8855,
      "Museum": 8856,
      "egendom": 8857,
      "##ophilus": 8858,
      "Bost": 8859,
      "målade": 8860,
      "##lunda": 8861,
      "##aken": 8862,
      "åskåd": 8863,
      "framträdande": 8864,
      "Mäl": 8865,
      "##ifest": 8866,
      "Tob": 8867,
      "Egent": 8868,
      "##col": 8869,
      "##ongol": 8870,
      "Göta": 8871,
      "Bag": 8872,
      "Hov": 8873,
      "fungerade": 8874,
      "Oued": 8875,
      "Aut": 8876,
      "driver": 8877,
      "##ík": 8878,
      "kostnad": 8879,
      "sky": 8880,
      "nordöst": 8881,
      "gräv": 8882,
      "Karlskrona": 8883,
      "##rah": 8884,
      "##skop": 8885,
      "##edia": 8886,
      "Sask": 8887,
      "##verkan": 8888,
      "krön": 8889,
      "##ovo": 8890,
      "resulterade": 8891,
      "fran": 8892,
      "##oleon": 8893,
      "Kaz": 8894,
      "variant": 8895,
      "##kins": 8896,
      "svåra": 8897,
      "mästerskap": 8898,
      "ot": 8899,
      "##anni": 8900,
      "##eran": 8901,
      "Brdo": 8902,
      "Fru": 8903,
      "##ordningen": 8904,
      "arkitekten": 8905,
      "##ād": 8906,
      "##spro": 8907,
      "Ivan": 8908,
      "ram": 8909,
      "Abb": 8910,
      "bestämde": 8911,
      "rå": 8912,
      "##ave": 8913,
      "Norm": 8914,
      "##sj": 8915,
      "##ingham": 8916,
      "Hard": 8917,
      "##ball": 8918,
      "erfaren": 8919,
      "Acanth": 8920,
      "##yrå": 8921,
      "parasitflugor": 8922,
      "##eti": 8923,
      "##ommend": 8924,
      "Ki": 8925,
      "Kent": 8926,
      "samtida": 8927,
      "radi": 8928,
      "##valet": 8929,
      "##inosa": 8930,
      "##omi": 8931,
      "##ynch": 8932,
      "Pic": 8933,
      "##cos": 8934,
      "lyckas": 8935,
      "restaurang": 8936,
      "##stat": 8937,
      "##ionerna": 8938,
      "Turkiet": 8939,
      "Brad": 8940,
      "Svan": 8941,
      "omvand": 8942,
      "##aco": 8943,
      "##oft": 8944,
      "Piper": 8945,
      "##spelen": 8946,
      "placeras": 8947,
      "hyp": 8948,
      "debutalbum": 8949,
      "Wa": 8950,
      "##nia": 8951,
      "definier": 8952,
      "Jönköpings": 8953,
      "schweiz": 8954,
      "Hay": 8955,
      "prom": 8956,
      "medlemmarna": 8957,
      "statliga": 8958,
      "Seb": 8959,
      "Fors": 8960,
      "kände": 8961,
      "##röd": 8962,
      "fallet": 8963,
      "kvarteret": 8964,
      "##borgs": 8965,
      "Barcelona": 8966,
      "IS": 8967,
      "tapp": 8968,
      "ersätt": 8969,
      "struktur": 8970,
      "plat": 8971,
      "format": 8972,
      "Alber": 8973,
      "producent": 8974,
      "levnad": 8975,
      "General": 8976,
      "Sulawesi": 8977,
      "insatser": 8978,
      "##vari": 8979,
      "##urp": 8980,
      "lagstift": 8981,
      "Ci": 8982,
      "Hugo": 8983,
      "Sucre": 8984,
      "listan": 8985,
      "fris": 8986,
      "teatern": 8987,
      "organisationer": 8988,
      "Gram": 8989,
      "efterträddes": 8990,
      "Externa": 8991,
      "Haw": 8992,
      "mynt": 8993,
      "åkte": 8994,
      "##ängder": 8995,
      "Gyll": 8996,
      "sil": 8997,
      "kusten": 8998,
      "##edom": 8999,
      "##ese": 9000,
      "snö": 9001,
      "fiskar": 9002,
      "pan": 9003,
      "begär": 9004,
      "Roth": 9005,
      "States": 9006,
      "DV": 9007,
      "ager": 9008,
      "målningar": 9009,
      "Herr": 9010,
      "Cach": 9011,
      "Gill": 9012,
      "utvid": 9013,
      "kapit": 9014,
      "##dat": 9015,
      "Kastilien": 9016,
      "Tip": 9017,
      "ed": 9018,
      "drivs": 9019,
      "tryckt": 9020,
      "vardag": 9021,
      "anslöt": 9022,
      "Ulf": 9023,
      "varv": 9024,
      "Williams": 9025,
      "##amöter": 9026,
      "Dagens": 9027,
      "Riacho": 9028,
      "Butt": 9029,
      "Roll": 9030,
      "##otis": 9031,
      "##ube": 9032,
      "##atche": 9033,
      "fördes": 9034,
      "Ola": 9035,
      "antik": 9036,
      "folkräkningen": 9037,
      "innehade": 9038,
      "fril": 9039,
      "föda": 9040,
      "Hamburg": 9041,
      "cer": 9042,
      "##aker": 9043,
      "##yrån": 9044,
      "målar": 9045,
      "##visning": 9046,
      "befordrades": 9047,
      "flytta": 9048,
      "Sierra": 9049,
      "##skommun": 9050,
      "avveck": 9051,
      "detalj": 9052,
      "Mig": 9053,
      "##lus": 9054,
      "##bäcken": 9055,
      "Hälsing": 9056,
      "Hipp": 9057,
      "##tryck": 9058,
      "fartyget": 9059,
      "göm": 9060,
      "huvudet": 9061,
      "Drottning": 9062,
      "Ts": 9063,
      "##ebiskop": 9064,
      "släppt": 9065,
      "##fa": 9066,
      "tidning": 9067,
      "##agua": 9068,
      "vägg": 9069,
      "rörelsen": 9070,
      "kullar": 9071,
      "##aret": 9072,
      "Byn": 9073,
      "fortsätter": 9074,
      "omgivningen": 9075,
      "mic": 9076,
      "experiment": 9077,
      "##mund": 9078,
      "Indian": 9079,
      "predik": 9080,
      "Namn": 9081,
      "Sat": 9082,
      "##bev": 9083,
      "Uttar": 9084,
      "##inas": 9085,
      "Dur": 9086,
      "##strid": 9087,
      "Sydafrika": 9088,
      "sammanslag": 9089,
      "Oli": 9090,
      "##iffer": 9091,
      "##ellus": 9092,
      "##ehr": 9093,
      "Natur": 9094,
      "utländska": 9095,
      "regler": 9096,
      "Mika": 9097,
      "röster": 9098,
      "försvann": 9099,
      "introducerades": 9100,
      "Bild": 9101,
      "##anser": 9102,
      "personal": 9103,
      "Eurovision": 9104,
      "utgivet": 9105,
      "Robin": 9106,
      "##antin": 9107,
      "Beskrivning": 9108,
      "Sr": 9109,
      "##ischer": 9110,
      "beskrev": 9111,
      "##artade": 9112,
      "Morro": 9113,
      "##föd": 9114,
      "Arvid": 9115,
      "turneringen": 9116,
      "klara": 9117,
      "gällde": 9118,
      "vistas": 9119,
      "##stäm": 9120,
      "##rest": 9121,
      "inbland": 9122,
      "prot": 9123,
      "##redaktör": 9124,
      "Day": 9125,
      "##iration": 9126,
      "##erto": 9127,
      "Bulu": 9128,
      "hotell": 9129,
      "##atchewan": 9130,
      "##snamn": 9131,
      "##inten": 9132,
      "##ymen": 9133,
      "##nem": 9134,
      "Oh": 9135,
      "alternativ": 9136,
      "kommande": 9137,
      "##ottern": 9138,
      "uppträdde": 9139,
      "skön": 9140,
      "##ktyg": 9141,
      "gemensamt": 9142,
      "Saskatchewan": 9143,
      "lab": 9144,
      "lövfäll": 9145,
      "olj": 9146,
      "kans": 9147,
      "##bod": 9148,
      "välja": 9149,
      "##spolit": 9150,
      "##sområden": 9151,
      "bebyggelse": 9152,
      "##hea": 9153,
      "Filippinerna": 9154,
      "Madagaskar": 9155,
      "##räder": 9156,
      "antogs": 9157,
      "##oka": 9158,
      "##ledningen": 9159,
      "Melan": 9160,
      "##stöd": 9161,
      "resor": 9162,
      "arkitektur": 9163,
      "framgångsrik": 9164,
      "kyrkobyggnad": 9165,
      "##nis": 9166,
      "##äger": 9167,
      "##gärder": 9168,
      "##bad": 9169,
      "totala": 9170,
      "krävs": 9171,
      "vecka": 9172,
      "moss": 9173,
      "##BC": 9174,
      "##etus": 9175,
      "lövfällande": 9176,
      "skrivna": 9177,
      "skivbolaget": 9178,
      "vardera": 9179,
      "Olympiska": 9180,
      "Ingen": 9181,
      "intell": 9182,
      "Euph": 9183,
      "docent": 9184,
      "##anerna": 9185,
      "abs": 9186,
      "TV4": 9187,
      "frig": 9188,
      "Colombo": 9189,
      "##reppet": 9190,
      "Back": 9191,
      "Bea": 9192,
      "Leg": 9193,
      "##ostret": 9194,
      "stjärna": 9195,
      "##ensus": 9196,
      "saknas": 9197,
      "mönster": 9198,
      "honor": 9199,
      "kön": 9200,
      "##punkten": 9201,
      "korsblomm": 9202,
      "artikel": 9203,
      "Kas": 9204,
      "##jav": 9205,
      "Castle": 9206,
      "##olus": 9207,
      "synnerhet": 9208,
      "tropiskt": 9209,
      "åker": 9210,
      "refer": 9211,
      "##imen": 9212,
      "Liber": 9213,
      "avgörande": 9214,
      "Pek": 9215,
      "##ulatus": 9216,
      "##hou": 9217,
      "##ilian": 9218,
      "Götal": 9219,
      "nässel": 9220,
      "##bryt": 9221,
      "omtal": 9222,
      "##fulla": 9223,
      "##kyrk": 9224,
      "berömda": 9225,
      "##ikal": 9226,
      "##icornis": 9227,
      "Ursprung": 9228,
      "Alp": 9229,
      "producerades": 9230,
      "Mell": 9231,
      "ätten": 9232,
      "##horn": 9233,
      "Cours": 9234,
      "##kommer": 9235,
      "återkom": 9236,
      "sekunder": 9237,
      "Hann": 9238,
      "##ient": 9239,
      "förändringar": 9240,
      "sjöng": 9241,
      "##rage": 9242,
      "Psy": 9243,
      "##ét": 9244,
      "##rica": 9245,
      "protest": 9246,
      "##ulf": 9247,
      "miljon": 9248,
      "sådant": 9249,
      "mästerskapet": 9250,
      "aren": 9251,
      "##opf": 9252,
      "belön": 9253,
      "Teh": 9254,
      "Ches": 9255,
      "guldmed": 9256,
      "stam": 9257,
      "landsting": 9258,
      "succ": 9259,
      "##kas": 9260,
      "finnas": 9261,
      "##landa": 9262,
      "orkester": 9263,
      "##ugoslav": 9264,
      "lanserades": 9265,
      "##hel": 9266,
      "##iler": 9267,
      "lämnat": 9268,
      "Huset": 9269,
      "Gam": 9270,
      "##bebygg": 9271,
      "kommunikation": 9272,
      "Handel": 9273,
      "försöka": 9274,
      "Kos": 9275,
      "##oler": 9276,
      "decenn": 9277,
      "##ällskapet": 9278,
      "formen": 9279,
      "romersk": 9280,
      "bask": 9281,
      "##mis": 9282,
      "##ós": 9283,
      "rörelse": 9284,
      "förband": 9285,
      "marknadsför": 9286,
      "utställningar": 9287,
      "provinshuvud": 9288,
      "leva": 9289,
      "Sus": 9290,
      "Hap": 9291,
      "passager": 9292,
      "bem": 9293,
      "berget": 9294,
      "Centra": 9295,
      "Ibland": 9296,
      "##uh": 9297,
      "##edal": 9298,
      "##ogloss": 9299,
      "Edvard": 9300,
      "Lut": 9301,
      "drift": 9302,
      "uppdel": 9303,
      "linjen": 9304,
      "##ularis": 9305,
      "Pyr": 9306,
      "stylt": 9307,
      "krävde": 9308,
      "##agar": 9309,
      "Perth": 9310,
      "##orps": 9311,
      "Color": 9312,
      "studentexamen": 9313,
      "##ågen": 9314,
      "##ernen": 9315,
      "skolor": 9316,
      "##rater": 9317,
      "##sbo": 9318,
      "jämfört": 9319,
      "Portugal": 9320,
      "##zig": 9321,
      "Filip": 9322,
      "drabbades": 9323,
      "kulture": 9324,
      "Använd": 9325,
      "real": 9326,
      "besegrade": 9327,
      "##familjen": 9328,
      "Lilj": 9329,
      "teori": 9330,
      "visas": 9331,
      "Warren": 9332,
      "Chlor": 9333,
      "Karin": 9334,
      "fortsatt": 9335,
      "deltagare": 9336,
      "Vatt": 9337,
      "##havet": 9338,
      "kanalen": 9339,
      "Karlsson": 9340,
      "tävlingar": 9341,
      "##nik": 9342,
      "botan": 9343,
      "##ous": 9344,
      "kav": 9345,
      "opt": 9346,
      "##eba": 9347,
      "##makt": 9348,
      "Polit": 9349,
      "sjätte": 9350,
      "##shistor": 9351,
      "verkställande": 9352,
      "potatis": 9353,
      "trod": 9354,
      "##mät": 9355,
      "belg": 9356,
      "talar": 9357,
      "##ych": 9358,
      "låtskriv": 9359,
      "##anten": 9360,
      "Bos": 9361,
      "block": 9362,
      "bandets": 9363,
      "ranun": 9364,
      "##vux": 9365,
      "Fir": 9366,
      "##öta": 9367,
      "##enomen": 9368,
      "arterna": 9369,
      "inkluderar": 9370,
      "##ygden": 9371,
      "Hil": 9372,
      "Nationalm": 9373,
      "Egentliga": 9374,
      "Sid": 9375,
      "Seri": 9376,
      "Skell": 9377,
      "##ophagus": 9378,
      "cap": 9379,
      "##ställa": 9380,
      "SA": 9381,
      "##enst": 9382,
[...]
