{
  "version": "1.0",
  "truncation": null,
  "padding": null,
  "added_tokens": [
    {
      "id": 0,
      "content": "[PAD]",
      "single_word": false,
      "lstrip": false,
      "rstrip": false,
      "normalized": false,
      "special": true
    },
    {
      "id": 1,
      "content": "[UNK]",
      "single_word": false,
      "lstrip": false,
      "rstrip": false,
      "normalized": false,
      "special": true
    },
    {
      "id": 2,
      "content": "[MASK]",
      "single_word": false,
      "lstrip": false,
      "rstrip": false,
      "normalized": false,
      "special": true
    },
    {
      "id": 3,
      "content": "[CLS]",
      "single_word": false,
      "lstrip": false,
      "rstrip": false,
      "normalized": false,
      "special": true
    },
    {
      "id": 4,
      "content": "[SEP]",
      "single_word": false,
      "lstrip": false,
      "rstrip": false,
      "normalized": false,
      "special": true
    }
  ],
  "normalizer": {
    "type": "Sequence",
    "normalizers": [
      {
        "type": "Nmt"
      },
      {
        "type": "NFKC"
      },
      {
        "type": "Replace",
        "pattern": {
          "Regex": " {2,}"
        },
        "content": " "
      }
    ]
  },
  "pre_tokenizer": {
    "type": "Sequence",
    "pretokenizers": [
      {
        "type": "ByteLevel",
        "add_prefix_space": false,
        "trim_offsets": true,
        "use_regex": true
      },
      {
        "type": "WhitespaceSplit"
      },
      {
        "type": "Split",
        "pattern": {
          "Regex": "\\d"
        },
        "behavior": "MergedWithPrevious",
        "invert": false
      },
      {
        "type": "Punctuation",
        "behavior": "Isolated"
      }
    ]
  },
  "post_processor": {
    "type": "TemplateProcessing",
    "single": [
      {
        "SpecialToken": {
          "id": "[CLS]",
          "type_id": 0
        }
      },
      {
        "Sequence": {
          "id": "A",
          "type_id": 0
        }
      },
      {
        "SpecialToken": {
          "id": "[SEP]",
          "type_id": 0
        }
      }
    ],
    "pair": [
      {
        "SpecialToken": {
          "id": "[CLS]",
          "type_id": 0
        }
      },
      {
        "Sequence": {
          "id": "A",
          "type_id": 0
        }
      },
      {
        "SpecialToken": {
          "id": "[SEP]",
          "type_id": 0
        }
      },
      {
        "Sequence": {
          "id": "B",
          "type_id": 1
        }
      },
      {
        "SpecialToken": {
          "id": "[SEP]",
          "type_id": 1
        }
      }
    ],
    "special_tokens": {
      "[CLS]": {
        "id": "[CLS]",
        "ids": [
          3
        ],
        "tokens": [
          "[CLS]"
        ]
      },
      "[SEP]": {
        "id": "[SEP]",
        "ids": [
          4
        ],
        "tokens": [
          "[SEP]"
        ]
      }
    }
  },
  "decoder": {
    "type": "ByteLevel",
    "add_prefix_space": true,
    "trim_offsets": true,
    "use_regex": true
  },
  "model": {
    "type": "BPE",
    "dropout": null,
    "unk_token": null,
    "continuing_subword_prefix": null,
    "end_of_word_suffix": null,
    "fuse_unk": false,
    "vocab": {
      "[PAD]": 0,
      "[UNK]": 1,
      "[MASK]": 2,
      "[CLS]": 3,
      "[SEP]": 4,
      "!": 5,
      "\"": 6,
      "#": 7,
      "$": 8,
      "%": 9,
      "&": 10,
      "'": 11,
      "(": 12,
      ")": 13,
      "*": 14,
      "+": 15,
      ",": 16,
      "-": 17,
      ".": 18,
      "/": 19,
      "0": 20,
      "1": 21,
      "2": 22,
      "3": 23,
      "4": 24,
      "5": 25,
      "6": 26,
      "7": 27,
      "8": 28,
      "9": 29,
      ":": 30,
      ";": 31,
      "=": 32,
      "?": 33,
      "@": 34,
      "A": 35,
      "B": 36,
      "C": 37,
      "D": 38,
      "E": 39,
      "F": 40,
      "G": 41,
      "H": 42,
      "I": 43,
      "J": 44,
      "K": 45,
      "L": 46,
      "M": 47,
      "N": 48,
      "O": 49,
      "P": 50,
      "Q": 51,
      "R": 52,
      "S": 53,
      "T": 54,
      "U": 55,
      "V": 56,
      "W": 57,
      "X": 58,
      "Y": 59,
      "Z": 60,
      "[": 61,
      "\\": 62,
      "]": 63,
      "^": 64,
      "_": 65,
      "`": 66,
      "a": 67,
      "b": 68,
      "c": 69,
      "d": 70,
      "e": 71,
      "f": 72,
      "g": 73,
      "h": 74,
      "i": 75,
      "j": 76,
      "k": 77,
      "l": 78,
      "m": 79,
      "n": 80,
      "o": 81,
      "p": 82,
      "q": 83,
      "r": 84,
      "s": 85,
      "t": 86,
      "u": 87,
      "v": 88,
      "w": 89,
      "x": 90,
      "y": 91,
      "z": 92,
      "{": 93,
      "|": 94,
      "}": 95,
      "~": 96,
      "¡": 97,
      "¢": 98,
      "£": 99,
      "¤": 100,
      "¥": 101,
      "¦": 102,
      "§": 103,
      "¨": 104,
      "©": 105,
      "ª": 106,
      "«": 107,
      "¬": 108,
      "®": 109,
      "¯": 110,
      "°": 111,
      "±": 112,
      "²": 113,
      "³": 114,
      "´": 115,
      "µ": 116,
      "¶": 117,
      "·": 118,
      "¸": 119,
      "¹": 120,
      "º": 121,
      "»": 122,
      "¼": 123,
      "½": 124,
      "¾": 125,
      "¿": 126,
      "Â": 127,
      "Ã": 128,
      "Ä": 129,
      "Å": 130,
      "Æ": 131,
      "Ç": 132,
      "È": 133,
      "É": 134,
      "Ê": 135,
      "Ë": 136,
      "Ì": 137,
      "Î": 138,
      "×": 139,
      "á": 140,
      "â": 141,
      "ê": 142,
      "ð": 143,
      "Ġ": 144,
      "Ģ": 145,
      "ģ": 146,
      "Ĥ": 147,
      "ĥ": 148,
      "Ħ": 149,
      "ħ": 150,
      "Ĩ": 151,
      "ĩ": 152,
      "Ī": 153,
      "ī": 154,
      "Ĭ": 155,
      "ĭ": 156,
      "Į": 157,
      "į": 158,
      "İ": 159,
      "ı": 160,
      "Ĳ": 161,
      "ĳ": 162,
      "Ĵ": 163,
      "ĵ": 164,
      "Ķ": 165,
      "ķ": 166,
      "ĸ": 167,
      "Ĺ": 168,
      "ĺ": 169,
      "Ļ": 170,
      "ļ": 171,
      "Ľ": 172,
      "ľ": 173,
      "Ŀ": 174,
      "ŀ": 175,
      "Ł": 176,
      "ł": 177,
      "Ń": 178,
      "en": 179,
      "er": 180,
      "Ã¤": 181,
      "ar": 182,
      "an": 183,
      "Ġs": 184,
      "Ġi": 185,
      "Ã¥": 186,
      "et": 187,
      "st": 188,
      "Ã¤r": 189,
      "Ġo": 190,
      "Ġm": 191,
      "de": 192,
      "Ġf": 193,
      "at": 194,
      "in": 195,
      "ĠÃ¤r": 196,
      "ch": 197,
      "ll": 198,
      "om": 199,
      "Ġd": 200,
      "Ġoch": 201,
      "li": 202,
      "ed": 203,
      "or": 204,
      "Ġt": 205,
      "Ġk": 206,
      "Ġh": 207,
      "Ġa": 208,
      "ra": 209,
      "Ġv": 210,
      "on": 211,
      "Ġb": 212,
      "sk": 213,
      "un": 214,
      "Ġp": 215,
      "re": 216,
      "kt": 217,
      "Ġav": 218,
      "ad": 219,
      "Ġn": 220,
      "ing": 221,
      "al": 222,
      "Ġen": 223,
      "am": 224,
      "Ġ1": 225,
      "ĠD": 226,
      "il": 227,
      "ĠfÃ": 228,
      "Ġmed": 229,
      "ng": 230,
      "ade": 231,
      "ĠS": 232,
      "tt": 233,
      "ill": 234,
      "Ġden": 235,
      "and": 236,
      "ri": 237,
      "Ġsom": 238,
      "Ġg": 239,
      "em": 240,
      "lig": 241,
      "ĠÃ": 242,
      "der": 243,
      "Ã¥r": 244,
      "Ġde": 245,
      "el": 246,
      "Ġl": 247,
      "ter": 248,
      "ck": 249,
      "att": 250,
      "Ã¥n": 251,
      "ig": 252,
      "ur": 253,
      "ste": 254,
      "ĠL": 255,
      "na": 256,
      "Ġin": 257,
      "ro": 258,
      "id": 259,
      "ĠC": 260,
      "ol": 261,
      "Ġtill": 262,
      "ning": 263,
      "ut": 264,
      "ĠI": 265,
      "eter": 266,
      "Ġvar": 267,
      "ĠT": 268,
      "Ġst": 269,
      "Ġom": 270,
      "ĠDen": 271,
      "ĠB": 272,
      "ĠA": 273,
      "og": 274,
      "ĠH": 275,
      "ver": 276,
      "ĠpÃ¥": 277,
      "are": 278,
      "ĠM": 279,
      "pp": 280,
      "ss": 281,
      "Ã¤n": 282,
      "ska": 283,
      "ag": 284,
      "aden": 285,
      "us": 286,
      "Ġr": 287,
      "aste": 288,
      "ett": 289,
      "Ġatt": 290,
      "ĠG": 291,
      "rd": 292,
      "ĠK": 293,
      "es": 294,
      "art": 295,
      "is": 296,
      "ud": 297,
      "del": 298,
      "Ġj": 299,
      "as": 300,
      "Ġun": 301,
      "ĠÂ": 302,
      "ĠÂ°": 303,
      "kten": 304,
      "eder": 305,
      "sn": 306,
      "it": 307,
      "per": 308,
      "bÃ": 309,
      "ion": 310,
      "Ġbe": 311,
      "ĠP": 312,
      "itt": 313,
      "ederbÃ": 314,
      "Ġ2": 315,
      "Ġe": 316,
      "av": 317,
      "ns": 318,
      "ĠF": 319,
      "ĠR": 320,
      "ger": 321,
      "Ġre": 322,
      "Ġunder": 323,
      "Ġsl": 324,
      "ĠE": 325,
      "all": 326,
      "ot": 327,
      "Ġett": 328,
      "enom": 329,
      "ak": 330,
      "tem": 331,
      "Ġing": 332,
      "uv": 333,
      "Ġdel": 334,
      "if": 335,
      "ĠN": 336,
      "atur": 337,
      "Ġsk": 338,
      "rakten": 339,
      "rÃ¤": 340,
      "ber": 341,
      "edel": 342,
      "Ġfin": 343,
      "Ġli": 344,
      "unt": 345,
      "ik": 346,
      "ent": 347,
      "Ġut": 348,
      "Ã¤st": 349,
      "ilj": 350,
      "iv": 351,
      "uvud": 352,
      "ande": 353,
      "um": 354,
      "land": 355,
      "ĠingÃ¥r": 356,
      "Ġfinns": 357,
      "ari": 358,
      "aturen": 359,
      "Ġof": 360,
      "sta": 361,
      "peraturen": 362,
      "edeltem": 363,
      "edeltemperaturen": 364,
      "ĠmÃ¥n": 365,
      "Ġan": 366,
      "Ġhuvud": 367,
      "Ġdet": 368,
      "rev": 369,
      "ĠÃ¥r": 370,
      "ĠmÃ¥naden": 371,
      "Ġlig": 372,
      "rs": 373,
      "ĠslÃ¤": 374,
      "ens": 375,
      "snitt": 376,
      "ord": 377,
      "ue": 378,
      "Ġligger": 379,
      "amilj": 380,
      "Ġmm": 381,
      "le": 382,
      "enomsnitt": 383,
      "Ġkm": 384,
      "ĠnederbÃ": 385,
      "upp": 386,
      "Ġfamilj": 387,
      "nga": 388,
      "Ġhan": 389,
      "im": 390,
      "ell": 391,
      "ktet": 392,
      "Ġfr": 393,
      "Ġfamiljen": 394,
      "ĠV": 395,
      "arter": 396,
      "ia": 397,
      "ul": 398,
      "ven": 399,
      "te": 400,
      "Ġbesk": 401,
      "os": 402,
      "fÃ": 403,
      "ĠJ": 404,
      "Ġtrakten": 405,
      "revs": 406,
      "Ġsam": 407,
      "ĠslÃ¤ktet": 408,
      "Ġhar": 409,
      "omm": 410,
      "stade": 411,
      "Ġreg": 412,
      "Ġbeskrevs": 413,
      "atal": 414,
      "Ġland": 415,
      "ĠdÃ¥": 416,
      "ĠO": 417,
      "Ġunderarter": 418,
      "ife": 419,
      "Ã¤ll": 420,
      "atalog": 421,
      "ĠLife": 422,
      "ĠCatalog": 423,
      "ĠCatalogue": 424,
      "ĠInga": 425,
      "Ġlistade": 426,
      "ĠÃħ": 427,
      "ist": 428,
      "ometer": 429,
      "Ġsy": 430,
      "ilometer": 431,
      "uari": 432,
      "ef": 433,
      "op": 434,
      "Ġkall": 435,
      "arna": 436,
      "rat": 437,
      "ĠfrÃ¥n": 438,
      "isk": 439,
      "het": 440,
      "ades": 441,
      "Ġrunt": 442,
      "ta": 443,
      "rÃ¥": 444,
      "Ġvid": 445,
      "da": 446,
      "Ġupp": 447,
      "ust": 448,
      "la": 449,
      "Ġkv": 450,
      "Ġmeter": 451,
      "ic": 452,
      "Ġc": 453,
      "Ġdelen": 454,
      "sen": 455,
      "ĠU": 456,
      "maste": 457,
      "sp": 458,
      "ĠnÃ¤r": 459,
      "yg": 460,
      "br": 461,
      "Ġsp": 462,
      "Ã¤x": 463,
      "mat": 464,
      "Ġpro": 465,
      "ĠÃ¤": 466,
      "ug": 467,
      "orra": 468,
      "ock": 469,
      "avet": 470,
      "ster": 471,
      "Ġlandet": 472,
      "ka": 473,
      "ĠSt": 474,
      "staden": 475,
      "ort": 476,
      "des": 477,
      "od": 478,
      "ans": 479,
      "Ġinv": 480,
      "Ġper": 481,
      "Ġhavet": 482,
      "fter": 483,
      "iska": 484,
      "und": 485,
      "olk": 486,
      "Ã¥ng": 487,
      "ĠW": 488,
      "Ġhuvudstaden": 489,
      "ĠhÃ": 490,
      "tal": 491,
      "Ã¥g": 492,
      "Ġtv": 493,
      "ark": 494,
      "ĠDet": 495,
      "ick": 496,
      "ĠinvÃ¥n": 497,
      "rsm": 498,
      "ĠÃħrsm": 499,
      "Ġvarmaste": 500,
      "ĠÃħrsmedeltemperaturen": 501,
      "Ġkallaste": 502,
      "Ġmedeltemperaturen": 503,
      "ats": 504,
      "Ġregn": 505,
      "ĠinvÃ¥nare": 506,
      "Ã¤l": 507,
      "ller": 508,
      "ation": 509,
      "jÃ": 510,
      "Ġmen": 511,
      "ram": 512,
      "Ġkan": 513,
      "ov": 514,
      "Ġfl": 515,
      "limat": 516,
      "Ġjan": 517,
      "ĠdÃ¤r": 518,
      "Ġjanuari": 519,
      "eg": 520,
      "adrat": 521,
      "Ġkvadrat": 522,
      "Ġkomm": 523,
      "ĠÃ¥": 524,
      "igaste": 525,
      "uli": 526,
      "imeter": 527,
      "kilometer": 528,
      "Ġsig": 529,
      "Ġkvadratkilometer": 530,
      "Ã¤g": 531,
      "Ġsin": 532,
      "ien": 533,
      "ne": 534,
      "Ġgenomsnitt": 535,
      "Ġmill": 536,
      "Ġtorra": 537,
      "Ġmillimeter": 538,
      "snederbÃ": 539,
      "ĠGenomsnitt": 540,
      "ĠÃ¥rsnederbÃ": 541,
      "Ġtorraste": 542,
      "ĠGenomsnittlig": 543,
      "Ġregnigaste": 544,
      "ĠtvÃ¥": 545,
      "ac": 546,
      "ling": 547,
      "ĠHan": 548,
      "Ġnord": 549,
      "Ã©": 550,
      "ap": 551,
      "ann": 552,
      "âĢ": 553,
      "dra": 554,
      "ek": 555,
      "Ã¤tt": 556,
      "yr": 557,
      "den": 558,
      "ost": 559,
      "ep": 560,
      "ok": 561,
      "rik": 562,
      "ant": 563,
      "Ġjuli": 564,
      "vÃ¤st": 565,
      "Ġpl": 566,
      "erna": 567,
      "lev": 568,
      "Ġsyd": 569,
      "rÃ": 570,
      "ub": 571,
      "ma": 572,
      "vin": 573,
      "ung": 574,
      "Ã¤nd": 575,
      "rsta": 576,
      "Ġefter": 577,
      "se": 578,
      "rt": 579,
      "efolk": 580,
      "ab": 581,
      "Ã¤m": 582,
      "Ġeller": 583,
      "giv": 584,
      "dd": 585,
      "ember": 586,
      "sl": 587,
      "era": 588,
      "sak": 589,
      "som": 590,
      "amn": 591,
      "ĠstÃ": 592,
      "sm": 593,
      "befolk": 594,
      "Ġblev": 595,
      "son": 596,
      "ir": 597,
      "org": 598,
      "Ġkon": 599,
      "heten": 600,
      "ygg": 601,
      "uk": 602,
      "talet": 603,
      "ull": 604,
      "Ġhuvudsak": 605,
      "ran": 606,
      "ala": 607,
      "ĠrÃ¥": 608,
      "ĠÃ¤ven": 609,
      "ningen": 610,
      "Ġkommun": 611,
      "yck": 612,
      "ind": 613,
      "rig": 614,
      "jÃ¤r": 615,
      "ĠTrakten": 616,
      "Ġtid": 617,
      "Ġinte": 618,
      "ae": 619,
      "ugust": 620,
      "Ġhade": 621,
      "ĠsÃ": 622,
      "ĠvÃ¤x": 623,
      "Ġgr": 624,
      "ott": 625,
      "skap": 626,
      "opp": 627,
      "lj": 628,
      "ligt": 629,
      "Ã¤ng": 630,
      "ĠvÃ¤st": 631,
      "ser": 632,
      "det": 633,
      "ars": 634,
      "ft": 635,
      "Ġmot": 636,
      "Ġand": 637,
      "ier": 638,
      "ionen": 639,
      "ugusti": 640,
      "rst": 641,
      "Ġaugusti": 642,
      "ĠCh": 643,
      "Ġar": 644,
      "ĠrÃ¥der": 645,
      "Ġhon": 646,
      "edan": 647,
      "anska": 648,
      "liga": 649,
      "sam": 650,
      "Ġprovin": 651,
      "bet": 652,
      "âĢĵ": 653,
      "lar": 654,
      "ningarna": 655,
      "rÃ¤ng": 656,
      "ld": 657,
      "sart": 658,
      "Ġber": 659,
      "ĠAn": 660,
      "ĠsÃ¥": 661,
      "atten": 662,
      "mer": 663,
      "stra": 664,
      "Ġall": 665,
      "Ġprovinsen": 666,
      "ĠÃ¤n": 667,
      "Ġbland": 668,
      "hÃ": 669,
      "Ġ3": 670,
      "eck": 671,
      "ĠDe": 672,
      "Ġspel": 673,
      "iss": 674,
      "ob": 675,
      "ĠIn": 676,
      "var": 677,
      "ĠnÃ¤rheten": 678,
      "Ġman": 679,
      "he": 680,
      "gsta": 681,
      "ring": 682,
      "ren": 683,
      "oc": 684,
      "ekt": 685,
      "ligen": 686,
      "oli": 687,
      "orr": 688,
      "man": 689,
      "yn": 690,
      "Ġfram": 691,
      "red": 692,
      "Ġpun": 693,
      "aj": 694,
      "ĠdÃ": 695,
      "Ġandra": 696,
      "errÃ¤ng": 697,
      "olm": 698,
      "Ã¤t": 699,
      "Ġkilometer": 700,
      "ib": 701,
      "Ġfe": 702,
      "errÃ¤ngen": 703,
      "Ġvil": 704,
      "amp": 705,
      "ĠmÃ¥": 706,
      "Ġsamt": 707,
      "Ġsven": 708,
      "givningarna": 709,
      "sÃ¥": 710,
      "ets": 711,
      "Ġfick": 712,
      "gen": 713,
      "Ġvatten": 714,
      "ild": 715,
      "est": 716,
      "ĠbÃ": 717,
      "ff": 718,
      "orm": 719,
      "Ġgenom": 720,
      "ĠRunt": 721,
      "ningar": 722,
      "bruari": 723,
      "ake": 724,
      "Ġpunkten": 725,
      "Ġfebruari": 726,
      "aren": 727,
      "ang": 728,
      "arl": 729,
      "oh": 730,
      "verk": 731,
      "iskt": 732,
      "nat": 733,
      "ron": 734,
      "rÃ¥det": 735,
      "vÃ¤x": 736,
      "rit": 737,
      "ytt": 738,
      "verig": 739,
      "ali": 740,
      "ex": 741,
      "befolkat": 742,
      "holm": 743,
      "ast": 744,
      "ten": 745,
      "oll": 746,
      "uc": 747,
      "ĠSverig": 748,
      "Ġbest": 749,
      "ard": 750,
      "ellan": 751,
      "Ġkom": 752,
      "uni": 753,
      "ry": 754,
      "ili": 755,
      "ina": 756,
      "Ġdec": 757,
      "rj": 758,
      "Ġex": 759,
      "ara": 760,
      "ĠLake": 761,
      "Ġock": 762,
      "ip": 763,
      "ĠsjÃ": 764,
      "skog": 765,
      "ĠUn": 766,
      "drag": 767,
      "Ġnamn": 768,
      "fl": 769,
      "berg": 770,
      "Ġstor": 771,
      "Ġdecember": 772,
      "rin": 773,
      "ĠÃĸ": 774,
      "hÃ¤ll": 775,
      "Ġcent": 776,
      "aw": 777,
      "ĠvÃ¤ster": 778,
      "Ġver": 779,
      "ĠocksÃ¥": 780,
      "Ġjuni": 781,
      "Ġsitt": 782,
      "ec": 783,
      "stÃ¤ll": 784,
      "alt": 785,
      "ĠTerrÃ¤ngen": 786,
      "yt": 787,
      "ĠEn": 788,
      "rre": 789,
      "yd": 790,
      "ĠÃ¥t": 791,
      "inn": 792,
      "ie": 793,
      "ket": 794,
      "ober": 795,
      "io": 796,
      "rikt": 797,
      "ĠFÃ": 798,
      "Ġsj": 799,
      "etta": 800,
      "Ġanv": 801,
      "yrk": 802,
      "sb": 803,
      "Ġmellan": 804,
      "Ġgl": 805,
      "Ġdess": 806,
      "Ġnorr": 807,
      "sson": 808,
      "ken": 809,
      "klimat": 810,
      "ĠNÃ¤r": 811,
      "ou": 812,
      "ningsom": 813,
      "sh": 814,
      "ĠsamhÃ¤ll": 815,
      "erade": 816,
      "ĠAl": 817,
      "Ġsep": 818,
      "riv": 819,
      "Ġsv": 820,
      "ĠnÃ¤ra": 821,
      "ljande": 822,
      "ulle": 823,
      "igt": 824,
      "Ġsedan": 825,
      "Ġny": 826,
      "ĠnordvÃ¤st": 827,
      "ph": 828,
      "eb": 829,
      "Ġ4": 830,
      "raf": 831,
      "nad": 832,
      "ukt": 833,
      "Ġcentra": 834,
      "ĠnÃ¥g": 835,
      "ore": 836,
      "indre": 837,
      "ym": 838,
      "lag": 839,
      "lad": 840,
      "Ġplats": 841,
      "pel": 842,
      "ĠSverige": 843,
      "Ġberg": 844,
      "Ġmindre": 845,
      "ĠvÃ¤r": 846,
      "ret": 847,
      "ors": 848,
      "ĠArt": 849,
      "akt": 850,
      "tember": 851,
      "onen": 852,
      "Ġvattendrag": 853,
      "ella": 854,
      "ockholm": 855,
      "Ġseptember": 856,
      "rist": 857,
      "ass": 858,
      "ycket": 859,
      "ilm": 860,
      "ern": 861,
      "Ġannat": 862,
      "vis": 863,
      "Ġokt": 864,
      "ce": 865,
      "ay": 866,
      "Ġmars": 867,
      "rb": 868,
      "Ġmaj": 869,
      "Ġnov": 870,
      "mar": 871,
      "Ġoktober": 872,
      "spel": 873,
      "ĠStockholm": 874,
      "ĠHon": 875,
      "Ġsen": 876,
      "uper": 877,
      "fatt": 878,
      "rop": 879,
      "ĠvÃ¤xer": 880,
      "ana": 881,
      "Ġbygg": 882,
      "fta": 883,
      "ĠsydvÃ¤st": 884,
      "Ġ5": 885,
      "iet": 886,
      "Ġbli": 887,
      "up": 888,
      "Ġomgivningarna": 889,
      "istor": 890,
      "vers": 891,
      "Ġmycket": 892,
      "rÃ¥de": 893,
      "ers": 894,
      "jor": 895,
      "Ġgrund": 896,
      "ts": 897,
      "Ġha": 898,
      "je": 899,
      "Ġcentrala": 900,
      "Ġnovember": 901,
      "iga": 902,
      "tart": 903,
      "Ġarbet": 904,
      "Ã¤v": 905,
      "Ġled": 906,
      "orn": 907,
      "ĠUnder": 908,
      "pl": 909,
      "ah": 910,
      "rad": 911,
      "ansk": 912,
      "Ġvilket": 913,
      "ĠSk": 914,
      "ement": 915,
      "Ġbr": 916,
      "Ġhem": 917,
      "Ġhans": 918,
      "ada": 919,
      "ĠbestÃ¥r": 920,
      "idae": 921,
      "ult": 922,
      "ow": 923,
      "ata": 924,
      "enn": 925,
      "Ã¥t": 926,
      "Ġslut": 927,
      "ĠOm": 928,
      "Ġap": 929,
      "ev": 930,
      "Ġsvensk": 931,
      "au": 932,
      "Ġverk": 933,
      "min": 934,
      "ont": 935,
      "Ġsyfta": 936,
      "ack": 937,
      "Ġinom": 938,
      "Ã¤k": 939,
      "ĠÃ¥ter": 940,
      "Ġal": 941,
      "rk": 942,
      "Ġbet": 943,
      "ds": 944,
      "ingen": 945,
      "ĠY": 946,
      "Ã¥ll": 947,
      "ril": 948,
      "awa": 949,
      "ikt": 950,
      "Ġskulle": 951,
      "jur": 952,
      "ong": 953,
      "nan": 954,
      "lika": 955,
      "Ġur": 956,
      "Ġrikt": 957,
      "ĠfjÃ¤r": 958,
      "Ġhel": 959,
      "ras": 960,
      "dag": 961,
      "ys": 962,
      "ner": 963,
      "ĠEfter": 964,
      "ende": 965,
      "mans": 966,
      "gr": 967,
      "Ġty": 968,
      "ĠJoh": 969,
      "Ġganska": 970,
      "Ã¤ck": 971,
      "rek": 972,
      "Ġregionen": 973,
      "Ã¥l": 974,
      "stat": 975,
      "ĠKan": 976,
      "Ġkl": 977,
      "igare": 978,
      "ĠmÃ": 979,
      "kte": 980,
      "Ġkuper": 981,
      "Ġbar": 982,
      "ich": 983,
      "Ġkuperad": 984,
      "ĠlÃ¤n": 985,
      "Ġapril": 986,
      "Ġgles": 987,
      "res": 988,
      "oph": 989,
      "ĠÃħr": 990,
      "Ġmus": 991,
      "yl": 992,
      "aget": 993,
      "Äģ": 994,
      "Ġflera": 995,
      "lÃ": 996,
      "Ġglesbefolkat": 997,
      "Ġ6": 998,
      "Ġro": 999,
      "ount": 1000,
      "nas": 1001,
      "ĠtÃ¤t": 1002,
      "rg": 1003,
      "Ġnordost": 1004,
      "Ġkun": 1005,
      "lem": 1006,
      "ĠrÃ": 1007,
      "ĠZ": 1008,
      "hus": 1009,
      "Ġolika": 1010,
      "oppen": 1011,
      "Ġkonst": 1012,
      "ubb": 1013,
      "alb": 1014,
      "Ġart": 1015,
      "ian": 1016,
      "ÃŃ": 1017,
      "Ġsenare": 1018,
      "ĠsamhÃ¤lle": 1019,
      "els": 1020,
      "ĠOtt": 1021,
      "Ġnog": 1022,
      "pro": 1023,
      "Ġel": 1024,
      "Ġinne": 1025,
      "Ġutan": 1026,
      "ift": 1027,
      "tid": 1028,
      "ris": 1029,
      "Ġsina": 1030,
      "olog": 1031,
      "nar": 1032,
      "Ġtre": 1033,
      "befolkad": 1034,
      "bruk": 1035,
      "ĠFran": 1036,
      "Ġ0": 1037,
      "Ġdock": 1038,
      "eras": 1039,
      "Ġjord": 1040,
      "itet": 1041,
      "Ġord": 1042,
      "amling": 1043,
      "eri": 1044,
      "ving": 1045,
      "veck": 1046,
      "ĠNÃ¤rmaste": 1047,
      "ons": 1048,
      "smark": 1049,
      "Ġobefolkad": 1050,
      "nings": 1051,
      "Ġdetta": 1052,
      "ew": 1053,
      "ĠlÃ¥ng": 1054,
      "Ġsm": 1055,
      "ora": 1056,
      "Ġplatt": 1057,
      "Ġhuvudsakligen": 1058,
      "Ã¥de": 1059,
      "Ã¥rd": 1060,
      "Ġsamma": 1061,
      "rid": 1062,
      "ograf": 1063,
      "jorde": 1064,
      "ola": 1065,
      "borg": 1066,
      "Ġklimat": 1067,
      "rÃ¤tt": 1068,
      "ĠfjÃ¤ril": 1069,
      "Ġriktning": 1070,
      "ĠKanada": 1071,
      "ach": 1072,
      "rsamling": 1073,
      "Ġvara": 1074,
      "alen": 1075,
      "Ġrik": 1076,
      "ĠToppen": 1077,
      "ine": 1078,
      "ĠgÃ¥ng": 1079,
      "ĠsydÃ": 1080,
      "ĠSp": 1081,
      "alm": 1082,
      "gÃ¥ng": 1083,
      "Ġmin": 1084,
      "olit": 1085,
      "Ã¤lv": 1086,
      "zonen": 1087,
      "agg": 1088,
      "sten": 1089,
      "rÃ¤d": 1090,
      "rott": 1091,
      "ĠomrÃ¥det": 1092,
      "ĠfÃ¥": 1093,
      "Ġplatser": 1094,
      "ĠlÃ¤ng": 1095,
      "Ġstad": 1096,
      "Ġtog": 1097,
      "led": 1098,
      "rel": 1099,
      "ey": 1100,
      "of": 1101,
      "ĠlÃ": 1102,
      "kon": 1103,
      "oreala": 1104,
      "Ġklimatzonen": 1105,
      "Ġsydost": 1106,
      "eli": 1107,
      "Ã¤mn": 1108,
      "ium": 1109,
      "rinningsom": 1110,
      "ĠQ": 1111,
      "ĠkÃ": 1112,
      "Ġkyrk": 1113,
      "Ġ7": 1114,
      "sv": 1115,
      "Ġliv": 1116,
      "don": 1117,
      "erat": 1118,
      "Ã¤gg": 1119,
      "our": 1120,
      "ĠSch": 1121,
      "ĠsÃ¤": 1122,
      "kl": 1123,
      "Ġtidigare": 1124,
      "ĠOttawa": 1125,
      "vÃ¤xter": 1126,
      "empel": 1127,
      "sammans": 1128,
      "Ġbes": 1129,
      "ĠGÃ": 1130,
      "gÃ": 1131,
      "ire": 1132,
      "ĠCre": 1133,
      "ĠBer": 1134,
      "bred": 1135,
      "sklimat": 1136,
      "kring": 1137,
      "andet": 1138,
      "Ġdelstat": 1139,
      "ĠfjÃ¤rilsart": 1140,
      "ĠLe": 1141,
      "rÃ¤ck": 1142,
      "rakt": 1143,
      "ĠtÃ¤tbefolkat": 1144,
      "Ġmat": 1145,
      "Ġsvenska": 1146,
      "th": 1147,
      "ĠanvÃ¤nd": 1148,
      "Ġ8": 1149,
      "ĠMar": 1150,
      "ementet": 1151,
      "Ġvis": 1152,
      "Ġbild": 1153,
      "qu": 1154,
      "rar": 1155,
      "ress": 1156,
      "lien": 1157,
      "Ã¤nn": 1158,
      "Ġbas": 1159,
      "yp": 1160,
      "Ġnorra": 1161,
      "stad": 1162,
      "Ġint": 1163,
      "ĠsjÃ¤lv": 1164,
      "skland": 1165,
      "Ġlag": 1166,
      "Ġofta": 1167,
      "Ġnu": 1168,
      "ropiskt": 1169,
      "hÃ¥ll": 1170,
      "rde": 1171,
      "eart": 1172,
      "ĠFin": 1173,
      "erades": 1174,
      "ĠgÃ": 1175,
      "Ġbl": 1176,
      "Ġperson": 1177,
      "vÃ¤xtart": 1178,
      "rum": 1179,
      "ei": 1180,
      "Ġdelstaten": 1181,
      "ĠhÃ¤r": 1182,
      "Ġomkring": 1183,
      "avann": 1184,
      "ensis": 1185,
      "ĠCreek": 1186,
      "sa": 1187,
      "yll": 1188,
      "ess": 1189,
      "ĠPÃ¥": 1190,
      "yra": 1191,
      "part": 1192,
      "merik": 1193,
      "utt": 1194,
      "ĠtvÃ¥ving": 1195,
      "orna": 1196,
      "oder": 1197,
      "ĠanvÃ¤n": 1198,
      "ĠmÃ¥nga": 1199,
      "Ġenligt": 1200,
      "by": 1201,
      "Ġmer": 1202,
      "ica": 1203,
      "âĢĿ": 1204,
      "heter": 1205,
      "rag": 1206,
      "erar": 1207,
      "rande": 1208,
      "eln": 1209,
      "med": 1210,
      "urop": 1211,
      "erad": 1212,
      "ton": 1213,
      "lin": 1214,
      "Ġfort": 1215,
      "ha": 1216,
      "Ġvan": 1217,
      "Ġdenna": 1218,
      "rÃ¥n": 1219,
      "eng": 1220,
      "vÃ¤r": 1221,
      "ĠGu": 1222,
      "ĠVid": 1223,
      "ct": 1224,
      "Ġdag": 1225,
      "ĠtvÃ¥vingeart": 1226,
      "rjade": 1227,
      "Ġgjorde": 1228,
      "ĠmÃ¥l": 1229,
      "dom": 1230,
      "duc": 1231,
      "Ġmusik": 1232,
      "raft": 1233,
      "Ġung": 1234,
      "Ġkommunen": 1235,
      "ius": 1236,
      "Ġjordbruk": 1237,
      "Ġfilm": 1238,
      "ivers": 1239,
      "ĠOmgivningarna": 1240,
      "Ġval": 1241,
      "bb": 1242,
      "rn": 1243,
      "ĠstÃ¤": 1244,
      "ja": 1245,
      "ĠgÃ¤ll": 1246,
      "stem": 1247,
      "tern": 1248,
      "ĠtillhÃ": 1249,
      "Ġalla": 1250,
      "Ġstora": 1251,
      "Ġtillsammans": 1252,
      "Ġans": 1253,
      "oss": 1254,
      "ĠvÃ¤rld": 1255,
      "ings": 1256,
      "lighet": 1257,
      "Ġexempel": 1258,
      "rav": 1259,
      "Ġamerik": 1260,
      "ubli": 1261,
      "skapet": 1262,
      "Ġ9": 1263,
      "SA": 1264,
      "Ã¤gen": 1265,
      "ĠUt": 1266,
      "bild": 1267,
      "Ġform": 1268,
      "Ġenda": 1269,
      "rÃ¤m": 1270,
      "Ġnatur": 1271,
      "minist": 1272,
      "ĠSÃ": 1273,
      "rl": 1274,
      "ĠTh": 1275,
      "Ã³": 1276,
      "ĠÃ¤g": 1277,
      "amm": 1278,
      "osa": 1279,
      "ommun": 1280,
      "ĠLa": 1281,
      "ĠEtt": 1282,
      "rÃ¥k": 1283,
      "ĠsÃ¤son": 1284,
      "ĠgrÃ¤": 1285,
      "ĠvÃ¤stra": 1286,
      "lass": 1287,
      "ida": 1288,
      "och": 1289,
      "Ġrep": 1290,
      "efter": 1291,
      "Ġutbred": 1292,
      "ioner": 1293,
      "lands": 1294,
      "strÃ": 1295,
      "Ġbef": 1296,
      "nen": 1297,
      "ĠSan": 1298,
      "Ġfot": 1299,
      "ater": 1300,
      "Ġer": 1301,
      "anis": 1302,
      "jÃ¤n": 1303,
      "arri": 1304,
      "alv": 1305,
      "Ġtro": 1306,
      "ain": 1307,
      "pt": 1308,
      "Ġhand": 1309,
      "ula": 1310,
      "Ġad": 1311,
      "hand": 1312,
      "rdes": 1313,
      "ru": 1314,
      "end": 1315,
      "rike": 1316,
      "bygg": 1317,
      "ĠArten": 1318,
      "ĠNew": 1319,
      "mark": 1320,
      "Ġpre": 1321,
      "ĠVÃ¤st": 1322,
      "ĠPro": 1323,
      "bo": 1324,
      "bar": 1325,
      "ĠSh": 1326,
      "ationen": 1327,
      "Ġtr": 1328,
      "Ġstud": 1329,
      "sf": 1330,
      "Ġser": 1331,
      "iker": 1332,
      "Ã¤rk": 1333,
      "Ġpar": 1334,
      "ea": 1335,
      "ennes": 1336,
      "rfatt": 1337,
      "arbet": 1338,
      "ank": 1339,
      "Ã©n": 1340,
      "sekt": 1341,
      "Ġdem": 1342,
      "ingar": 1343,
      "rm": 1344,
      "ĠUSA": 1345,
      "uder": 1346,
      "djur": 1347,
      "Ġfolk": 1348,
      "ĠÃĦ": 1349,
      "ĠLac": 1350,
      "ĠPar": 1351,
      "lat": 1352,
      "kom": 1353,
      "Ġnya": 1354,
      "tog": 1355,
      "ĠfrÃ¤m": 1356,
      "gram": 1357,
      "rand": 1358,
      "Ġutveck": 1359,
      "Ġdessa": 1360,
      "orsk": 1361,
      "ĠCol": 1362,
      "slag": 1363,
      "ĠkÃ¤n": 1364,
      "arta": 1365,
      "derna": 1366,
      "Ġvill": 1367,
      "Ġsock": 1368,
      "kÃ": 1369,
      "ĠGe": 1370,
      "unn": 1371,
      "Ġhemib": 1372,
      "Ã¤rn": 1373,
      "Ġhemiboreala": 1374,
      "ĠMan": 1375,
      "cent": 1376,
      "rom": 1377,
      "Ġort": 1378,
      "Ġutbredningsom": 1379,
      "ura": 1380,
      "Ġch": 1381,
      "ĠEl": 1382,
      "Ġhistor": 1383,
      "uss": 1384,
      "rjan": 1385,
      "Ġvarit": 1386,
      "ace": 1387,
      "ĠBo": 1388,
      "iva": 1389,
      "Ġgick": 1390,
      "az": 1391,
      "iken": 1392,
      "Ġpolit": 1393,
      "Ġbarn": 1394,
      "Ġflyg": 1395,
      "iod": 1396,
      "Ġjordbruksmark": 1397,
      "olan": 1398,
      "ert": 1399,
      "Ġhonom": 1400,
      "ĠTropiskt": 1401,
      "lade": 1402,
      "Ġkung": 1403,
      "riget": 1404,
      "urg": 1405,
      "Ġspelade": 1406,
      "Ġkunde": 1407,
      "Ġinsekt": 1408,
      "rich": 1409,
      "ena": 1410,
      "rekomm": 1411,
      "Ġlik": 1412,
      "Ġallt": 1413,
      "utom": 1414,
      "Ġstaden": 1415,
      "anns": 1416,
      "Ġvann": 1417,
      "ĠutbredningsomrÃ¥de": 1418,
      "lan": 1419,
      "Ch": 1420,
      "ĠCarl": 1421,
      "reg": 1422,
      "konom": 1423,
      "ĠFinland": 1424,
      "boll": 1425,
      "eten": 1426,
      "Ġinnan": 1427,
      "ĠAv": 1428,
      "ĠArtens": 1429,
      "rung": 1430,
      "ografi": 1431,
      "ax": 1432,
      "ĠHans": 1433,
      "aria": 1434,
      "Ġind": 1435,
      "Ġflytt": 1436,
      "Ġgen": 1437,
      "jÃ¤l": 1438,
      "Ġfyra": 1439,
      "Ġhos": 1440,
      "va": 1441,
      "ya": 1442,
      "fors": 1443,
      "ator": 1444,
      "Ġgrupp": 1445,
      "form": 1446,
      "Ġmest": 1447,
      "Ġkont": 1448,
      "bl": 1449,
      "ĠFrank": 1450,
      "Ġalb": 1451,
      "Ġdist": 1452,
      "ĠKarl": 1453,
      "yc": 1454,
      "Ġfem": 1455,
      "terade": 1456,
      "arande": 1457,
      "han": 1458,
      "ric": 1459,
      "Ġcir": 1460,
      "ii": 1461,
      "ial": 1462,
      "ĠfÃ¤r": 1463,
      "ĠnÃ¥gra": 1464,
      "ĠFl": 1465,
      "ker": 1466,
      "arriÃ¤r": 1467,
      "Ġekonom": 1468,
      "ĠSven": 1469,
      "satt": 1470,
      "Ġkat": 1471,
      "Ġblandskog": 1472,
      "ivis": 1473,
      "Ġnamnet": 1474,
      "lla": 1475,
      "ustra": 1476,
      "ellt": 1477,
      "Ġeg": 1478,
      "ĠUpp": 1479,
      "Ġbel": 1480,
      "Ġte": 1481,
      "ald": 1482,
      "ĠstrÃ¤ck": 1483,
      "men": 1484,
      "Ã¤vling": 1485,
      "elsing": 1486,
      "ĠNord": 1487,
      "rbund": 1488,
      "teborg": 1489,
      "ppet": 1490,
      "met": 1491,
      "ĠBar": 1492,
      "Ġfanns": 1493,
      "ista": 1494,
      "ĠAd": 1495,
      "ĠKlimat": 1496,
      "Ġskalb": 1497,
      "Ã¤ns": 1498,
      "else": 1499,
      "Ġskalbagg": 1500,
      "band": 1501,
      "ity": 1502,
      "St": 1503,
      "An": 1504,
      "Ġverksam": 1505,
      "Ġmark": 1506,
      "Ġmedlem": 1507,
      "ĠHelsing": 1508,
      "ika": 1509,
      "ugor": 1510,
      "Ġson": 1511,
      "Ġhela": 1512,
      "orb": 1513,
      "Ġmilj": 1514,
      "ĠvÃ¤xt": 1515,
      "mi": 1516,
      "Ġvin": 1517,
      "ĠTy": 1518,
      "vrig": 1519,
      "sprung": 1520,
      "ritt": 1521,
      "lac": 1522,
      "Ġomgiv": 1523,
      "sfÃ": 1524,
      "ĠlÃ¥": 1525,
      "Ġgav": 1526,
      "ĠstÃ¤ll": 1527,
      "ĠHer": 1528,
      "van": 1529,
      "net": 1530,
      "las": 1531,
      "ide": 1532,
      "atus": 1533,
      "ĠgÃ¤llande": 1534,
      "cher": 1535,
      "ĠDan": 1536,
      "ĠvÃ¤l": 1537,
      "Ġska": 1538,
      "Ġakt": 1539,
      "stÃ¥n": 1540,
      "ĠDetta": 1541,
      "Ġby": 1542,
      "ile": 1543,
      "Ġvon": 1544,
      "ĠBe": 1545,
      "ĠSam": 1546,
      "rÃ¥den": 1547,
      "Ġursprung": 1548,
      "lut": 1549,
      "ler": 1550,
      "ĠgÃ¥r": 1551,
      "Ġkommer": 1552,
      "naden": 1553,
      "ĠbÃ¥de": 1554,
      "Ġblir": 1555,
      "ej": 1556,
      "oma": 1557,
      "Ã¤s": 1558,
      "ĠlÃ¤r": 1559,
      "ops": 1560,
      "ĠSavann": 1561,
      "ĠSavannklimat": 1562,
      "Ġoff": 1563,
      "flugor": 1564,
      "yrka": 1565,
      "Ġviss": 1566,
      "ationer": 1567,
      "ition": 1568,
      "Ã¥ende": 1569,
      "ĠPer": 1570,
      "blad": 1571,
      "Ġegen": 1572,
      "partementet": 1573,
      "iam": 1574,
      "aka": 1575,
      "ĠIs": 1576,
      "egor": 1577,
      "her": 1578,
      "dukt": 1579,
      "ministrat": 1580,
      "omb": 1581,
      "ĠAre": 1582,
      "Ġriks": 1583,
      "yk": 1584,
      "Ã¼": 1585,
      "eller": 1586,
      "Ġpart": 1587,
      "vÃ¤g": 1588,
      "rsÃ": 1589,
      "ĠEurop": 1590,
      "Ġbara": 1591,
      "hi": 1592,
      "Ġeng": 1593,
      "ĠBras": 1594,
      "tet": 1595,
      "ĠJak": 1596,
      "Ġunivers": 1597,
      "ĠÃ¥rs": 1598,
      "rekommer": 1599,
      "Ġdom": 1600,
      "Ġcirka": 1601,
      "Ġskog": 1602,
      "ĠTill": 1603,
      "Ġare": 1604,
      "ĠslÃ¤kte": 1605,
      "rinningsomrÃ¥det": 1606,
      "ĠÃĸster": 1607,
      "Ġomfatt": 1608,
      "ĠEng": 1609,
      "co": 1610,
      "Ġw": 1611,
      "ĠtrÃ¤": 1612,
      "Ġant": 1613,
      "rukt": 1614,
      "ĠrÃ¤tt": 1615,
      "ĠDÃ¤r": 1616,
      "ydlig": 1617,
      "ĠslÃ¤pp": 1618,
      "Ġuppg": 1619,
      "ĠAr": 1620,
      "ternation": 1621,
      "oner": 1622,
      "Ġorg": 1623,
      "ĠanvÃ¤nds": 1624,
      "Ġtem": 1625,
      "ork": 1626,
      "sÃ¤tt": 1627,
      "Ġra": 1628,
      "Ġy": 1629,
      "orge": 1630,
      "Ġskap": 1631,
      "Ġlj": 1632,
      "Ġhus": 1633,
      "me": 1634,
      "Ġhennes": 1635,
      "idan": 1636,
      "otter": 1637,
      "ĠÃ¤ld": 1638,
      "old": 1639,
      "Ġskalbaggsart": 1640,
      "ilt": 1641,
      "ĠkÃ¤nd": 1642,
      "serv": 1643,
      "ĠThe": 1644,
      "Ġsvamp": 1645,
      "ĠDess": 1646,
      "Ġsn": 1647,
      "Ġarten": 1648,
      "aceae": 1649,
      "Ġuppt": 1650,
      "vÃ¤stlig": 1651,
      "olf": 1652,
      "ĠnÃ¥got": 1653,
      "agn": 1654,
      "ĠlÃ¥g": 1655,
      "ode": 1656,
      "orp": 1657,
      "Ġrad": 1658,
      "Ġbu": 1659,
      "ckt": 1660,
      "ga": 1661,
      "Ġinsektsart": 1662,
      "Ġplan": 1663,
      "ĠQu": 1664,
      "Ġinga": 1665,
      "Ġbeg": 1666,
      "erro": 1667,
      "Ġkvinn": 1668,
      "ond": 1669,
      "Ġfri": 1670,
      "talien": 1671,
      "ĠRe": 1672,
      "nade": 1673,
      "ander": 1674,
      "irekt": 1675,
      "ĠMedel": 1676,
      "Ġprof": 1677,
      "for": 1678,
      "Ġbok": 1679,
      "ĠArean": 1680,
      "use": 1681,
      "ge": 1682,
      "Ġsocken": 1683,
      "atan": 1684,
      "uld": 1685,
      "its": 1686,
      "ĠAustra": 1687,
      "Ã¤nde": 1688,
      "ila": 1689,
      "kar": 1690,
      "ĠInd": 1691,
      "lex": 1692,
      "ering": 1693,
      "Ã¤ra": 1694,
      "ĠFrankrike": 1695,
      "ĠKlimatet": 1696,
      "Ġdepartementet": 1697,
      "iÃ": 1698,
      "hav": 1699,
      "indel": 1700,
      "ham": 1701,
      "Ġpo": 1702,
      "Ġperiod": 1703,
      "ister": 1704,
      "esien": 1705,
      "ox": 1706,
      "iz": 1707,
      "Ġstuder": 1708,
      "tter": 1709,
      "ĠsÃ¥ng": 1710,
      "Ġkomp": 1711,
      "ĠstrÃ¤cker": 1712,
      "unkt": 1713,
      "app": 1714,
      "illa": 1715,
      "ĠHistor": 1716,
      "terna": 1717,
      "iel": 1718,
      "ĠDel": 1719,
      "Ġantalet": 1720,
      "Ġsamman": 1721,
      "Ġfil": 1722,
      "ĠfÃ¥r": 1723,
      "ivt": 1724,
      "ĠdÃ¤refter": 1725,
      "lÃ¤nd": 1726,
      "Ġvikt": 1727,
      "ĠEd": 1728,
      "af": 1729,
      "als": 1730,
      "out": 1731,
      "Ġendast": 1732,
      "ĠBred": 1733,
      "Ġned": 1734,
      "Ġmedan": 1735,
      "Ã¤sta": 1736,
      "mÃ¤n": 1737,
      "ĠsÃ¤tt": 1738,
      "vit": 1739,
      "ĠâĢĵ": 1740,
      "ive": 1741,
      "Ġalbum": 1742,
      "ĠsmÃ¥": 1743,
      "Ġomgivande": 1744,
      "ca": 1745,
      "ins": 1746,
      "ever": 1747,
      "ĠBro": 1748,
      "elm": 1749,
      "Ġderas": 1750,
      "lia": 1751,
      "Ġfotboll": 1752,
      "ighet": 1753,
      "ultur": 1754,
      "Ġres": 1755,
      "sydlig": 1756,
      "ĠIndon": 1757,
      "ish": 1758,
      "klar": 1759,
      "nt": 1760,
      "Ġantal": 1761,
      "ĠinfÃ": 1762,
      "ĠHelsingfors": 1763,
      "Ġamerikansk": 1764,
      "Ġbasen": 1765,
      "ux": 1766,
      "Ġkort": 1767,
      "Ġbak": 1768,
      "Ã¤rsk": 1769,
      "ĠMed": 1770,
      "ĠIndonesien": 1771,
      "ho": 1772,
      "ekn": 1773,
      "Ġrom": 1774,
      "ĠtjÃ¤n": 1775,
      "Ġark": 1776,
      "ĠvÃ¤n": 1777,
      "grupp": 1778,
      "Ġger": 1779,
      "amb": 1780,
      "Ã¥da": 1781,
      "amer": 1782,
      "ĠuppfÃ": 1783,
      "ask": 1784,
      "ĠTV": 1785,
      "ĠJohan": 1786,
      "ĠSjÃ": 1787,
      "Ġsex": 1788,
      "Ġutg": 1789,
      "ĠHen": 1790,
      "ĠhjÃ¤l": 1791,
      "gar": 1792,
      "Ġtur": 1793,
      "ekel": 1794,
      "Ġtot": 1795,
      "ĠterrÃ¤ngen": 1796,
      "ĠBi": 1797,
      "Ġner": 1798,
      "Ġytt": 1799,
      "amot": 1800,
      "ĠMex": 1801,
      "ĠvÃ¤xtlighet": 1802,
      "sc": 1803,
      "sÃ": 1804,
      "eph": 1805,
      "ilit": 1806,
      "Ã¥despel": 1807,
      "Ġet": 1808,
      "ĠTyskland": 1809,
      "opul": 1810,
      "Ġklass": 1811,
      "amla": 1812,
      "ĠMount": 1813,
      "Ġuniversitet": 1814,
      "ĠJakarta": 1815,
      "Ph": 1816,
      "ystem": 1817,
      "ĠmÃ¤nn": 1818,
      "ĠsÃ¤songen": 1819,
      "ĠBredden": 1820,
      "ĠFrÃ¥n": 1821,
      "Ġreger": 1822,
      "Ġfast": 1823,
      "Ġmoder": 1824,
      "Ġstat": 1825,
      "Ġfar": 1826,
      "etenskap": 1827,
      "retag": 1828,
      "Ġingen": 1829,
      "pa": 1830,
      "Ġbergig": 1831,
      "sjÃ": 1832,
      "ke": 1833,
      "rift": 1834,
      "ĠKommun": 1835,
      "ĠkrÃ¤": 1836,
      "Ġskrev": 1837,
      "bol": 1838,
      "Ġprofess": 1839,
      "Ġnation": 1840,
      "Ã¥d": 1841,
      "Ġslutet": 1842,
      "stÃ¥nd": 1843,
      "Ġstort": 1844,
      "Ġfisk": 1845,
      "ure": 1846,
      "Ġem": 1847,
      "ĠWill": 1848,
      "slut": 1849,
      "ĠvÃ¤g": 1850,
      "lÃ¤gg": 1851,
      "ogram": 1852,
      "Ġfler": 1853,
      "Ġsista": 1854,
      "Ġnum": 1855,
      "Ġkategor": 1856,
      "Ġbil": 1857,
      "Ġstart": 1858,
      "Ġdelar": 1859,
      "ĠSte": 1860,
      "ritann": 1861,
      "umb": 1862,
      "ĠSveriges": 1863,
      "ĠOl": 1864,
      "ides": 1865,
      "ĠJohn": 1866,
      "ester": 1867,
      "Ġpubli": 1868,
      "ropp": 1869,
      "ĠfrÃ¤mst": 1870,
      "Ġob": 1871,
      "Ġkor": 1872,
      "nÃ¤r": 1873,
      "ĠBr": 1874,
      "ith": 1875,
      "ago": 1876,
      "ĠframfÃ": 1877,
      "ĠnordÃ": 1878,
      "ĠÃ¥ren": 1879,
      "The": 1880,
      "Ġsub": 1881,
      "sch": 1882,
      "rim": 1883,
      "ĠSom": 1884,
      "onst": 1885,
      "iver": 1886,
      "fin": 1887,
      "orbritann": 1888,
      "ita": 1889,
      "ĠII": 1890,
      "Ġadministrat": 1891,
      "ymp": 1892,
      "anien": 1893,
      "una": 1894,
      "Ġla": 1895,
      "list": 1896,
      "iat": 1897,
      "int": 1898,
      "iden": 1899,
      "lis": 1900,
      "Ã¤der": 1901,
      "stÃ¤llet": 1902,
      "Ġstekel": 1903,
      "ider": 1904,
      "bland": 1905,
      "cia": 1906,
      "ĠStorbritann": 1907,
      "Ġlok": 1908,
      "Ġeftersom": 1909,
      "ĠCerro": 1910,
      "skolan": 1911,
      "Ġvilken": 1912,
      "Ġfall": 1913,
      "Ġlite": 1914,
      "ĠLon": 1915,
      "Ġta": 1916,
      "Ġork": 1917,
      "tes": 1918,
      "jer": 1919,
      "ira": 1920,
      "Ġstekelart": 1921,
      "Ã¥ller": 1922,
      "rv": 1923,
      "Ġkvar": 1924,
      "ĠGun": 1925,
      "ĠX": 1926,
      "Ġmitt": 1927,
      "ĠnÃ¥gon": 1928,
      "Ġskriv": 1929,
      "Ġredan": 1930,
      "Ġid": 1931,
      "Ã¥s": 1932,
      "bÃ¤r": 1933,
      "ĠEnligt": 1934,
      "ĠStockholms": 1935,
      "djursart": 1936,
      "ĠsydvÃ¤stra": 1937,
      "rog": 1938,
      "Ġbety": 1939,
      "Ġekonomiska": 1940,
      "lades": 1941,
      "Ġpersoner": 1942,
      "pen": 1943,
      "oth": 1944,
      "tag": 1945,
      "jÃ¤rt": 1946,
      "ille": 1947,
      "ĠgÃ¥ngen": 1948,
      "orter": 1949,
      "Ġge": 1950,
      "Ġdeb": 1951,
      "Ġengel": 1952,
      "Ġhalv": 1953,
      "one": 1954,
      "Ġkallas": 1955,
      "Ġsamband": 1956,
      "ix": 1957,
      "ĠskÃ¥despel": 1958,
      "Ġbruk": 1959,
      "Ġhot": 1960,
      "ĠHÃ": 1961,
      "ske": 1962,
      "ua": 1963,
      "erande": 1964,
      "ĠPh": 1965,
      "ĠLund": 1966,
      "ath": 1967,
      "Ġmedel": 1968,
      "bert": 1969,
      "Ã¤kt": 1970,
      "Ġbritt": 1971,
      "UC": 1972,
      "Ġnatt": 1973,
      "steklar": 1974,
      "ĠlÃ¥t": 1975,
      "val": 1976,
      "ĠLondon": 1977,
      "Ġgener": 1978,
      "fall": 1979,
      "ĠHe": 1980,
      "Ġspec": 1981,
      "komm": 1982,
      "kan": 1983,
      "fer": 1984,
      "Ġthe": 1985,
      "Ġtemper": 1986,
      "ĠPa": 1987,
      "ligare": 1988,
      "lo": 1989,
      "ĠjÃ¤rn": 1990,
      "ice": 1991,
      "ĠâĢĿ": 1992,
      "rika": 1993,
      "ilien": 1994,
      "Ġdivis": 1995,
      "Ã¤ss": 1996,
      "Ġtal": 1997,
      "ĠmÃ¤nnisk": 1998,
      "UCN": 1999,
      "Ġklubb": 2000,
      "jort": 2001,
      "vskog": 2002,
      "Ġkap": 2003,
      "rfattare": 2004,
      "Ġbi": 2005,
      "ĠKlad": 2006,
      "par": 2007,
      "ĠStorbritannien": 2008,
      "Ġhur": 2009,
      "ĠIUCN": 2010,
      "ĠAustralien": 2011,
      "Ġdo": 2012,
      "chen": 2013,
      "ĠKladogram": 2014,
      "Ġtiden": 2015,
      "varande": 2016,
      "arkt": 2017,
      "ĠMad": 2018,
      "Ġtred": 2019,
      "rade": 2020,
      "enne": 2021,
      "ĠAnder": 2022,
      "roll": 2023,
      "Ã¥tt": 2024,
      "liv": 2025,
      "plats": 2026,
      "Ġse": 2027,
      "ĠsÃ¤rsk": 2028,
      "Ġmet": 2029,
      "ĠKÃ": 2030,
      "Ġol": 2031,
      "lek": 2032,
      "iella": 2033,
      "Ġpopul": 2034,
      "rem": 2035,
      "Ġsak": 2036,
      "Ġsoc": 2037,
      "Ã¤ster": 2038,
      "amen": 2039,
      "huvud": 2040,
      "Ġlyck": 2041,
      "Ġtillb": 2042,
      "Ġhelt": 2043,
      "Ġsjuk": 2044,
      "ĠMalm": 2045,
      "itut": 2046,
      "ĠSm": 2047,
      "ader": 2048,
      "uri": 2049,
      "sala": 2050,
      "ĠFilm": 2051,
      "ĠAm": 2052,
      "Ġcount": 2053,
      "Ġidag": 2054,
      "ley": 2055,
      "Ġtillverk": 2056,
      "Ġdeltog": 2057,
      "fÃ¤r": 2058,
      "ĠAll": 2059,
      "mÃ¤rk": 2060,
      "Ġkraft": 2061,
      "amnet": 2062,
      "trÃ¤d": 2063,
      "enter": 2064,
      "plan": 2065,
      "ĠLin": 2066,
      "ydd": 2067,
      "ona": 2068,
      "mann": 2069,
      "rÃ¤n": 2070,
      "Ġbuskland": 2071,
      "ĠHar": 2072,
      "Ġbusklandskap": 2073,
      "smarker": 2074,
      "ologi": 2075,
      "riktet": 2076,
      "oy": 2077,
      "ament": 2078,
      "Ġvissa": 2079,
      "Ã³n": 2080,
      "Ġkrig": 2081,
      "itekt": 2082,
      "ĠutfÃ": 2083,
      "ĠAB": 2084,
      "Ġmilit": 2085,
      "ĠKung": 2086,
      "ĠallmÃ¤n": 2087,
      "ĠgrÃ¤smarker": 2088,
      "omin": 2089,
      "yss": 2090,
      "ros": 2091,
      "Ġorganis": 2092,
      "Ġgift": 2093,
      "Ġdirekt": 2094,
      "Ġgamla": 2095,
      "Ġbyggnad": 2096,
      "spekt": 2097,
      "ynd": 2098,
      "ĠsamhÃ¤llen": 2099,
      "ĠdÃ¤rfÃ": 2100,
      "aler": 2101,
      "Ġbra": 2102,
      "ĠbÃ¥da": 2103,
      "ms": 2104,
      "olen": 2105,
      "skriget": 2106,
      "ĠAnd": 2107,
      "fÃ¤ll": 2108,
      "Ã¤ckt": 2109,
      "Ġvarje": 2110,
      "ale": 2111,
      "gÃ¥r": 2112,
      "ĠistÃ¤llet": 2113,
      "ĠSer": 2114,
      "ĠSyd": 2115,
      "Ġinst": 2116,
      "artyg": 2117,
      "ĠJos": 2118,
      "cis": 2119,
      "ident": 2120,
      "ĠCar": 2121,
      "Ġbyggdes": 2122,
      "gÃ¥rd": 2123,
      "Ġutbild": 2124,
      "ĠAf": 2125,
      "yrel": 2126,
      "onsun": 2127,
      "ĠutgÃ": 2128,
      "Ġytter": 2129,
      "Ġdotter": 2130,
      "Ġinneh": 2131,
      "Ġmonsun": 2132,
      "landsklimat": 2133,
      "Ġprogram": 2134,
      "sprÃ¥k": 2135,
      "Ġmonsunklimat": 2136,
      "ĠhÃ¥ll": 2137,
      "Ġkategoris": 2138,
      "Ġforsk": 2139,
      "lden": 2140,
      "bin": 2141,
      "ĠUppsala": 2142,
      "Ġdu": 2143,
      "alk": 2144,
      "ĠEngland": 2145,
      "ĠReg": 2146,
      "vi": 2147,
      "nes": 2148,
      "igheter": 2149,
      "ĠWil": 2150,
      "Ġcountyt": 2151,
      "ĠMon": 2152,
      "ĠAntalet": 2153,
      "Åį": 2154,
      "Ġkulle": 2155,
      "ĠSvenska": 2156,
      "kn": 2157,
      "ernas": 2158,
      "Ġarea": 2159,
      "ĠSc": 2160,
      "kade": 2161,
      "bergs": 2162,
      "ĠMo": 2163,
      "ht": 2164,
      "elt": 2165,
      "ij": 2166,
      "ĠVer": 2167,
      "agen": 2168,
      "za": 2169,
      "Ġkallt": 2170,
      "arie": 2171,
      "cker": 2172,
      "Ġgod": 2173,
      "ĠChrist": 2174,
      "ĠKommunen": 2175,
      "Ġfle": 2176,
      "ĠframgÃ¥ng": 2177,
      "Ġers": 2178,
      "Ġkring": 2179,
      "Ġlandskapet": 2180,
      "ĠBiografi": 2181,
      "ping": 2182,
      "Ġblivit": 2183,
      "Ġvidare": 2184,
      "hor": 2185,
      "bra": 2186,
      "atet": 2187,
      "ĠNy": 2188,
      "ĠBerg": 2189,
      "Ġdra": 2190,
      "Ġtyska": 2191,
      "Ġregnskog": 2192,
      "Ġroll": 2193,
      "ryck": 2194,
      "port": 2195,
      "Ġter": 2196,
      "delen": 2197,
      "ral": 2198,
      "ĠfÃ¥tt": 2199,
      "vs": 2200,
      "Ġmedverk": 2201,
      "Ġkyrkan": 2202,
      "okrat": 2203,
      "ori": 2204,
      "Ġkyrka": 2205,
      "ane": 2206,
      "Ġtit": 2207,
      "ico": 2208,
      "Ġutt": 2209,
      "efÃ¤r": 2210,
      "oden": 2211,
      "Ġsyn": 2212,
      "Ġproduc": 2213,
      "arnas": 2214,
      "idÃ©": 2215,
      "produc": 2216,
      "Ġplac": 2217,
      "Ġred": 2218,
      "uvarande": 2219,
      "uter": 2220,
      "kenklimat": 2221,
      "ĠBl": 2222,
      "ĠFri": 2223,
      "Ġkategoriserar": 2224,
      "ĠDenna": 2225,
      "ĠAlger": 2226,
      "ĠordfÃ": 2227,
      "Ġinternation": 2228,
      "Ã¤lt": 2229,
      "ĠÃĦven": 2230,
      "oni": 2231,
      "Ġgif": 2232,
      "Ġsavann": 2233,
      "ĠnÃ¤st": 2234,
      "Ġund": 2235,
      "rafik": 2236,
      "jd": 2237,
      "skola": 2238,
      "ĠEx": 2239,
      "ĠvÃ¤xtart": 2240,
      "elsen": 2241,
      "Ġvilka": 2242,
      "egrÃ": 2243,
      "ĠÃ¤ldre": 2244,
      "Ġvad": 2245,
      "ppklimat": 2246,
      "lit": 2247,
      "arm": 2248,
      "Ġsten": 2249,
      "Ġlever": 2250,
      "lingen": 2251,
      "ĠSant": 2252,
      "Ġbildades": 2253,
      "anth": 2254,
      "Ã¥gs": 2255,
      "ĠstÃ¤ds": 2256,
      "ĠstÃ¤dsegrÃ": 2257,
      "ĠutanfÃ": 2258,
      "ĠSedan": 2259,
      "rer": 2260,
      "Ġtotalt": 2261,
      "ean": 2262,
      "ĠWilliam": 2263,
      "ĠgÃ¥nger": 2264,
      "ĠkarriÃ¤r": 2265,
      "seud": 2266,
      "elb": 2267,
      "ĠfrÃ¥g": 2268,
      "jen": 2269,
      "Ġflyttade": 2270,
      "ani": 2271,
      "ĠFred": 2272,
      "Ġfor": 2273,
      "ĠTe": 2274,
      "Ġam": 2275,
      "Ġpass": 2276,
      "ĠAnt": 2277,
      "Ġvi": 2278,
      "Ġboreala": 2279,
      "ĠKrist": 2280,
      "ĠErik": 2281,
      "rinningsomrÃ¥de": 2282,
      "ĠCo": 2283,
      "Ġtillbaka": 2284,
      "Ġprakt": 2285,
      "ĠorkidÃ©": 2286,
      "che": 2287,
      "Ġriksdag": 2288,
      "Ġtex": 2289,
      "jÃ¤rn": 2290,
      "Ġben": 2291,
      "ĠParis": 2292,
      "ve": 2293,
      "Ã¤stare": 2294,
      "Ġledamot": 2295,
      "ĠNorr": 2296,
      "Ġdelas": 2297,
      "eta": 2298,
      "Ġband": 2299,
      "mask": 2300,
      "ĠPeter": 2301,
      "ĠAvrinningsomrÃ¥det": 2302,
      "vent": 2303,
      "andra": 2304,
      "atsen": 2305,
      "ario": 2306,
      "Ġtysk": 2307,
      "ĠBu": 2308,
      "ĠbrÃ": 2309,
      "ĠWal": 2310,
      "lor": 2311,
      "Ġarm": 2312,
      "Ġbor": 2313,
      "ĠDanmark": 2314,
      "Ġregnskogsklimat": 2315,
      "ĠMen": 2316,
      "elser": 2317,
      "Ġhenne": 2318,
      "ĠChile": 2319,
      "Ġhitt": 2320,
      "Ġnaturlig": 2321,
      "anc": 2322,
      "ĠlÃ¤m": 2323,
      "Ġkultur": 2324,
      "Ġarter": 2325,
      "omp": 2326,
      "ye": 2327,
      "off": 2328,
      "Ã©b": 2329,
      "ĠCity": 2330,
      "Ġca": 2331,
      "ls": 2332,
      "Ġspindel": 2333,
      "lder": 2334,
      "arp": 2335,
      "ĠSe": 2336,
      "Ġmiss": 2337,
      "Par": 2338,
      "Ġfilmen": 2339,
      "Ġprodukt": 2340,
      "Ġhett": 2341,
      "Ġkallade": 2342,
      "Ġkunna": 2343,
      "esa": 2344,
      "nÃ¤mn": 2345,
      "ĠkonstnÃ¤r": 2346,
      "Ġkron": 2347,
      "ĠBrasilien": 2348,
      "Ġfortsatt": 2349,
      "gre": 2350,
      "dar": 2351,
      "ĠhjÃ¤lp": 2352,
      "rsv": 2353,
      "Ġannan": 2354,
      "aga": 2355,
      "album": 2356,
      "ĠskÃ": 2357,
      "under": 2358,
      "Ġlev": 2359,
      "Ġdjur": 2360,
      "vid": 2361,
      "ĠinnebÃ¤r": 2362,
      "Ġmosa": 2363,
      "nabb": 2364,
      "ĠnordvÃ¤stra": 2365,
      "skan": 2366,
      "vrigt": 2367,
      "ama": 2368,
      "Ġtredje": 2369,
      "ood": 2370,
      "ĠRom": 2371,
      "Ġfull": 2372,
      "istan": 2373,
      "dÃ": 2374,
      "Ġamerikanska": 2375,
      "ĠMor": 2376,
      "helm": 2377,
      "ĠtÃ¤vling": 2378,
      "bro": 2379,
      "Ġtempererat": 2380,
      "ĠSpanien": 2381,
      "ĠlÃ¤g": 2382,
      "unda": 2383,
      "Ġsc": 2384,
      "uel": 2385,
      "ĠtrÃ¤d": 2386,
      "Al": 2387,
      "avrinningsomrÃ¥de": 2388,
      "Ġbeslut": 2389,
      "mus": 2390,
      "burg": 2391,
      "ĠInlandsklimat": 2392,
      "Ġbro": 2393,
      "Ġpublic": 2394,
      "rening": 2395,
      "Ġuts": 2396,
      "apen": 2397,
      "senter": 2398,
      "Ġstuderade": 2399,
      "Ġstads": 2400,
      "ept": 2401,
      "yrkan": 2402,
      "Ġmosaik": 2403,
      "ĠanstÃ¤ll": 2404,
      "Ġspelar": 2405,
      "ĠlÃ¤ngd": 2406,
      "etter": 2407,
      "gren": 2408,
      "ĠstÃ¤ppklimat": 2409,
      "ĠprÃ¤": 2410,
      "landet": 2411,
      "lats": 2412,
      "idigt": 2413,
      "ict": 2414,
      "Ġledde": 2415,
      "ĠYork": 2416,
      "Ġdistriktet": 2417,
      "Ġskri": 2418,
      "ĠÃ¤m": 2419,
      "jekt": 2420,
      "Ã¤ngd": 2421,
      "Ġsing": 2422,
      "ions": 2423,
      "ĠMedelhav": 2424,
      "Ġchef": 2425,
      "Ġglob": 2426,
      "Ġher": 2427,
      "kv": 2428,
      "Ġnytt": 2429,
      "retaget": 2430,
      "ĠsÃ¤g": 2431,
      "blem": 2432,
      "avs": 2433,
      "ĠslÃ¤pptes": 2434,
      "Ã¥gel": 2435,
      "pÃ¥": 2436,
      "ektar": 2437,
      "Ã©bec": 2438,
      "farande": 2439,
      "ĠEuropa": 2440,
      "miÃ¤r": 2441,
      "Ġoper": 2442,
      "vern": 2443,
      "ĠPe": 2444,
      "ĠMalmÃ": 2445,
      "atte": 2446,
      "ward": 2447,
      "Ġsnabb": 2448,
      "ĠKar": 2449,
      "ĠbÃ¤sta": 2450,
      "Ġadministrativ": 2451,
      "slÃ": 2452,
      "ĠTim": 2453,
      "ĠungefÃ¤r": 2454,
      "Ġteck": 2455,
      "ĠVÃ¤ster": 2456,
      "Ġmiljoner": 2457,
      "resident": 2458,
      "anden": 2459,
      "rsvar": 2460,
      "Ġintress": 2461,
      "ĠberÃ¤tt": 2462,
      "staf": 2463,
      "ammar": 2464,
      "hamn": 2465,
      "lav": 2466,
      "Ġarbetade": 2467,
      "Ġoffic": 2468,
      "till": 2469,
      "Ġflesta": 2470,
      "ci": 2471,
      "rut": 2472,
      "otten": 2473,
      "ĠBland": 2474,
      "ĠCon": 2475,
      "Ġim": 2476,
      "jord": 2477,
      "Ġbort": 2478,
      "Ġkol": 2479,
      "ĠMedelhavsklimat": 2480,
      "ĠHistoria": 2481,
      "Ġljus": 2482,
      "onia": 2483,
      "ĠrÃ¤k": 2484,
      "alif": 2485,
      "iko": 2486,
      "ĠsprÃ¥k": 2487,
      "ĠItalien": 2488,
      "ele": 2489,
      "osit": 2490,
      "iner": 2491,
      "rhÃ¥ll": 2492,
      "ĠsÃ¥l": 2493,
      "format": 2494,
      "ai": 2495,
      "uren": 2496,
      "Ġkant": 2497,
      "ite": 2498,
      "Ġsystem": 2499,
      "dem": 2500,
      "ĠkÃ¤nda": 2501,
      "Ġytterligare": 2502,
      "ĠLind": 2503,
      "ustri": 2504,
      "Ġhektar": 2505,
      "Ġolymp": 2506,
      "lingar": 2507,
      "lÃ¤n": 2508,
      "jut": 2509,
      "ino": 2510,
      "Ã¤mnade": 2511,
      "Ġmon": 2512,
      "Ã¯": 2513,
      "alis": 2514,
      "ĠEm": 2515,
      "Ġslutade": 2516,
      "ĠtjÃ¤nst": 2517,
      "Ã¤d": 2518,
      "rades": 2519,
      "Ã¤mt": 2520,
      "ument": 2521,
      "ilver": 2522,
      "Ġinled": 2523,
      "Ġmots": 2524,
      "vik": 2525,
      "ĠlÃ¤ngre": 2526,
      "Ġrepre": 2527,
      "ĠDessa": 2528,
      "kÃ¤n": 2529,
      "bart": 2530,
      "Ġme": 2531,
      "abrik": 2532,
      "ash": 2533,
      "cess": 2534,
      "uft": 2535,
      "Ġbed": 2536,
      "ĠdÃ¤rmed": 2537,
      "Ġvarier": 2538,
      "ĠmÃ¤t": 2539,
      "ĠAlb": 2540,
      "Ã¥ren": 2541,
      "que": 2542,
      "Ġrum": 2543,
      "huset": 2544,
      "ĠhÃ¤n": 2545,
      "Ġry": 2546,
      "ĠDav": 2547,
      "Ġfortfarande": 2548,
      "anan": 2549,
      "unger": 2550,
      "vatt": 2551,
      "eau": 2552,
      "Ġkrit": 2553,
      "ole": 2554,
      "ockey": 2555,
      "ror": 2556,
      "omy": 2557,
      "orth": 2558,
      "ĠKo": 2559,
      "cus": 2560,
      "ĠCharl": 2561,
      "ĠQuÃ©bec": 2562,
      "utveck": 2563,
      "ĠTro": 2564,
      "Ġarkitekt": 2565,
      "ene": 2566,
      "ĠMart": 2567,
      "ĠinnehÃ¥ller": 2568,
      "Ġtekn": 2569,
      "ĠÃ¥ret": 2570,
      "Ġdi": 2571,
      "ĠHa": 2572,
      "ĠPaul": 2573,
      "ĠmÃ¥ste": 2574,
      "Ġskiv": 2575,
      "ĠTid": 2576,
      "skt": 2577,
      "Ġslott": 2578,
      "ĠMa": 2579,
      "age": 2580,
      "ĠgenomfÃ": 2581,
      "Ġri": 2582,
      "omas": 2583,
      "ĠlÃ¤nder": 2584,
      "Ġps": 2585,
      "Ġbid": 2586,
      "ĠTor": 2587,
      "Ġdivisionen": 2588,
      "ĠvÃ¤rldskriget": 2589,
      "Ġreproduc": 2590,
      "uck": 2591,
      "gick": 2592,
      "Ġnuvarande": 2593,
      "Ġibland": 2594,
      "ĠGr": 2595,
      "ĠbehÃ": 2596,
      "gt": 2597,
      "ĠNorge": 2598,
      "En": 2599,
      "eth": 2600,
      "ĠSM": 2601,
      "Ġbefolk": 2602,
      "ĠIng": 2603,
      "Ġsamarbet": 2604,
      "delse": 2605,
      "sd": 2606,
      "Ġmor": 2607,
      "ldrig": 2608,
      "sst": 2609,
      "Ã¥rt": 2610,
      "nades": 2611,
      "ĠAg": 2612,
      "grund": 2613,
      "ism": 2614,
      "ĠLand": 2615,
      "fekt": 2616,
      "ĠHall": 2617,
      "Ġsvampart": 2618,
      "ĠanvÃ¤ndes": 2619,
      "jung": 2620,
      "erg": 2621,
      "ĠVM": 2622,
      "Ġang": 2623,
      "lopp": 2624,
      "ĠNorra": 2625,
      "Ġvars": 2626,
      "Ġstod": 2627,
      "Ġfranska": 2628,
      "sspel": 2629,
      "Ġkropp": 2630,
      "stÃ¤nd": 2631,
      "Ġsamtidigt": 2632,
      "Ã¢": 2633,
      "Ġveck": 2634,
      "ilar": 2635,
      "Ġgu": 2636,
      "Ġdes": 2637,
      "ĠPo": 2638,
      "ĠmilitÃ¤r": 2639,
      "ĠNor": 2640,
      "len": 2641,
      "ĠsÃ¤rskilt": 2642,
      "vriga": 2643,
      "ĠbesÃ": 2644,
      "osof": 2645,
      "grÃ¤ns": 2646,
      "Ġpol": 2647,
      "Ġvers": 2648,
      "ĠsÃ¤n": 2649,
      "film": 2650,
      "Ġkallad": 2651,
      "ĠGunung": 2652,
      "ĠpoÃ¤ng": 2653,
      "alp": 2654,
      "Ġaldrig": 2655,
      "Ġlin": 2656,
      "skÃ": 2657,
      "Ġvarav": 2658,
      "Ġbarr": 2659,
      "ty": 2660,
      "skraft": 2661,
      "orten": 2662,
      "nu": 2663,
      "ĠJohann": 2664,
      "ĠsÃ¥d": 2665,
      "serien": 2666,
      "Ġprofessor": 2667,
      "jup": 2668,
      "Ġmuse": 2669,
      "Ġvatt": 2670,
      "arg": 2671,
      "ĠAlex": 2672,
      "ĠIsland": 2673,
      "vet": 2674,
      "ĠIF": 2675,
      "ĠjÃ¤m": 2676,
      "Ġreproducerande": 2677,
      "seende": 2678,
      "ĠÃ¥tt": 2679,
      "hop": 2680,
      "stats": 2681,
      "Ġsidan": 2682,
      "ĠAb": 2683,
      "ĠÃ¤rt": 2684,
      "ĠAng": 2685,
      "Ġhamn": 2686,
      "ĠMus": 2687,
      "ipp": 2688,
      "reningen": 2689,
      "Ġrit": 2690,
      "uell": 2691,
      "inna": 2692,
      "ĠvÃ¤rlden": 2693,
      "oende": 2694,
      "opter": 2695,
      "Ġgjort": 2696,
      "nande": 2697,
      "Ġskall": 2698,
      "spro": 2699,
      "ĠNil": 2700,
      "ames": 2701,
      "Ġtrad": 2702,
      "Ġvia": 2703,
      "ĠIndien": 2704,
      "ĠmÃ¤n": 2705,
      "Ġavslut": 2706,
      "ĠMc": 2707,
      "Ġfukt": 2708,
      "rets": 2709,
      "ilda": 2710,
      "ĠMexiko": 2711,
      "les": 2712,
      "lik": 2713,
      "derut": 2714,
      "ĠÃ¥terv": 2715,
      "ĠMich": 2716,
      "unk": 2717,
      "rep": 2718,
      "Ġbarrskog": 2719,
      "ini": 2720,
      "ĠGust": 2721,
      "ĠCent": 2722,
      "stero": 2723,
      "Ac": 2724,
      "Ġsommar": 2725,
      "Ġbeskriv": 2726,
      "oj": 2727,
      "trÃ¤": 2728,
      "Ġguld": 2729,
      "bladig": 2730,
      "itz": 2731,
      "ate": 2732,
      "alet": 2733,
      "Ã¥rig": 2734,
      "san": 2735,
      "ĠVÃ¤r": 2736,
      "ĠProvin": 2737,
      "Ġglobalt": 2738,
      "be": 2739,
      "laget": 2740,
      "Ġregion": 2741,
      "Ġnorrut": 2742,
      "ytan": 2743,
      "ba": 2744,
      "sar": 2745,
      "ney": 2746,
      "rsamlingen": 2747,
      "ĠOnt": 2748,
      "ĠomrÃ¥den": 2749,
      "Ne": 2750,
      "ĠRos": 2751,
      "Ġmyr": 2752,
      "hov": 2753,
      "jet": 2754,
      "ĠBur": 2755,
      "ĠlÃ¤mnade": 2756,
      "Ġgrundades": 2757,
      "yst": 2758,
      "ĠtÃ¤v": 2759,
      "ria": 2760,
      "olut": 2761,
      "hjÃ¤rt": 2762,
      "ouis": 2763,
      "Ġstra": 2764,
      "kor": 2765,
      "innare": 2766,
      "inner": 2767,
      "ceae": 2768,
      "Ġslag": 2769,
      "jordes": 2770,
      "lack": 2771,
      "ĠOntario": 2772,
      "ies": 2773,
      "ĠSchw": 2774,
      "outh": 2775,
      "skommun": 2776,
      "Ġmedeltid": 2777,
      "Ġbehand": 2778,
      "opsis": 2779,
      "ĠNation": 2780,
      "ova": 2781,
      "Ġseg": 2782,
      "obert": 2783,
      "lÃ¤ndska": 2784,
      "iellt": 2785,
      "ĠskÃ¥despelare": 2786,
      "ĠkÃ¤ll": 2787,
      "epp": 2788,
      "gatan": 2789,
      "pha": 2790,
      "mÃ¥l": 2791,
      "otek": 2792,
      "Ġperiodiskt": 2793,
      "rh": 2794,
      "ign": 2795,
      "Ġgifte": 2796,
      "rlor": 2797,
      "Ġdelstats": 2798,
      "ĠHÃ¤r": 2799,
      "ĠMel": 2800,
      "huvudstaden": 2801,
      "ben": 2802,
      "Ġgrev": 2803,
      "ĠSl": 2804,
      "ĠÃ¤nd": 2805,
      "Ġgrav": 2806,
      "ĠDÃ¥": 2807,
      "Ġinfl": 2808,
      "ager": 2809,
      "ĠGustaf": 2810,
      "Ġinter": 2811,
      "Ġcm": 2812,
      "Ġins": 2813,
      "Ġengelska": 2814,
      "lick": 2815,
      "ĠstÃ¥r": 2816,
      "Ġegna": 2817,
      "Ġutgiv": 2818,
      "Ġfortsatte": 2819,
      "ĠhÃ¤st": 2820,
      "ĠKl": 2821,
      "Ġbred": 2822,
      "ĠRÃ": 2823,
      "ĠSen": 2824,
      "ĠMaria": 2825,
      "aint": 2826,
      "ĠGeorg": 2827,
      "rot": 2828,
      "indlar": 2829,
      "ĠColumb": 2830,
      "Ã¤ls": 2831,
      "hl": 2832,
      "ĠtillfÃ¤ll": 2833,
      "rip": 2834,
      "ĠMot": 2835,
      "ĠMe": 2836,
      "uch": 2837,
      "ĠUnivers": 2838,
      "ĠRes": 2839,
      "Ġordningen": 2840,
      "ounty": 2841,
      "Äį": 2842,
      "Ġspela": 2843,
      "Ġskol": 2844,
      "ktor": 2845,
      "uf": 2846,
      "rÃ¥d": 2847,
      "ĠSa": 2848,
      "Ġblad": 2849,
      "flyn": 2850,
      "ĠmÃ¤nniskor": 2851,
      "ĠsÃ¤k": 2852,
      "Ġkriget": 2853,
      "Ġhistoria": 2854,
      "Ġvisar": 2855,
      "Ġtyp": 2856,
      "kter": 2857,
      "Ġovan": 2858,
      "uterade": 2859,
      "Ġsvart": 2860,
      "Ġkvinnor": 2861,
      "Ġnattflyn": 2862,
      "Ġdelstatshuvudstaden": 2863,
      "anen": 2864,
      "Ġansvar": 2865,
      "inge": 2866,
      "ĠArg": 2867,
      "attes": 2868,
      "ĠlÃ¤tt": 2869,
      "ĠBjÃ": 2870,
      "ĠMont": 2871,
      "Ġmatcher": 2872,
      "Ġpriv": 2873,
      "ĠDist": 2874,
      "servat": 2875,
      "Ġspindelart": 2876,
      "Sc": 2877,
      "sman": 2878,
      "ĠpremiÃ¤r": 2879,
      "ĠsÃ¥som": 2880,
      "ĠBrit": 2881,
      "iens": 2882,
      "ĠHand": 2883,
      "rutom": 2884,
      "Ġmitten": 2885,
      "Ã±": 2886,
      "Ġspelades": 2887,
      "ota": 2888,
      "Ġfransk": 2889,
      "Ġriket": 2890,
      "Ġverksamhet": 2891,
      "ĠgÃ¥": 2892,
      "Ġlitter": 2893,
      "juk": 2894,
      "ĠTur": 2895,
      "oda": 2896,
      "ĠÃ¥lder": 2897,
      "Ġindiv": 2898,
      "stÃ¤llning": 2899,
      "gruppen": 2900,
      "ĠFredrik": 2901,
      "ĠColomb": 2902,
      "ĠJan": 2903,
      "byggnad": 2904,
      "ĠBerlin": 2905,
      "samhet": 2906,
      "rklar": 2907,
      "Ġkn": 2908,
      "eiz": 2909,
      "ĠRo": 2910,
      "kning": 2911,
      "ĠJawa": 2912,
      "ÃŃo": 2913,
      "ĠKh": 2914,
      "rÃ¥g": 2915,
      "ĠÃĸns": 2916,
      "Ġren": 2917,
      "useum": 2918,
      "Ġhov": 2919,
      "Ġat": 2920,
      "ela": 2921,
      "ĠFilmen": 2922,
      "ĠnÃ¤stan": 2923,
      "ĠLu": 2924,
      "Ġpresident": 2925,
      "Ġkantonen": 2926,
      "Ġbror": 2927,
      "odell": 2928,
      "ĠGustav": 2929,
      "hjÃ¤rtbladig": 2930,
      "ano": 2931,
      "ĠHavet": 2932,
      "ÃŃlia": 2933,
      "Ġvit": 2934,
      "ibli": 2935,
      "ĠBen": 2936,
      "ĠfÃ¤rg": 2937,
      "£o": 2938,
      "rus": 2939,
      "Ġigen": 2940,
      "rick": 2941,
      "horningar": 2942,
      "ĠBrasÃŃlia": 2943,
      "gon": 2944,
      "ĠGeorge": 2945,
      "Ġvetenskap": 2946,
      "formen": 2947,
      "anter": 2948,
      "cc": 2949,
      "sterut": 2950,
      "ĠgrÃ¤n": 2951,
      "eiska": 2952,
      "ĠBefolk": 2953,
      "Ġsym": 2954,
      "Ġrepubli": 2955,
      "usk": 2956,
      "ĠkrÃ¤ft": 2957,
      "ĠColombia": 2958,
      "asit": 2959,
      "eld": 2960,
      "asa": 2961,
      "Ġklar": 2962,
      "Ġaf": 2963,
      "inal": 2964,
      "Ar": 2965,
      "ĠKust": 2966,
      "ĠEk": 2967,
      "aris": 2968,
      "cens": 2969,
      "vig": 2970,
      "ĠBritish": 2971,
      "osp": 2972,
      "dels": 2973,
      "Ġsek": 2974,
      "Ġitalien": 2975,
      "Ġnumera": 2976,
      "Ġfilosof": 2977,
      "Ã¤ttning": 2978,
      "hem": 2979,
      "Am": 2980,
      "ĠMÃ": 2981,
      "rÃ©": 2982,
      "Ġstudier": 2983,
      "onn": 2984,
      "ias": 2985,
      "Ġalbumet": 2986,
      "ĠsÃ¤ll": 2987,
      "stid": 2988,
      "Ġstift": 2989,
      "ĠavrinningsomrÃ¥det": 2990,
      "Ġsju": 2991,
      "yo": 2992,
      "avÃ¤x": 2993,
      "bok": 2994,
      "vÃ¤l": 2995,
      "Ġport": 2996,
      "Ġsubt": 2997,
      "shus": 2998,
      "Sp": 2999,
      "ĠomrÃ¥de": 3000,
      "ĠrÃ¥d": 3001,
      "Ġskick": 3002,
      "Ġtar": 3003,
      "Ġexempelvis": 3004,
      "ierna": 3005,
      "utveckling": 3006,
      "kur": 3007,
      "emp": 3008,
      "Ġursprungligen": 3009,
      "kall": 3010,
      "Ġgem": 3011,
      "ĠAir": 3012,
      "icus": 3013,
      "verket": 3014,
      "ĠbelÃ¤gen": 3015,
      "ĠSim": 3016,
      "ĠEg": 3017,
      "Lac": 3018,
      "ĠOS": 3019,
      "ĠBog": 3020,
      "ĠvÃ¤xter": 3021,
      "skriv": 3022,
      "Ġinkl": 3023,
      "ĠSv": 3024,
      "lund": 3025,
      "Ġlivskraft": 3026,
      "ima": 3027,
      "ĠBay": 3028,
      "Ġtj": 3029,
      "ffÃ¤r": 3030,
      "istiska": 3031,
      "iana": 3032,
      "ĠRiver": 3033,
      "Ã¤lj": 3034,
      "zo": 3035,
      "Th": 3036,
      "ĠVar": 3037,
      "ĠJon": 3038,
      "ĠColumbia": 3039,
      "Rh": 3040,
      "dae": 3041,
      "Ġprin": 3042,
      "ĠmÃ¤tare": 3043,
      "Pseud": 3044,
      "ĠnÃ¤m": 3045,
      "arken": 3046,
      "ĠlÃ¥nga": 3047,
      "ĠLouis": 3048,
      "igur": 3049,
      "teborgs": 3050,
      "ifrÃ¥n": 3051,
      "Ġsch": 3052,
      "ĠvÃ¤sterut": 3053,
      "itar": 3054,
      "Le": 3055,
      "ĠNamnet": 3056,
      "ebel": 3057,
      "Ġlyckades": 3058,
      "ĠsÃ¤song": 3059,
      "ĠutÃ": 3060,
      "Ġklubben": 3061,
      "ogs": 3062,
      "ĠlÃ¥ten": 3063,
      "lt": 3064,
      "isp": 3065,
      "Ġrespekt": 3066,
      "ford": 3067,
      "Ġolympiska": 3068,
      "rbundet": 3069,
      "Ġliten": 3070,
      "Ġrev": 3071,
      "brott": 3072,
      "ostad": 3073,
      "sven": 3074,
      "ĠTer": 3075,
      "ĠNe": 3076,
      "ĠgÃ¥rd": 3077,
      "ĠRobert": 3078,
      "Ġungdom": 3079,
      "ĠWilhelm": 3080,
      "orer": 3081,
      "roc": 3082,
      "ovjet": 3083,
      "Ġoftast": 3084,
      "gst": 3085,
      "olv": 3086,
      "Ã¥ten": 3087,
      "ĠnÃ¥r": 3088,
      "ĠMadrid": 3089,
      "ĠGh": 3090,
      "Ġmedlemmar": 3091,
      "ĠKina": 3092,
      "Ġelekt": 3093,
      "Ġnomin": 3094,
      "Ġproblem": 3095,
      "iskop": 3096,
      "sspelare": 3097,
      "fjÃ¤r": 3098,
      "odes": 3099,
      "ĠJÃ": 3100,
      "Ġstats": 3101,
      "Ġarbete": 3102,
      "ti": 3103,
      "Ġpoli": 3104,
      "ĠFor": 3105,
      "ĠbestÃ¤m": 3106,
      "ĠLud": 3107,
      "ddes": 3108,
      "Ġville": 3109,
      "Ġrepresenter": 3110,
      "Ġlivskraftig": 3111,
      "ordning": 3112,
      "Ġbron": 3113,
      "rikes": 3114,
      "ĠupptÃ¤ckt": 3115,
      "ĠKonst": 3116,
      "Ġbos": 3117,
      "ckte": 3118,
      "ĠKab": 3119,
      "ugg": 3120,
      "Ġju": 3121,
      "ĠfÃ¤rd": 3122,
      "ĠBor": 3123,
      "ĠAugust": 3124,
      "Ġuppdrag": 3125,
      "Ġbandet": 3126,
      "vist": 3127,
      "ly": 3128,
      "Ġdagar": 3129,
      "ĠlÃ¤k": 3130,
      "spelen": 3131,
      "ĠCounty": 3132,
      "bel": 3133,
      "Ġprocent": 3134,
      "Ġdistrikt": 3135,
      "skrift": 3136,
      "Ġgamm": 3137,
      "ju": 3138,
      "Ġkrist": 3139,
      "ĠNya": 3140,
      "ĠKal": 3141,
      "jÃ¤rvi": 3142,
      "rac": 3143,
      "jden": 3144,
      "fot": 3145,
      "Ġregiss": 3146,
      "Ġvanligt": 3147,
      "skar": 3148,
      "ĠlÃ¥ngt": 3149,
      "oides": 3150,
      "Ġfartyg": 3151,
      "ect": 3152,
      "Ġavvatt": 3153,
      "Ġaktiv": 3154,
      "ghan": 3155,
      "entliga": 3156,
      "ador": 3157,
      "Ġhaft": 3158,
      "ilis": 3159,
      "Ġdjup": 3160,
      "ĠtÃ¤n": 3161,
      "Ã¥nga": 3162,
      "Ġtag": 3163,
      "Ġuppgick": 3164,
      "rsak": 3165,
      "uebra": 3166,
      "ĠkÃ¤r": 3167,
      "Ġexp": 3168,
      "omyia": 3169,
      "fisk": 3170,
      "ĠnÃ": 3171,
      "ĠsÃ¤ga": 3172,
      "ologiska": 3173,
      "rond": 3174,
      "ĠUng": 3175,
      "organis": 3176,
      "Ġpolitiker": 3177,
      "Ġdog": 3178,
      "uebrada": 3179,
      "ĠhÃ¤rad": 3180,
      "ĠKustklimat": 3181,
      "sled": 3182,
      "ĠMat": 3183,
      "Ġfiskart": 3184,
      "ĠKn": 3185,
      "Ġbek": 3186,
      "enten": 3187,
      "Ġkons": 3188,
      "oul": 3189,
      "ĠSar": 3190,
      "Ġstartade": 3191,
      "Ġfuktigt": 3192,
      "over": 3193,
      "Ġvattnet": 3194,
      "Ġbetyd": 3195,
      "illnad": 3196,
      "Ġutveckling": 3197,
      "ransp": 3198,
      "stadels": 3199,
      "emat": 3200,
      "jud": 3201,
      "Ġgro": 3202,
      "Ġeff": 3203,
      "pings": 3204,
      "oter": 3205,
      "Ġhopp": 3206,
      "ĠslÃ¤kt": 3207,
      "ĠSand": 3208,
      "adi": 3209,
      "Ġsubtropiskt": 3210,
      "ĠGra": 3211,
      "iteten": 3212,
      "full": 3213,
      "ĠÃ¤nnu": 3214,
      "Ġis": 3215,
      "In": 3216,
      "Ã¤mp": 3217,
      "stes": 3218,
      "Desa": 3219,
      "esi": 3220,
      "Ġmestadels": 3221,
      "ĠTan": 3222,
      "ĠAt": 3223,
      "ĠflÃ": 3224,
      "ringar": 3225,
      "ĠLos": 3226,
      "ĠAfghan": 3227,
      "ĠAndra": 3228,
      "Ġgruppen": 3229,
      "alj": 3230,
      "ĠjÃ¤rnvÃ¤g": 3231,
      "umet": 3232,
      "ivÃ¥": 3233,
      "Ġpolitiska": 3234,
      "Ġbrittiska": 3235,
      "Ġjap": 3236,
      "arktis": 3237,
      "Ġguvern": 3238,
      "Ġent": 3239,
      "Ġskydd": 3240,
      "Ġanses": 3241,
      "bil": 3242,
      "Ġfunger": 3243,
      "ĠBak": 3244,
      "Ġvapen": 3245,
      "ĠJo": 3246,
      "skri": 3247,
      "Ġlat": 3248,
      "Ġvarandra": 3249,
      "ĠRa": 3250,
      "Ġavs": 3251,
      "ĠMer": 3252,
      "stitut": 3253,
      "iri": 3254,
      "tar": 3255,
      "Ġkallar": 3256,
      "Ġmedverkade": 3257,
      "vÃ¤gen": 3258,
      "Ã¥dde": 3259,
      "Ġkara": 3260,
      "ĠAfghanistan": 3261,
      "Ġtradition": 3262,
      "kta": 3263,
      "Ġmag": 3264,
      "Ġkust": 3265,
      "ĠRyss": 3266,
      "slÃ¤nd": 3267,
      "ĠMountain": 3268,
      "ĠSal": 3269,
      "Ġingick": 3270,
      "tra": 3271,
      "Ġsol": 3272,
      "gskolan": 3273,
      "erial": 3274,
      "Ġtrots": 3275,
      "Ġbif": 3276,
      "ĠDavid": 3277,
      "omen": 3278,
      "ĠSw": 3279,
      "ema": 3280,
      "riset": 3281,
      "anus": 3282,
      "inska": 3283,
      "irk": 3284,
      "Ġflertal": 3285,
      "ĠJean": 3286,
      "Ġhund": 3287,
      "ourna": 3288,
      "to": 3289,
      "ĠMexico": 3290,
      "ĠÃ¥tta": 3291,
      "oster": 3292,
      "stads": 3293,
      "ĠRu": 3294,
      "Ġytan": 3295,
      "ĠÃĸsterrike": 3296,
      "Ġliksom": 3297,
      "Ġdubb": 3298,
      "Ġbegrav": 3299,
      "iro": 3300,
      "ĠBrook": 3301,
      "ĠGenom": 3302,
      "Ġring": 3303,
      "Ġsamling": 3304,
      "rvalt": 3305,
      "ĠInternation": 3306,
      "arb": 3307,
      "ĠPort": 3308,
      "ĠThomas": 3309,
      "Ġfunkt": 3310,
      "entina": 3311,
      "ktÃ¤r": 3312,
      "arlament": 3313,
      "ĠSouth": 3314,
      "ĠlÃ¥nghorningar": 3315,
      "Ġbrev": 3316,
      "Ġrelig": 3317,
      "Ġstrand": 3318,
      "ĠCharles": 3319,
      "ump": 3320,
      "arten": 3321,
      "Ã¤son": 3322,
      "ĠHill": 3323,
      "Ġlika": 3324,
      "atern": 3325,
      "ĠgrÃ": 3326,
      "oper": 3327,
      "Ġkopp": 3328,
      "unnit": 3329,
      "Ġserien": 3330,
      "ĠuppmÃ¤rk": 3331,
      "Ã¨": 3332,
      "Ġlandskommun": 3333,
      "stron": 3334,
      "Ġutom": 3335,
      "cip": 3336,
      "otÃ": 3337,
      "Ġmodern": 3338,
      "Ġstri": 3339,
      "ĠSy": 3340,
      "yggor": 3341,
      "igheten": 3342,
      "ĠanvÃ¤ndas": 3343,
      "ĠGrÃ": 3344,
      "Ġstyrel": 3345,
      "Ġrespektive": 3346,
      "ĠLar": 3347,
      "Ġmar": 3348,
      "ĠPet": 3349,
      "lÃ¤ndsk": 3350,
      "Ġdels": 3351,
      "ĠLag": 3352,
      "ĠanvÃ¤nda": 3353,
      "Ġpat": 3354,
      "igen": 3355,
      "Ġtrafik": 3356,
      "anda": 3357,
      "flyg": 3358,
      "HL": 3359,
      "oria": 3360,
      "Ġjag": 3361,
      "ĠLi": 3362,
      "ĠLÃ": 3363,
      "ĠMag": 3364,
      "ĠBel": 3365,
      "ĠMin": 3366,
      "anna": 3367,
      "ensam": 3368,
      "ĠFolk": 3369,
      "onom": 3370,
      "ĠJac": 3371,
      "Ġmotor": 3372,
      "Ġly": 3373,
      "Ġass": 3374,
      "Ġyng": 3375,
      "ĠRich": 3376,
      "Ġab": 3377,
      "Ġavled": 3378,
      "ĠSkÃ¥n": 3379,
      "Ã¤ktet": 3380,
      "Ġomfattar": 3381,
      "ĠTeng": 3382,
      "Ġtio": 3383,
      "Ġluft": 3384,
      "ĠSten": 3385,
      "Ġtving": 3386,
      "ĠFried": 3387,
      "ĠlÃ¤t": 3388,
      "ĠUl": 3389,
      "ĠRab": 3390,
      "ĠfÃ¥gel": 3391,
      "Ġtilldel": 3392,
      "Ġspelare": 3393,
      "ĠBra": 3394,
      "rarna": 3395,
      "vÃ¤nd": 3396,
      "mare": 3397,
      "ĠCl": 3398,
      "ĠFer": 3399,
      "igh": 3400,
      "ĠStat": 3401,
      "ultat": 3402,
      "edde": 3403,
      "Ġinvig": 3404,
      "erska": 3405,
      "ĠutnÃ¤mn": 3406,
      "Ġeurop": 3407,
      "Ġdessutom": 3408,
      "Ġgavs": 3409,
      "Ã¤sterskap": 3410,
      "svÃ¤xtart": 3411,
      "Ġavsnitt": 3412,
      "Ġvanlig": 3413,
      "ĠBogotÃ": 3414,
      "ĠLo": 3415,
      "Ġkej": 3416,
      "Ġish": 3417,
      "spindlar": 3418,
      "Ġtext": 3419,
      "ĠsjÃ¤lva": 3420,
      "andid": 3421,
      "jlig": 3422,
      "ĠRik": 3423,
      "demokrat": 3424,
      "Ġfotbollsspelare": 3425,
      "ytor": 3426,
      "ĠPark": 3427,
      "ios": 3428,
      "lls": 3429,
      "ener": 3430,
      "ĠkrÃ¤ftdjursart": 3431,
      "staur": 3432,
      "atum": 3433,
      "arn": 3434,
      "iff": 3435,
      "ĠmiljÃ": 3436,
      "alus": 3437,
      "uz": 3438,
      "ych": 3439,
      "Ġmedic": 3440,
      "Ã¤rt": 3441,
      "slaget": 3442,
      "delning": 3443,
      "relsen": 3444,
      "ĠVal": 3445,
      "Ġinternationella": 3446,
      "ĠtvÃ¥hjÃ¤rtbladig": 3447,
      "ĠLib": 3448,
      "jt": 3449,
      "ez": 3450,
      "Ã¤dd": 3451,
      "Ġarran": 3452,
      "Ġfly": 3453,
      "ĠHennes": 3454,
      "ĠVan": 3455,
      "ĠfÃ¥ng": 3456,
      "kont": 3457,
      "ibliotek": 3458,
      "ĠDj": 3459,
      "ĠAnna": 3460,
      "fred": 3461,
      "inen": 3462,
      "lipp": 3463,
      "anten": 3464,
      "Ġbo": 3465,
      "hall": 3466,
      "ĠKon": 3467,
      "ritar": 3468,
      "rottning": 3469,
      "Ġenk": 3470,
      "Ġtogs": 3471,
      "gÃ¥rden": 3472,
      "go": 3473,
      "ĠKabul": 3474,
      "Ġorsak": 3475,
      "ands": 3476,
      "ĠlÃ¤": 3477,
      "Ġskilj": 3478,
      "bas": 3479,
      "yggnad": 3480,
      "Ġmeddel": 3481,
      "ĠBri": 3482,
      "ĠMellan": 3483,
      "ĠvÃ¤xte": 3484,
      "Ġstudent": 3485,
      "inus": 3486,
      "Ġdansk": 3487,
      "Ġsilver": 3488,
      "Ġtim": 3489,
      "ĠÃĸst": 3490,
      "Ġeffekt": 3491,
      "Ġbestod": 3492,
      "ko": 3493,
      "Ġbevar": 3494,
      "eh": 3495,
      "ahl": 3496,
      "ĠBÃ": 3497,
      "Ġbol": 3498,
      "ks": 3499,
      "Ã¥rden": 3500,
      "ĠArgentina": 3501,
      "Ġkomma": 3502,
      "Ġregering": 3503,
      "nster": 3504,
      "ĠGro": 3505,
      "ĠfjÃ¤rde": 3506,
      "ĠDal": 3507,
      "eles": 3508,
      "ĠWien": 3509,
      "ĠGre": 3510,
      "teck": 3511,
      "Ġpost": 3512,
      "ĠBefolknings": 3513,
      "olor": 3514,
      "Ġdeltag": 3515,
      "iaceae": 3516,
      "let": 3517,
      "ĠProvincia": 3518,
      "Ġud": 3519,
      "uella": 3520,
      "iago": 3521,
      "Ġkallades": 3522,
      "Ġeget": 3523,
      "Ġsomm": 3524,
      "ĠBern": 3525,
      "eden": 3526,
      "ĠAlgeriet": 3527,
      "enser": 3528,
      "Ġbakom": 3529,
      "Ġsid": 3530,
      "Ġstil": 3531,
      "rÃ¤ttades": 3532,
      "Ġbytt": 3533,
      "Ġdans": 3534,
      "aliforn": 3535,
      "ĠBefolkningsutveckling": 3536,
      "ĠlÃ¤ngs": 3537,
      "Ġslutt": 3538,
      "ĠCa": 3539,
      "erhet": 3540,
      "ĠHo": 3541,
      "chef": 3542,
      "Ġton": 3543,
      "ski": 3544,
      "ĠMal": 3545,
      "urt": 3546,
      "Ġej": 3547,
      "ĠUnderarter": 3548,
      "ĠspÃ¥r": 3549,
      "klubb": 3550,
      "ĠKÅį": 3551,
      "isa": 3552,
      "odde": 3553,
      "Ġindustri": 3554,
      "omat": 3555,
      "skatt": 3556,
      "ĠSund": 3557,
      "Ġartik": 3558,
      "roller": 3559,
      "Ġfj": 3560,
      "Ġvisade": 3561,
      "ines": 3562,
      "Ġspelat": 3563,
      "ĠFriedrich": 3564,
      "ĠWest": 3565,
      "ĠUtbred": 3566,
      "talets": 3567,
      "skott": 3568,
      "Äĩ": 3569,
      "ague": 3570,
      "Ġboken": 3571,
      "Ġyta": 3572,
      "reter": 3573,
      "minister": 3574,
      "rans": 3575,
      "ĠStaden": 3576,
      "ĠanvÃ¤nder": 3577,
      "Ġsem": 3578,
      "jan": 3579,
      "ĠAlexander": 3580,
      "Ġdisk": 3581,
      "Ġdok": 3582,
      "ljd": 3583,
      "rondiss": 3584,
      "histor": 3585,
      "Ã¥glar": 3586,
      "astor": 3587,
      "ĠberÃ": 3588,
      "ĠnÃ¥dde": 3589,
      "ugh": 3590,
      "Ġdal": 3591,
      "apan": 3592,
      "Ġregeringen": 3593,
      "rÃ¤nd": 3594,
      "ĠKungliga": 3595,
      "Ġdikt": 3596,
      "Ġgemensam": 3597,
      "Pol": 3598,
      "svÃ¤xter": 3599,
      "xel": 3600,
      "Ġdriv": 3601,
      "blomm": 3602,
      "ĠSantiago": 3603,
      "ĠorkidÃ©er": 3604,
      "ige": 3605,
      "ĠsÃ¥g": 3606,
      "stÃ¤llningar": 3607,
      "resent": 3608,
      "ĠNÃ¥g": 3609,
      "emot": 3610,
      "ĠfÃ¤ng": 3611,
      "skaper": 3612,
      "ĠupphÃ": 3613,
      "Ġtrupp": 3614,
      "moss": 3615,
      "ĠRyssland": 3616,
      "ĠfortsÃ¤tt": 3617,
      "river": 3618,
      "snien": 3619,
      "ael": 3620,
      "Ġarrondiss": 3621,
      "Ġteater": 3622,
      "ĠJoseph": 3623,
      "egov": 3624,
      "mien": 3625,
      "Ġrelat": 3626,
      "Ġnummer": 3627,
      "ĠHam": 3628,
      "ĠHel": 3629,
      "Ġskillnad": 3630,
      "ĠHerc": 3631,
      "Ġgammal": 3632,
      "ĠTa": 3633,
      "ulpt": 3634,
      "osition": 3635,
      "Ġsavannskog": 3636,
      "ĠHandling": 3637,
      "Ġnorm": 3638,
      "Ġhandel": 3639,
      "ĠâĢ": 3640,
      "ĠpÃ¥verk": 3641,
      "ĠMarock": 3642,
      "Ġfas": 3643,
      "uan": 3644,
      "ĠAdolf": 3645,
      "Ġor": 3646,
      "ĠundersÃ": 3647,
      "Ġnor": 3648,
      "Ġvanligen": 3649,
      "Äģn": 3650,
      "ĠUtÃ": 3651,
      "ĠAnders": 3652,
      "relse": 3653,
      "Ġstarkt": 3654,
      "ĠBosnien": 3655,
      "usa": 3656,
      "ipl": 3657,
      "unta": 3658,
      "ĠÃ¤ldsta": 3659,
      "ĠNorth": 3660,
      "Ġpsyk": 3661,
      "Ġgjordes": 3662,
      "rare": 3663,
      "Ġroman": 3664,
      "jÃ¤rnen": 3665,
      "ĠmÃ¤rk": 3666,
      "skÃ¤r": 3667,
      "onde": 3668,
      "Ġhandlar": 3669,
      "ĠjÃ¤mfÃ": 3670,
      "ulus": 3671,
      "ĠPal": 3672,
      "Ġihop": 3673,
      "vÃ¥": 3674,
      "ĠIII": 3675,
      "mot": 3676,
      "rda": 3677,
      "ĠKyrk": 3678,
      "ansen": 3679,
      "ĠMarocko": 3680,
      "rict": 3681,
      "frÃ¥n": 3682,
      "program": 3683,
      "ĠÃ¥tervÃ¤nde": 3684,
      "Ġfys": 3685,
      "iÃ³n": 3686,
      "Ġkontrakt": 3687,
      "fjÃ¤rilar": 3688,
      "ygger": 3689,
      "ĠJames": 3690,
      "rix": 3691,
      "ĠSanta": 3692,
      "rsvars": 3693,
      "mÃ": 3694,
      "olleg": 3695,
      "Ġformula": 3696,
      "Ġmatch": 3697,
      "Ġrym": 3698,
      "ĠDelhi": 3699,
      "rach": 3700,
      "ĠKat": 3701,
      "annen": 3702,
      "Ġarrondissementet": 3703,
      "dern": 3704,
      "ĠPol": 3705,
      "sked": 3706,
      "revÃ¤x": 3707,
      "ĠbÃ¤r": 3708,
      "Ġvari": 3709,
      "Ġuppst": 3710,
      "aller": 3711,
      "mÃ¤stare": 3712,
      "ration": 3713,
      "Ġminst": 3714,
      "ĠDÃ¤refter": 3715,
      "ulata": 3716,
      "HI": 3717,
      "lv": 3718,
      "ĠHenrik": 3719,
      "ĠlÃ¤nge": 3720,
      "ĠBa": 3721,
      "ĠdvÃ¤r": 3722,
      "ois": 3723,
      "ĠSpel": 3724,
      "rust": 3725,
      "ight": 3726,
      "ĠuppstrÃ": 3727,
      "ĠOmrÃ¥det": 3728,
      "procent": 3729,
      "Ġhust": 3730,
      "ĠSaint": 3731,
      "edd": 3732,
      "yggnaden": 3733,
      "ĠlÃ¥tar": 3734,
      "rys": 3735,
      "Per": 3736,
      "bi": 3737,
      "Ġbostad": 3738,
      "rlorade": 3739,
      "ĠTre": 3740,
      "fte": 3741,
      "ĠBre": 3742,
      "ĠmÃ¥ng": 3743,
      "ilus": 3744,
      "ment": 3745,
      "Ġdebut": 3746,
      "ĠSchweiz": 3747,
      "Ġtiteln": 3748,
      "Ag": 3749,
      "Ġbetrakt": 3750,
      "ĠtrÃ¤ff": 3751,
      "aktÃ": 3752,
      "inia": 3753,
      "ĠFrancis": 3754,
      "mt": 3755,
      "Ġsim": 3756,
      "Ġvik": 3757,
      "Ġomfattande": 3758,
      "Ġsvampar": 3759,
      "vde": 3760,
      "Ġskolan": 3761,
      "Ġsida": 3762,
      "myggor": 3763,
      "ps": 3764,
      "isc": 3765,
      "ĠRio": 3766,
      "but": 3767,
      "Ġsocial": 3768,
      "Mic": 3769,
      "Ġak": 3770,
      "Ġofrukt": 3771,
      "iller": 3772,
      "iell": 3773,
      "Ġlaget": 3774,
      "Ġmott": 3775,
      "add": 3776,
      "ĠlÃ¤rare": 3777,
      "ĠgÃ¤ller": 3778,
      "Ġofruktbar": 3779,
      "ĠStra": 3780,
      "ĠLeague": 3781,
      "Ġsett": 3782,
      "ary": 3783,
      "ĠTj": 3784,
      "Ġenbart": 3785,
      "Ġkonta": 3786,
      "rbunds": 3787,
      "Ã¤ltet": 3788,
      "Ġbrott": 3789,
      "Ġbrittisk": 3790,
      "ĠHenry": 3791,
      "Ġdr": 3792,
      "Ġkors": 3793,
      "cke": 3794,
      "Ġmotsvar": 3795,
      "bolag": 3796,
      "Ã¥ning": 3797,
      "abl": 3798,
      "ense": 3799,
      "egovina": 3800,
      "ĠSMHI": 3801,
      "ĠorkidÃ©art": 3802,
      "Ġdanska": 3803,
      "ensen": 3804,
      "ĠsjÃ¤lvstÃ¤nd": 3805,
      "ito": 3806,
      "Ġz": 3807,
      "Ġskedde": 3808,
      "sg": 3809,
      "Ġinsp": 3810,
      "rjar": 3811,
      "ĠÅ": 3812,
      "emang": 3813,
      "rdel": 3814,
      "isseau": 3815,
      "Ġtopp": 3816,
      "ĠGo": 3817,
      "Ġfinans": 3818,
      "rlag": 3819,
      "vall": 3820,
      "Ġutbildning": 3821,
      "Ġbetydelse": 3822,
      "ĠMagn": 3823,
      "roat": 3824,
      "emente": 3825,
      "Ġborg": 3826,
      "ĠGer": 3827,
      "uer": 3828,
      "ĠStora": 3829,
      "Ġcentral": 3830,
      "ĠvÃ¤": 3831,
      "Ġsjukdom": 3832,
      "ĠMartin": 3833,
      "ĠMÃ¼": 3834,
      "ĠbelÃ¤g": 3835,
      "Ġliknande": 3836,
      "ĠDistrict": 3837,
      "ĠAndre": 3838,
      "napp": 3839,
      "Ġtidigt": 3840,
      "Ġklock": 3841,
      "Ġdrog": 3842,
      "ury": 3843,
      "Ġgym": 3844,
      "ĠCan": 3845,
      "ĠdelavrinningsomrÃ¥de": 3846,
      "ĠmÃ¥revÃ¤x": 3847,
      "Ġsnabbt": 3848,
      "Ġkronor": 3849,
      "own": 3850,
      "innes": 3851,
      "ĠkaraktÃ¤r": 3852,
      "ado": 3853,
      "iger": 3854,
      "wa": 3855,
      "ory": 3856,
      "ĠfrÃ¤msta": 3857,
      "Ġbeteck": 3858,
      "dde": 3859,
      "ool": 3860,
      "gÃ¥ngen": 3861,
      "ĠUniversity": 3862,
      "namn": 3863,
      "examen": 3864,
      "ĠrÃ¤knas": 3865,
      "ĠDelavrinningsomrÃ¥de": 3866,
      "ophyll": 3867,
      "ĠRabat": 3868,
      "itu": 3869,
      "Ġciv": 3870,
      "ĠHercegovina": 3871,
      "II": 3872,
      "ĠgrÃ¥": 3873,
      "jligt": 3874,
      "ame": 3875,
      "penhamn": 3876,
      "punkt": 3877,
      "Ġvattenytor": 3878,
      "formation": 3879,
      "Ġerb": 3880,
      "ĠWe": 3881,
      "Ġalltid": 3882,
      "Ġdomin": 3883,
      "Sch": 3884,
      "ystemet": 3885,
      "Ġkur": 3886,
      "ĠgrÃ¤ns": 3887,
      "ĠhÃ¤l": 3888,
      "omer": 3889,
      "ĠGud": 3890,
      "ringen": 3891,
      "ĠEdward": 3892,
      "ssp": 3893,
      "ĠMac": 3894,
      "ĠdÃ¥varande": 3895,
      "du": 3896,
      "ony": 3897,
      "slÃ¤ndor": 3898,
      "rÃ¤v": 3899,
      "ĠsÃ¥vÃ¤l": 3900,
      "ĠÃ¤gde": 3901,
      "ampar": 3902,
      "ĠSmith": 3903,
      "yper": 3904,
      "ette": 3905,
      "ĠCla": 3906,
      "orf": 3907,
      "Ġvalde": 3908,
      "Ġbetyder": 3909,
      "Ġrepubliken": 3910,
      "ĠMedelhÃ": 3911,
      "orus": 3912,
      "ĠeftertrÃ¤d": 3913,
      "ĠPas": 3914,
      "Quebrada": 3915,
      "ĠframgÃ¥ngs": 3916,
      "reterare": 3917,
      "amerika": 3918,
      "ĠAtt": 3919,
      "Ġdebuterade": 3920,
      "ĠaffÃ¤r": 3921,
      "ĠPi": 3922,
      "Ġflock": 3923,
      "sted": 3924,
      "togs": 3925,
      "emi": 3926,
      "ĠÃ¤ndra": 3927,
      "uva": 3928,
      "ifter": 3929,
      "ĠDom": 3930,
      "ĠMark": 3931,
      "Ġsoci": 3932,
      "Ġdrabb": 3933,
      "Ġflott": 3934,
      "sterna": 3935,
      "stein": 3936,
      "Ġsommarspelen": 3937,
      "Ġinf": 3938,
      "Ġishockey": 3939,
      "Ġkonkur": 3940,
      "ĠFal": 3941,
      "Ġrestaur": 3942,
      "ĠAnton": 3943,
      "ĠVall": 3944,
      "ĠUtbredning": 3945,
      "sut": 3946,
      "orea": 3947,
      "Äģr": 3948,
      "pte": 3949,
      "anj": 3950,
      "iph": 3951,
      "ĠEst": 3952,
      "Ġsold": 3953,
      "iljÃ": 3954,
      "lare": 3955,
      "Ġtroligen": 3956,
      "frÃ¥g": 3957,
      "ilipp": 3958,
      "Ġjust": 3959,
      "Ġjourna": 3960,
      "Ġsyster": 3961,
      "Ġastron": 3962,
      "ĠmÃ¥nader": 3963,
      "Den": 3964,
      "Ġserie": 3965,
      "Kr": 3966,
      "Ġregi": 3967,
      "ĠtrÃ¤n": 3968,
      "Ap": 3969,
      "ertig": 3970,
      "ĠQue": 3971,
      "Ġinspel": 3972,
      "urus": 3973,
      "Ġcentrum": 3974,
      "ĠMÃ¥nga": 3975,
      "La": 3976,
      "ĠStad": 3977,
      "ĠpraktfjÃ¤rilar": 3978,
      "ĠHu": 3979,
      "Joh": 3980,
      "Ġursprungliga": 3981,
      "ĠWh": 3982,
      "ljde": 3983,
      "ĠDon": 3984,
      "andidat": 3985,
      "Ġtills": 3986,
      "Ġann": 3987,
      "Ġbygga": 3988,
      "Ġbrok": 3989,
      "iter": 3990,
      "Ġheter": 3991,
      "ytande": 3992,
      "ĠhÃ¥r": 3993,
      "qvist": 3994,
      "ĠDo": 3995,
      "ĠHistorik": 3996,
      "cu": 3997,
      "ĠbjÃ": 3998,
      "ĠRud": 3999,
      "Ġprote": 4000,
      "oret": 4001,
      "ĠLev": 4002,
      "ĠPat": 4003,
      "Ġgeneral": 4004,
      "Ġtunn": 4005,
      "Ġne": 4006,
      "upen": 4007,
      "ĠSenare": 4008,
      "Ġbidrag": 4009,
      "Ġjud": 4010,
      "ifoli": 4011,
      "Ġfakt": 4012,
      "ĠJer": 4013,
      "ĠDessutom": 4014,
      "ppen": 4015,
      "rstÃ": 4016,
      "ĠkÃ¤nt": 4017,
      "cha": 4018,
      "ivet": 4019,
      "lja": 4020,
      "ĠFram": 4021,
      "komst": 4022,
      "irg": 4023,
      "Ġparti": 4024,
      "ield": 4025,
      "Ã¤ttre": 4026,
      "ĠVÃ¤stra": 4027,
      "ĠWall": 4028,
      "klass": 4029,
      "ĠPre": 4030,
      "Ġvinter": 4031,
      "rÃ¤ld": 4032,
      "Ġrek": 4033,
      "heim": 4034,
      "ternat": 4035,
      "ynt": 4036,
      "elia": 4037,
      "person": 4038,
      "ĠTrots": 4039,
      "Ġarbetar": 4040,
      "ĠÃĸre": 4041,
      "ĠalltsÃ¥": 4042,
      "ogen": 4043,
      "ĠChristian": 4044,
      "ĠJuli": 4045,
      "Ġprofession": 4046,
      "ĠstjÃ¤rn": 4047,
      "icola": 4048,
      "Ġhuset": 4049,
      "Ġrapp": 4050,
      "ikanska": 4051,
      "Ġgran": 4052,
      "Ġov": 4053,
      "Ġdelvis": 4054,
      "ĠNeder": 4055,
      "maskart": 4056,
      "pe": 4057,
      "Ġses": 4058,
      "Ġod": 4059,
      "ĠSoc": 4060,
      "ĠDag": 4061,
      "Ġleg": 4062,
      "Ġlades": 4063,
      "Åı": 4064,
      "Ġsnart": 4065,
      "hu": 4066,
      "ophila": 4067,
      "spelare": 4068,
      "ĠKÅįh": 4069,
      "Ġmass": 4070,
      "rym": 4071,
      "Ġlandskap": 4072,
      "ĠOlof": 4073,
      "ĠRichard": 4074,
      "we": 4075,
      "ĠskÃ¤r": 4076,
      "fil": 4077,
      "likt": 4078,
      "ĠAndersson": 4079,
      "ĠpÃ¥bÃ": 4080,
      "ĠRad": 4081,
      "ĠGrand": 4082,
      "ĠCor": 4083,
      "rste": 4084,
      "rak": 4085,
      "rinningsomrÃ¥den": 4086,
      "ĠArm": 4087,
      "ĠLars": 4088,
      "Ġvux": 4089,
      "aggar": 4090,
      "Ġstrax": 4091,
      "gjorde": 4092,
      "iÃ¨": 4093,
      "elle": 4094,
      "ĠbÃ¤ttre": 4095,
      "issa": 4096,
      "Ã¤rd": 4097,
      "ound": 4098,
      "ivision": 4099,
      "ĠbegrÃ¤ns": 4100,
      "ĠKoud": 4101,
      "usen": 4102,
      "verfÃ": 4103,
      "parasit": 4104,
      "ĠarmÃ©n": 4105,
      "ynta": 4106,
      "Ġill": 4107,
      "Ġfred": 4108,
      "Ġbodde": 4109,
      "jul": 4110,
      "ĠhÃ¤ck": 4111,
      "aph": 4112,
      "orum": 4113,
      "ĠOrt": 4114,
      "ĠJapan": 4115,
      "Ġkonf": 4116,
      "Ġudde": 4117,
      "Ġsluttar": 4118,
      "ĠMet": 4119,
      "egel": 4120,
      "ĠKong": 4121,
      "ĠgrÃ¤nsen": 4122,
      "kat": 4123,
      "Ġbrokparasit": 4124,
      "Ġbrokparasitsteklar": 4125,
      "Ġbildade": 4126,
      "ĠBol": 4127,
      "Ġgrek": 4128,
      "ĠFre": 4129,
      "stÃ": 4130,
      "Ġbyn": 4131,
      "sund": 4132,
      "Ġdat": 4133,
      "xa": 4134,
      "stol": 4135,
      "Ġmynd": 4136,
      "emplar": 4137,
      "stÃ¤llningen": 4138,
      "ĠupptÃ¤cktes": 4139,
      "Ġengag": 4140,
      "fri": 4141,
      "Ġgra": 4142,
      "Ġkungen": 4143,
      "oz": 4144,
      "ĠÃ¥s": 4145,
      "Ġsker": 4146,
      "Ġlitteratur": 4147,
      "Ġvitt": 4148,
      "ĠbiflÃ": 4149,
      "ĠMil": 4150,
      "Ġon": 4151,
      "Ġlist": 4152,
      "ĠHolm": 4153,
      "fen": 4154,
      "ington": 4155,
      "rland": 4156,
      "Ġmask": 4157,
      "wood": 4158,
      "Ġmera": 4159,
      "Ġkonser": 4160,
      "Ã¤ngden": 4161,
      "verl": 4162,
      "ÃŃa": 4163,
      "stopp": 4164,
      "Ġkval": 4165,
      "arat": 4166,
      "Ġsammans": 4167,
      "ĠBill": 4168,
      "ĠanvÃ¤nde": 4169,
      "amin": 4170,
      "bildning": 4171,
      "vre": 4172,
      "ĠvÃ¥": 4173,
      "ĠGrek": 4174,
      "stÃ¥ende": 4175,
      "ssa": 4176,
      "Ġblod": 4177,
      "Ġsommaren": 4178,
      "ĠGar": 4179,
      "pass": 4180,
      "ĠVil": 4181,
      "unionen": 4182,
      "anthus": 4183,
      "ink": 4184,
      "bolaget": 4185,
      "Ġdrag": 4186,
      "Ġbrukar": 4187,
      "ĠAs": 4188,
      "ĠSol": 4189,
      "Ġviktig": 4190,
      "Ġtri": 4191,
      "Ã¤songen": 4192,
      "Ġinnebar": 4193,
      "holms": 4194,
      "Ã¤nt": 4195,
      "ze": 4196,
      "ĠmÃ¤ngd": 4197,
      "Ġscen": 4198,
      "kap": 4199,
      "ited": 4200,
      "enos": 4201,
      "Ġforskning": 4202,
      "Ġidrott": 4203,
      "Ġarranger": 4204,
      "Ġhotad": 4205,
      "ĠstÃ¤llet": 4206,
      "mÃ¤r": 4207,
      "loppet": 4208,
      "iti": 4209,
      "di": 4210,
      "ĠOsc": 4211,
      "oken": 4212,
      "rmÃ¥g": 4213,
      "Ġgud": 4214,
      "Ġfatt": 4215,
      "ĠVict": 4216,
      "ĠavrinningsomrÃ¥den": 4217,
      "Ġpastor": 4218,
      "Ġma": 4219,
      "ĠblÃ¥": 4220,
      "nast": 4221,
      "ĠJohannes": 4222,
      "ĠÃĸrebro": 4223,
      "Ġklassen": 4224,
      "ĠHuvud": 4225,
      "Ġder": 4226,
      "eland": 4227,
      "num": 4228,
      "mor": 4229,
      "Ġtransp": 4230,
      "Ġindel": 4231,
      "Ġfilmer": 4232,
      "erats": 4233,
      "Ġsyft": 4234,
      "Ġslog": 4235,
      "ĠSta": 4236,
      "rslag": 4237,
      "Ġprivat": 4238,
      "Ġversion": 4239,
      "ptes": 4240,
      "Ġledare": 4241,
      "ĠÃ¤rtvÃ¤xter": 4242,
      "sidan": 4243,
      "Ġinstitut": 4244,
      "partiet": 4245,
      "Ġgul": 4246,
      "ĠutnÃ¤mndes": 4247,
      "Ġlant": 4248,
      "ĠprÃ¤st": 4249,
      "ĠWar": 4250,
      "ĠÃĸn": 4251,
      "Ġvarierad": 4252,
      "Ġupplag": 4253,
      "á¸": 4254,
      "skydd": 4255,
      "gande": 4256,
      "ĠansprÃ¥k": 4257,
      "oba": 4258,
      "Ġavvattnar": 4259,
      "ĠRec": 4260,
      "Ġda": 4261,
      "Ġdefin": 4262,
      "Ġsamarbete": 4263,
      "ellertid": 4264,
      "splan": 4265,
      "Ġvanliga": 4266,
      "Ġstyr": 4267,
      "imm": 4268,
      "dagen": 4269,
      "ĠtÃ¤ck": 4270,
      "Ġflick": 4271,
      "uta": 4272,
      "Ġanslut": 4273,
      "Ġryska": 4274,
      "vingar": 4275,
      "Ġstadens": 4276,
      "usten": 4277,
      "anta": 4278,
      "Ġstark": 4279,
      "ĠDaniel": 4280,
      "bara": 4281,
      "Ġinvigdes": 4282,
      "ĠLapp": 4283,
      "All": 4284,
      "oa": 4285,
      "press": 4286,
      "Ġmajor": 4287,
      "Ġig": 4288,
      "ĠVi": 4289,
      "way": 4290,
      "isten": 4291,
      "ĠutsÃ¥gs": 4292,
      "Ãº": 4293,
      "ĠvÃ¤rldens": 4294,
      "Ġriksdelen": 4295,
      "platsen": 4296,
      "ĠÃ¤kten": 4297,
      "Ġhum": 4298,
      "ĠAirport": 4299,
      "Ãĸ": 4300,
      "hang": 4301,
      "Ġsamtliga": 4302,
      "ĠMarie": 4303,
      "dal": 4304,
      "ĠarmÃ©": 4305,
      "Ep": 4306,
      "Ġprefekt": 4307,
      "ations": 4308,
      "iidae": 4309,
      "Ġmarknad": 4310,
      "wig": 4311,
      "Ġemot": 4312,
      "Ġgrundade": 4313,
      "ĠTillsammans": 4314,
      "Ġuppskatt": 4315,
      "samma": 4316,
      "rfattaren": 4317,
      "ĠHein": 4318,
      "ĠHol": 4319,
      "Ġvita": 4320,
      "smed": 4321,
      "ires": 4322,
      "Ġskapa": 4323,
      "botten": 4324,
      "desordning": 4325,
      "tÃ¤vling": 4326,
      "Ġresultat": 4327,
      "Ġyngre": 4328,
      "lÃ¤nderna": 4329,
      "ĠinÃ¥t": 4330,
      "remÃ¥l": 4331,
      "ĠNÃ¥gra": 4332,
      "ĠCap": 4333,
      "Ġtak": 4334,
      "Ġmedeltida": 4335,
      "Ġskriven": 4336,
      "Ġuppf": 4337,
      "ĠGot": 4338,
      "Ġexemplar": 4339,
      "hard": 4340,
      "ĠMari": 4341,
      "yph": 4342,
      "ior": 4343,
      "ny": 4344,
      "ĠKÅ": 4345,
      "Ġuppkall": 4346,
      "estiv": 4347,
      "ĠStud": 4348,
      "Ġledning": 4349,
      "Ġamb": 4350,
      "Ġrygg": 4351,
      "tera": 4352,
      "splats": 4353,
      "Ġplatsen": 4354,
      "ycken": 4355,
      "obb": 4356,
      "Ġtorn": 4357,
      "Ġvaldes": 4358,
      "zz": 4359,
      "Ġflygplan": 4360,
      "Ġpartiet": 4361,
      "Ġljud": 4362,
      "ĠLuc": 4363,
      "Ġtidningen": 4364,
      "ylt": 4365,
      "Ġintro": 4366,
      "Mac": 4367,
      "Ġskrivit": 4368,
      "ordet": 4369,
      "Ġfunktion": 4370,
      "Ġmaterial": 4371,
      "Fran": 4372,
      "ital": 4373,
      "ĠBou": 4374,
      "konst": 4375,
      "har": 4376,
      "larna": 4377,
      "ĠRed": 4378,
      "vÃ¤xt": 4379,
      "handling": 4380,
      "idrott": 4381,
      "Ġberoende": 4382,
      "Ġbiskop": 4383,
      "Ġmel": 4384,
      "atta": 4385,
      "yb": 4386,
      "otus": 4387,
      "brÃ": 4388,
      "Ġtilldelades": 4389,
      "vÃ¤": 4390,
      "cho": 4391,
      "agu": 4392,
      "ĠDra": 4393,
      "ĠSav": 4394,
      "ĠLan": 4395,
      "Ġbeseg": 4396,
      "Ġsvar": 4397,
      "rsÃ¤lj": 4398,
      "Ġnorska": 4399,
      "asp": 4400,
      "ennis": 4401,
      "riska": 4402,
      "ni": 4403,
      "Ġparlament": 4404,
      "ĠTimur": 4405,
      "ĠAdministrat": 4406,
      "ĠMaj": 4407,
      "Ġbegre": 4408,
      "ĠsamhÃ¤llet": 4409,
      "ĠgrÃ¤s": 4410,
      "ĠLiv": 4411,
      "somrÃ¥det": 4412,
      "Ġlandets": 4413,
      "udd": 4414,
      "Ġastero": 4415,
      "yan": 4416,
      "Ġundervis": 4417,
      "Ã¥k": 4418,
      "orgs": 4419,
      "ĠKristian": 4420,
      "Ġinsekter": 4421,
      "rupp": 4422,
      "jektet": 4423,
      "via": 4424,
      "rÃ¤ckligt": 4425,
      "ĠdÃ¤rpÃ¥": 4426,
      "Ġseger": 4427,
      "omyc": 4428,
      "ifier": 4429,
      "rument": 4430,
      "Ġlokala": 4431,
      "ĠKaliforn": 4432,
      "ĠtÃ¥g": 4433,
      "Ã¥ngen": 4434,
      "ĠDjur": 4435,
      "jtn": 4436,
      "Ġident": 4437,
      "uset": 4438,
      "Ġforn": 4439,
      "Ġbergstopp": 4440,
      "ĠVÃ¤rm": 4441,
      "Ġhav": 4442,
      "ĠNat": 4443,
      "omrÃ¥de": 4444,
      "Ġskad": 4445,
      "lay": 4446,
      "Ġbyggnader": 4447,
      "Ã¤ndeart": 4448,
      "ĠBrun": 4449,
      "ĠJack": 4450,
      "Ġskulpt": 4451,
      "ĠHed": 4452,
      "acken": 4453,
      "ĠPart": 4454,
      "ĠAlla": 4455,
      "Ġuppe": 4456,
      "nord": 4457,
      "jÃ¤": 4458,
      "andard": 4459,
      "Ġkombin": 4460,
      "ĠAlbert": 4461,
      "brun": 4462,
      "ĠLoma": 4463,
      "De": 4464,
      "Ã¥nd": 4465,
      "ĠRam": 4466,
      "inger": 4467,
      "ĠPolen": 4468,
      "ĠDi": 4469,
      "Ġnaturre": 4470,
      "Ġsand": 4471,
      "ĠOtto": 4472,
      "Ġrepresent": 4473,
      "Ġrund": 4474,
      "ales": 4475,
      "ĠLov": 4476,
      "skade": 4477,
      "ĠEric": 4478,
      "slÃ¤ndeart": 4479,
      "ki": 4480,
      "zon": 4481,
      "ĠFlor": 4482,
      "Äĵ": 4483,
      "ords": 4484,
      "fÃ¤lt": 4485,
      "ĠInom": 4486,
      "ljer": 4487,
      "erv": 4488,
      "ativ": 4489,
      "nÃ": 4490,
      "jÃ¤nst": 4491,
      "ĠLeon": 4492,
      "Ġbebygg": 4493,
      "arina": 4494,
      "alit": 4495,
      "Ġetabl": 4496,
      "Ġmis": 4497,
      "lid": 4498,
      "ĠLinkÃ": 4499,
      "Ġfabrik": 4500,
      "Ġpris": 4501,
      "loss": 4502,
      "ĠhÃ¤v": 4503,
      "Ġrelativt": 4504,
      "hÃ¥lla": 4505,
      "nÃ©": 4506,
      "Ã¤gare": 4507,
      "gÃ¤ng": 4508,
      "ebb": 4509,
      "Ġpark": 4510,
      "vert": 4511,
      "ĠmotstÃ¥nd": 4512,
      "Ġack": 4513,
      "hund": 4514,
      "liser": 4515,
      "Ġsingel": 4516,
      "oro": 4517,
      "olo": 4518,
      "ĠRegiÃ³n": 4519,
      "adens": 4520,
      "Ġengelsk": 4521,
      "ĠKalifornien": 4522,
      "din": 4523,
      "Ġlans": 4524,
      "Ġas": 4525,
      "rona": 4526,
      "versÃ¤tt": 4527,
      "Ġfinalen": 4528,
      "ĠÃ¥terupp": 4529,
      "Ġvalet": 4530,
      "omrÃ¥det": 4531,
      "sel": 4532,
      "ĠFlyg": 4533,
      "ĠFC": 4534,
      "ĠMax": 4535,
      "ĠRep": 4536,
      "osc": 4537,
      "eringen": 4538,
      "Ã¤sterskapet": 4539,
      "alitet": 4540,
      "Ġarbeten": 4541,
      "ĠtÃ¤vlade": 4542,
      "inder": 4543,
      "Ġenerg": 4544,
      "verka": 4545,
      "Ġkandidat": 4546,
      "Ġmakt": 4547,
      "produkt": 4548,
      "ĠSovjet": 4549,
      "Ġko": 4550,
      "ĠSock": 4551,
      "unga": 4552,
      "Ġnig": 4553,
      "ĠGrekland": 4554,
      "ssons": 4555,
      "ĠTidigare": 4556,
      "Ġkri": 4557,
      "Ġgitar": 4558,
      "gÃ¥": 4559,
      "Ġdokument": 4560,
      "Ġbytte": 4561,
      "Ġlopp": 4562,
      "agnar": 4563,
      "Ġpeng": 4564,
      "far": 4565,
      "svÃ¤g": 4566,
      "skont": 4567,
      "ĠSkÃ¥ne": 4568,
      "ibland": 4569,
      "arah": 4570,
      "Sk": 4571,
      "act": 4572,
      "Ġkanal": 4573,
      "ledare": 4574,
      "inc": 4575,
      "orden": 4576,
      "Ġflyttades": 4577,
      "hopp": 4578,
      "Ġkoll": 4579,
      "still": 4580,
      "ĠanlÃ¤gg": 4581,
      "uh": 4582,
      "Ġrock": 4583,
      "âĢĻ": 4584,
      "Ġgrupper": 4585,
      "unc": 4586,
      "Ġmuseum": 4587,
      "orld": 4588,
      "pare": 4589,
      "ania": 4590,
      "ĠupplÃ": 4591,
      "ĠÃ¤rtvÃ¤xtart": 4592,
      "Ã¤cken": 4593,
      "ĠbenÃ¤m": 4594,
      "Ġdiam": 4595,
      "ebygg": 4596,
      "ĠTam": 4597,
      "Cal": 4598,
      "dist": 4599,
      "vd": 4600,
      "ĠUnited": 4601,
      "atter": 4602,
      "Ġkamp": 4603,
      "rbÃ¤tt": 4604,
      "trÃ¤ff": 4605,
      "Ġproduktion": 4606,
      "Ġhustru": 4607,
      "ĠansÃ¥g": 4608,
      "ĠBeng": 4609,
      "Ġtron": 4610,
      "marker": 4611,
      "Ġog": 4612,
      "atser": 4613,
      "nsp": 4614,
      "Ġemellertid": 4615,
      "ĠBlack": 4616,
      "ĠsÃ¤songer": 4617,
      "ĠKlubb": 4618,
      "Ġbrun": 4619,
      "ĠVill": 4620,
      "rord": 4621,
      "ugu": 4622,
      "Her": 4623,
      "yx": 4624,
      "Ġle": 4625,
      "Ġslaget": 4626,
      "Ġag": 4627,
      "yre": 4628,
      "Ġdig": 4629,
      "ĠerhÃ": 4630,
      "ĠsÃ¥ldes": 4631,
      "Ġgrevskapet": 4632,
      "ĠSmÃ¥": 4633,
      "iske": 4634,
      "ville": 4635,
      "ypt": 4636,
      "Ġinkluder": 4637,
      "ilip": 4638,
      "ften": 4639,
      "usive": 4640,
      "ĠRock": 4641,
      "Ġrisk": 4642,
      "ĠÃ¤tt": 4643,
      "Ã¥tar": 4644,
      "ĠvÃ¤gen": 4645,
      "ĠBand": 4646,
      "Ġep": 4647,
      "Ġneder": 4648,
      "ĠIdag": 4649,
      "ĠMichael": 4650,
      "Ġicke": 4651,
      "Ġnorsk": 4652,
      "Ġdoktor": 4653,
      "Ġmodell": 4654,
      "Ġnio": 4655,
      "ĠKe": 4656,
      "Ġbad": 4657,
      "Ġersattes": 4658,
      "ĠberÃ¤k": 4659,
      "baggar": 4660,
      "alan": 4661,
      "ĠGab": 4662,
      "etes": 4663,
      "krets": 4664,
      "stud": 4665,
      "Ġkommit": 4666,
      "Ġkost": 4667,
      "Ġpri": 4668,
      "ĠNils": 4669,
      "ĠgÃ¤st": 4670,
      "Ġskrevs": 4671,
      "ĠTex": 4672,
      "royo": 4673,
      "ĠEftersom": 4674,
      "nare": 4675,
      "ĠÃ¤l": 4676,
      "uba": 4677,
      "ĠMusik": 4678,
      "ĠEle": 4679,
      "ĠvÃ¤nster": 4680,
      "Ġcon": 4681,
      "period": 4682,
      "ĠLÃ¥ten": 4683,
      "ĠÃħren": 4684,
      "Ġglas": 4685,
      "Ġfrukt": 4686,
      "undet": 4687,
      "ĠSankt": 4688,
      "ĠKap": 4689,
      "Ġleder": 4690,
      "Ġvunnit": 4691,
      "etts": 4692,
      "lic": 4693,
      "Ã¤nda": 4694,
      "last": 4695,
      "atik": 4696,
      "rbindel": 4697,
      "ĠPier": 4698,
      "lagt": 4699,
      "ĠfÃ¤lt": 4700,
      "Ġtolk": 4701,
      "ĠFr": 4702,
      "Ġgren": 4703,
      "ĠVen": 4704,
      "ouss": 4705,
      "Ġdator": 4706,
      "Ġposit": 4707,
      "Ġbry": 4708,
      "uts": 4709,
      "Ġstation": 4710,
      "ĠKa": 4711,
      "somrÃ¥de": 4712,
      "ĠSig": 4713,
      "une": 4714,
      "Ġturner": 4715,
      "ĠuppmÃ¤rksam": 4716,
      "ĠlÃ¥n": 4717,
      "reb": 4718,
      "Ġbal": 4719,
      "Ġarbeta": 4720,
      "ĠportrÃ¤tt": 4721,
      "ike": 4722,
      "Ġtryck": 4723,
      "verksamhet": 4724,
      "rlust": 4725,
      "ĠnÃ¤t": 4726,
      "iment": 4727,
      "RÃŃo": 4728,
      "ĠlÃ¤ns": 4729,
      "ension": 4730,
      "ĠEli": 4731,
      "ĠWales": 4732,
      "ĠinrÃ¤ttades": 4733,
      "ĠPeak": 4734,
      "Ġdennes": 4735,
      "Ġdryg": 4736,
      "asi": 4737,
      "flytt": 4738,
      "evo": 4739,
      "rekom": 4740,
      "Ã¤nder": 4741,
      "ĠAxel": 4742,
      "eteck": 4743,
      "avÃ¤xter": 4744,
      "Ġinformation": 4745,
      "jtnant": 4746,
      "itets": 4747,
      "ĠÃ¤gg": 4748,
      "El": 4749,
      "ĠJacob": 4750,
      "Ġbiart": 4751,
      "lyck": 4752,
      "uth": 4753,
      "skon": 4754,
      "Ġpapp": 4755,
      "Ãħ": 4756,
      "sÃ¤ttning": 4757,
      "rass": 4758,
      "Ġlokal": 4759,
      "Ġac": 4760,
      "Lep": 4761,
      "ĠansÃ¥gs": 4762,
      "Ġmac": 4763,
      "ĠSamma": 4764,
      "ĠÃ¤mbet": 4765,
      "Mar": 4766,
      "klag": 4767,
      "rÃ¥ket": 4768,
      "ĠTom": 4769,
      "ordon": 4770,
      "holmen": 4771,
      "ĠlÃ¤gg": 4772,
      "guld": 4773,
      "listan": 4774,
      "okus": 4775,
      "ĠCamp": 4776,
      "Ġkontakt": 4777,
      "Ġbyggnaden": 4778,
      "ĠZe": 4779,
      "lisab": 4780,
      "ĠAdministrativ": 4781,
      "ĠNederlÃ¤nderna": 4782,
      "ĠPan": 4783,
      "ĠpopulÃ¤r": 4784,
      "alist": 4785,
      "ĠBas": 4786,
      "ademien": 4787,
      "shÃ": 4788,
      "zer": 4789,
      "Ġtillkom": 4790,
      "rne": 4791,
      "amiljen": 4792,
      "stedt": 4793,
      "nder": 4794,
      "Ġinit": 4795,
      "unde": 4796,
      "ross": 4797,
      "nag": 4798,
      "anger": 4799,
      "ĠhÃ¥lla": 4800,
      "ĠvÃ¤rde": 4801,
      "musik": 4802,
      "borgs": 4803,
      "rbundslandet": 4804,
      "aten": 4805,
      "ĠmÃ¥lare": 4806,
      "ĠCast": 4807,
      "si": 4808,
      "oga": 4809,
      "Ġmarken": 4810,
      "auri": 4811,
      "Ġhistorik": 4812,
      "Ġuttryck": 4813,
      "Ã¤bb": 4814,
      "ĠJes": 4815,
      "rhÃ¥llande": 4816,
      "Ġitalienska": 4817,
      "Ġmoderna": 4818,
      "ĠÃħbo": 4819,
      "Ġtitel": 4820,
      "ĠOrd": 4821,
      "servator": 4822,
      "ĠTvÃ¥": 4823,
      "eslut": 4824,
      "Ġasteroid": 4825,
      "Ġprojekt": 4826,
      "uff": 4827,
      "Ġtagit": 4828,
      "inea": 4829,
      "ĠKyrkan": 4830,
      "ĠAlbumet": 4831,
      "lim": 4832,
      "ilen": 4833,
      "ulerade": 4834,
      "ĠstÃ¤der": 4835,
      "tland": 4836,
      "Ġvice": 4837,
      "Ã¤pp": 4838,
      "Ġsenaste": 4839,
      "Ġtel": 4840,
      "jon": 4841,
      "ĠHoll": 4842,
      "Ġlagen": 4843,
      "ĠLiban": 4844,
      "Ps": 4845,
      "Ġek": 4846,
      "ĠAires": 4847,
      "ocent": 4848,
      "do": 4849,
      "nÃ¤s": 4850,
      "ĠdirektÃ": 4851,
      "inne": 4852,
      "Ġyrk": 4853,
      "ĠNik": 4854,
      "ĠlÃ¤gre": 4855,
      "aner": 4856,
      "Ġhertig": 4857,
      "ĠvÃ¥ren": 4858,
      "adern": 4859,
      "ruktur": 4860,
      "ĠsÃ¥dan": 4861,
      "Ġarg": 4862,
      "ĠKalmar": 4863,
      "erus": 4864,
      "Ġskola": 4865,
      "Ġlivet": 4866,
      "ĠMagnus": 4867,
      "Ġflockblomm": 4868,
      "Ġexper": 4869,
      "Ġstab": 4870,
      "yrelsen": 4871,
      "itel": 4872,
      "Ġinrikt": 4873,
      "iderna": 4874,
      "Ġintroduc": 4875,
      "ĠdvÃ¤rgst": 4876,
      "anken": 4877,
      "Ġspelet": 4878,
      "ĠsÃ¤ndes": 4879,
      "ĠallmÃ¤nna": 4880,
      "Ġnaturreservat": 4881,
      "digt": 4882,
      "ĠBuenos": 4883,
      "ĠsvÃ¥rt": 4884,
      "ĠtÃ": 4885,
      "fan": 4886,
      "ĠBrand": 4887,
      "onis": 4888,
      "ĠAntarktis": 4889,
      "ĠRedan": 4890,
      "ific": 4891,
      "mÃ¤kt": 4892,
      "sby": 4893,
      "smÃ¥l": 4894,
      "ĠsÃ¤kerhet": 4895,
      "senterade": 4896,
      "win": 4897,
      "ĠNational": 4898,
      "ĠFlera": 4899,
      "Ġbit": 4900,
      "ids": 4901,
      "Ġunga": 4902,
      "Ã¸": 4903,
      "ĠtÃ¤vlingen": 4904,
      "iot": 4905,
      "ills": 4906,
      "Hyp": 4907,
      "ĠnÃ¤mn": 4908,
      "ĠdvÃ¤rgstritar": 4909,
      "Ġbrack": 4910,
      "kra": 4911,
      "ĠCentral": 4912,
      "ĠstrÃ": 4913,
      "Ġvarmt": 4914,
      "Ġhistoriska": 4915,
      "bott": 4916,
      "Ġdam": 4917,
      "sw": 4918,
      "ush": 4919,
      "ĠstÃ¤llde": 4920,
      "mera": 4921,
      "Ġorig": 4922,
      "Ġlong": 4923,
      "Ġalternat": 4924,
      "ĠRob": 4925,
      "ĠfÃ¤rdig": 4926,
      "Ġarean": 4927,
      "ĠLunds": 4928,
      "ĠBul": 4929,
      "On": 4930,
      "any": 4931,
      "ucc": 4932,
      "opus": 4933,
      "atis": 4934,
      "Pro": 4935,
      "ungen": 4936,
      "ppna": 4937,
      "ssk": 4938,
      "ryss": 4939,
      "Ġakade": 4940,
      "rypt": 4941,
      "stift": 4942,
      "ome": 4943,
      "Ġmisst": 4944,
      "ĠNu": 4945,
      "Ġto": 4946,
      "svampar": 4947,
      "rnst": 4948,
      "shire": 4949,
      "itionen": 4950,
      "antag": 4951,
      "yntaxa": 4952,
      "ĠDyntaxa": 4953,
      "sens": 4954,
      "ĠAss": 4955,
      "ĠPunta": 4956,
      "Ġanal": 4957,
      "ĠAc": 4958,
      "Ġsvenskt": 4959,
      "onym": 4960,
      "Ġframtid": 4961,
      "stone": 4962,
      "ĠerÃ": 4963,
      "run": 4964,
      "elska": 4965,
      "ĠÄ": 4966,
      "atch": 4967,
      "Ã¥rds": 4968,
      "ĠmÃ¥nad": 4969,
      "skriften": 4970,
      "ĠVin": 4971,
      "byggnaden": 4972,
      "ĠGeografi": 4973,
      "Ġintresse": 4974,
      "Ġfel": 4975,
      "Ġpunkt": 4976,
      "rÃ¤dde": 4977,
      "Ġriksdagen": 4978,
      "svenskan": 4979,
      "entligen": 4980,
      "Ġeuropeiska": 4981,
      "Ġka": 4982,
      "ĠMatt": 4983,
      "ĠBorg": 4984,
      "Ġstrid": 4985,
      "ĠTjeck": 4986,
      "ĠEU": 4987,
      "Sven": 4988,
      "ĠKen": 4989,
      "ĠDivision": 4990,
      "urs": 4991,
      "ĠframtrÃ¤d": 4992,
      "Ġtidiga": 4993,
      "roph": 4994,
      "Ġverkade": 4995,
      "Ġveckor": 4996,
      "Ġseri": 4997,
      "agt": 4998,
      "illo": 4999,
      "ee": 5000,
      "Ġbracksteklar": 5001,
      "Ġstudio": 5002,
      "Ġtra": 5003,
      "Ġuppfatt": 5004,
      "Ġting": 5005,
      "Ġjournalist": 5006,
      "Ġutvecklades": 5007,
      "ĠGl": 5008,
      "Ġslutligen": 5009,
      "Ġkommuner": 5010,
      "ise": 5011,
      "ekan": 5012,
      "avÃ¤xtart": 5013,
      "Ġsign": 5014,
      "ston": 5015,
      "ĠNic": 5016,
      "vand": 5017,
      "onien": 5018,
      "ogon": 5019,
      "gress": 5020,
      "ĠAp": 5021,
      "Ġmode": 5022,
      "Ġide": 5023,
      "ĠStrÃ": 5024,
      "risk": 5025,
      "Ġprocess": 5026,
      "Ġskepp": 5027,
      "field": 5028,
      "ĠJohansson": 5029,
      "ĠSul": 5030,
      "ĠmedfÃ": 5031,
      "Ġsist": 5032,
      "ĠersÃ¤tt": 5033,
      "Ġbygger": 5034,
      "ĠGrupp": 5035,
      "ĠlÃ¤mna": 5036,
      "istisk": 5037,
      "alc": 5038,
      "kraft": 5039,
      "bord": 5040,
      "oris": 5041,
      "Ġskapade": 5042,
      "Ġlevde": 5043,
      "ĠbÃ¤st": 5044,
      "ÃŃn": 5045,
      "Ġindivider": 5046,
      "Ġbank": 5047,
      "ĠMur": 5048,
      "ĠavgÃ": 5049,
      "ĠStor": 5050,
      "Ġhe": 5051,
      "ĠMargar": 5052,
      "Ġantingen": 5053,
      "ĠpÃ¥trÃ¤ff": 5054,
      "ĠRÃŃo": 5055,
      "ĠPl": 5056,
      "estern": 5057,
      "uca": 5058,
      "Ġorganisation": 5059,
      "ils": 5060,
      "astighet": 5061,
      "Ġdiameter": 5062,
      "marna": 5063,
      "ĠSamtid": 5064,
      "Ġdivision": 5065,
      "Ġskriva": 5066,
      "Ġblom": 5067,
      "ĠKÃ¤ll": 5068,
      "ilia": 5069,
      "Ġdemokrat": 5070,
      "Ġigenom": 5071,
      "ĠLappland": 5072,
      "Ġvetenskapliga": 5073,
      "ĠvÃ¥ld": 5074,
      "ĠLas": 5075,
      "ĠMu": 5076,
      "Ġspanska": 5077,
      "ovis": 5078,
      "ĠfÃ¤st": 5079,
      "Ġfinska": 5080,
      "forsk": 5081,
      "ĠJÃ¤rn": 5082,
      "Ġsatt": 5083,
      "ĠTekn": 5084,
      "ĠInternational": 5085,
      "ningsm": 5086,
      "ĠSV": 5087,
      "ĠslÃ¤ppte": 5088,
      "Ġskiljer": 5089,
      "bud": 5090,
      "Ġpot": 5091,
      "bach": 5092,
      "Ġmanus": 5093,
      "Ġgrad": 5094,
      "Ġx": 5095,
      "ĠChamp": 5096,
      "ĠAlfred": 5097,
      "ruz": 5098,
      "ĠAten": 5099,
      "Ġjakt": 5100,
      "Ġsteg": 5101,
      "rvÃ¤r": 5102,
      "ĠKu": 5103,
      "ĠSaraj": 5104,
      "ĠRen": 5105,
      "ower": 5106,
      "Ġrevolut": 5107,
      "Ã¤nnen": 5108,
      "Ġbeskrivs": 5109,
      "ĠHeinrich": 5110,
      "ĠfrÃ¥gor": 5111,
      "Ġverksamheten": 5112,
      "tte": 5113,
      "olin": 5114,
      "ares": 5115,
      "ĠOscar": 5116,
      "eda": 5117,
      "nkÃ": 5118,
      "Ġbetydande": 5119,
      "Ġdy": 5120,
      "ĠSkott": 5121,
      "Ã¤dda": 5122,
      "Ġunderarten": 5123,
      "Ġprov": 5124,
      "ĠbefÃ¤l": 5125,
      "ava": 5126,
      "ĠtjÃ¤nstgjorde": 5127,
      "Ġtack": 5128,
      "ĠJÃ¤mt": 5129,
      "ein": 5130,
      "Ġdrygt": 5131,
      "ĠSarajevo": 5132,
      "Ġensam": 5133,
      "ĠnivÃ¥": 5134,
      "ugo": 5135,
      "Ġbefolkningen": 5136,
      "Ġfriidrott": 5137,
      "cel": 5138,
      "edag": 5139,
      "Ġensk": 5140,
      "ĠTra": 5141,
      "akes": 5142,
      "ĠRid": 5143,
      "ĠNilsson": 5144,
      "gu": 5145,
      "entlig": 5146,
      "ĠLitt": 5147,
      "lov": 5148,
      "Ã¤rare": 5149,
      "Ġviktigaste": 5150,
      "ĠOr": 5151,
      "Ã¯n": 5152,
      "ĠBarat": 5153,
      "Ġkull": 5154,
      "Ġbrand": 5155,
      "mon": 5156,
      "spelet": 5157,
      "ĠRuisseau": 5158,
      "kel": 5159,
      "ĠElisab": 5160,
      "ĠfolkrÃ¤": 5161,
      "Ã¤nneteck": 5162,
      "Ġbaserad": 5163,
      "abit": 5164,
      "ĠRoy": 5165,
      "ĠVis": 5166,
      "Ġtvingades": 5167,
      "Ġavlade": 5168,
      "uellt": 5169,
      "ĠÃ¥ng": 5170,
      "ques": 5171,
      "Mel": 5172,
      "cer": 5173,
      "skomm": 5174,
      "Ġflygplats": 5175,
      "ĠGi": 5176,
      "alism": 5177,
      "Ġkraftigt": 5178,
      "ĠKroat": 5179,
      "unnits": 5180,
      "ĠFÃ¤r": 5181,
      "ĠgÃ¥rden": 5182,
      "ĠHot": 5183,
      "ĠifrÃ¥n": 5184,
      "iÄĩ": 5185,
      "enta": 5186,
      "rollen": 5187,
      "Ġdagens": 5188,
      "ĠupprÃ¤tt": 5189,
      "fÃ¤rg": 5190,
      "Ġsport": 5191,
      "eus": 5192,
      "ĠNo": 5193,
      "hur": 5194,
      "Ġtyd": 5195,
      "ĠTot": 5196,
      "fÃ¤rd": 5197,
      "Ġbyggde": 5198,
      "Ġinspir": 5199,
      "Ġtor": 5200,
      "Ġklipp": 5201,
      "Ġret": 5202,
      "ĠDes": 5203,
      "ylla": 5204,
      "ender": 5205,
      "ates": 5206,
      "po": 5207,
      "ĠQueens": 5208,
      "ygd": 5209,
      "ĠTengah": 5210,
      "Ġgymnas": 5211,
      "jÃ¤ll": 5212,
      "alar": 5213,
      "Ġstraff": 5214,
      "Ġbladmoss": 5215,
      "skol": 5216,
      "ĠNorrkÃ": 5217,
      "Ġkvinnliga": 5218,
      "Is": 5219,
      "indra": 5220,
      "stiden": 5221,
      "Ġorten": 5222,
      "vakt": 5223,
      "ĠSel": 5224,
      "ersk": 5225,
      "Ġprofessionell": 5226,
      "Ġinledde": 5227,
      "edermera": 5228,
      "iteter": 5229,
      "Ġsvarta": 5230,
      "Ut": 5231,
      "ĠRef": 5232,
      "Ġsyfte": 5233,
      "Ġuppgift": 5234,
      "Ġpengar": 5235,
      "ude": 5236,
      "atformen": 5237,
      "ynch": 5238,
      "ĠSamtidigt": 5239,
      "gÃ¥ende": 5240,
      "vetenskap": 5241,
      "Ġkomposit": 5242,
      "ĠprÃ¤g": 5243,
      "Ġmisslyck": 5244,
      "insk": 5245,
      "svall": 5246,
      "ĠGa": 5247,
      "Ġminuter": 5248,
      "ĠBal": 5249,
      "Ġkvarter": 5250,
      "Ġbibliotek": 5251,
      "ĠGran": 5252,
      "ismen": 5253,
      "ativa": 5254,
      "ĠtÃ¤tt": 5255,
      "Ġdrottning": 5256,
      "kyrka": 5257,
      "Ġhette": 5258,
      "grÃ¤": 5259,
      "ionens": 5260,
      "Ġkallat": 5261,
      "ĠUme": 5262,
      "ĠExempel": 5263,
      "ĠSÃ¤songen": 5264,
      "ellen": 5265,
      "Ġfigur": 5266,
      "steg": 5267,
      "mast": 5268,
      "ĠId": 5269,
      "ĠFa": 5270,
      "blom": 5271,
      "ĠdÃ¤ribland": 5272,
      "rband": 5273,
      "sburg": 5274,
      "ikation": 5275,
      "gskola": 5276,
      "delar": 5277,
      "Ġrel": 5278,
      "ĠBelg": 5279,
      "ĠWorld": 5280,
      "ĠkrÃ": 5281,
      "Ġkonstrukt": 5282,
      "isch": 5283,
      "rÃ¤ff": 5284,
      "station": 5285,
      "rts": 5286,
      "useet": 5287,
      "korea": 5288,
      "Ġmand": 5289,
      "Ġkritik": 5290,
      "ĠKarriÃ¤r": 5291,
      "ĠmÃ¤rks": 5292,
      "Ġnominatformen": 5293,
      "sbl": 5294,
      "ule": 5295,
      "Ġhemma": 5296,
      "etten": 5297,
      "ĠÃ¤ndÃ¥": 5298,
      "Ġperioden": 5299,
      "ĠbestÃ¥ende": 5300,
      "ĠnÃ¤rmaste": 5301,
      "Ã¥rs": 5302,
      "Ġinget": 5303,
      "Ġguvernementet": 5304,
      "Ġtest": 5305,
      "ĠPlan": 5306,
      "Ã¤staren": 5307,
      "manland": 5308,
      "Ġorgan": 5309,
      "ĠtillfÃ": 5310,
      "ĠLid": 5311,
      "yri": 5312,
      "Ġtrum": 5313,
      "Ġfloden": 5314,
      "ĠsÃ¥ngare": 5315,
      "Eup": 5316,
      "ĠWalker": 5317,
      "Ġfyr": 5318,
      "alia": 5319,
      "Ġterrit": 5320,
      "ĠgÃ¥tt": 5321,
      "ĠsÃ¥lde": 5322,
      "Met": 5323,
      "vens": 5324,
      "ĠBoh": 5325,
      "orget": 5326,
      "Ġutn": 5327,
      "Ġadel": 5328,
      "ĠOrten": 5329,
      "ĠOrg": 5330,
      "Ġena": 5331,
      "ĠBoli": 5332,
      "ĠEM": 5333,
      "Ġskrift": 5334,
      "Ġdagen": 5335,
      "Ġomfattade": 5336,
      "rob": 5337,
      "Ã¤vle": 5338,
      "Ġstann": 5339,
      "ĠCup": 5340,
      "ĠSn": 5341,
      "iÃ¨re": 5342,
      "lubb": 5343,
      "ĠAngeles": 5344,
      "uvel": 5345,
      "ĠOu": 5346,
      "rÃ¤ldrar": 5347,
      "Ġfokus": 5348,
      "Ġfemte": 5349,
      "Ġmatemat": 5350,
      "berget": 5351,
      "ĠPot": 5352,
      "Ġrollen": 5353,
      "ĠstjÃ¤r": 5354,
      "ĠAI": 5355,
      "ĠCas": 5356,
      "idi": 5357,
      "ĠFort": 5358,
      "ĠHem": 5359,
      "ĠBuk": 5360,
      "Ġev": 5361,
      "Ġresa": 5362,
      "ĠDar": 5363,
      "bor": 5364,
      "hÃ¤ng": 5365,
      "rall": 5366,
      "Ġtyper": 5367,
      "Ġrepresenterad": 5368,
      "ĠreligiÃ": 5369,
      "rens": 5370,
      "inav": 5371,
      "ingo": 5372,
      "Kat": 5373,
      "VM": 5374,
      "azz": 5375,
      "Ġmeddelade": 5376,
      "ningss": 5377,
      "ifolia": 5378,
      "ĠDa": 5379,
      "Ġstaten": 5380,
      "ĠPri": 5381,
      "ĠvÃ¤rd": 5382,
      "stÃ¥ndet": 5383,
      "Ġallra": 5384,
      "nik": 5385,
      "vergick": 5386,
      "ĠLab": 5387,
      "Ġindivid": 5388,
      "Ġkvinna": 5389,
      "ĠDam": 5390,
      "Ġfilosofie": 5391,
      "bit": 5392,
      "Ġkem": 5393,
      "Ġinklusive": 5394,
      "Ġfest": 5395,
      "ĠVerk": 5396,
      "lande": 5397,
      "rup": 5398,
      "alific": 5399,
      "Meg": 5400,
      "ĠEur": 5401,
      "ange": 5402,
      "Ġacc": 5403,
      "ĠAfrika": 5404,
      "Ġregist": 5405,
      "sons": 5406,
      "dan": 5407,
      "ligaste": 5408,
      "Ġkar": 5409,
      "uga": 5410,
      "itch": 5411,
      "ĠVissa": 5412,
      "ĠtillstÃ¥nd": 5413,
      "ĠÃ¥terfin": 5414,
      "Ġfotograf": 5415,
      "Mon": 5416,
      "rmÃ¥ga": 5417,
      "Ġsade": 5418,
      "ophora": 5419,
      "osus": 5420,
      "yth": 5421,
      "Ca": 5422,
      "bring": 5423,
      "ĠModer": 5424,
      "Ġfyl": 5425,
      "Ġpil": 5426,
      "dera": 5427,
      "gÃ¥ngar": 5428,
      "ĠlÃ¤kare": 5429,
      "ĠSuper": 5430,
      "Phyll": 5431,
      "ĠvarfÃ": 5432,
      "row": 5433,
      "Ġanfall": 5434,
      "Ġutrikes": 5435,
      "flÃ": 5436,
      "medal": 5437,
      "abal": 5438,
      "ĠKron": 5439,
      "ĠstÃ¤m": 5440,
      "Ġnational": 5441,
      "kningen": 5442,
      "rock": 5443,
      "ĠMiss": 5444,
      "anes": 5445,
      "Ġkrav": 5446,
      "slo": 5447,
      "verg": 5448,
      "Ġbildar": 5449,
      "ĠanvÃ¤nts": 5450,
      "slagen": 5451,
      "delsen": 5452,
      "ĠNHL": 5453,
      "Ã¥geln": 5454,
      "ĠTour": 5455,
      "Ġofficiella": 5456,
      "Ġvide": 5457,
      "ĠPen": 5458,
      "domen": 5459,
      "ĠOper": 5460,
      "ĠsÃ¥dana": 5461,
      "rja": 5462,
      "ĠNi": 5463,
      "cy": 5464,
      "odor": 5465,
      "strand": 5466,
      "ĠÃ¤nda": 5467,
      "ĠRecords": 5468,
      "ypten": 5469,
      "talen": 5470,
      "cht": 5471,
      "idium": 5472,
      "Ġarbetet": 5473,
      "ĠArk": 5474,
      "Ġmusiker": 5475,
      "mo": 5476,
      "Ġspelas": 5477,
      "latsen": 5478,
      "ĠBon": 5479,
      "ollar": 5480,
      "Ġordet": 5481,
      "ĠBengt": 5482,
      "ĠUtseende": 5483,
      "sterrik": 5484,
      "Ġskil": 5485,
      "ĠfinlÃ¤ndsk": 5486,
      "ĠSydney": 5487,
      "apnet": 5488,
      "Ġdisp": 5489,
      "Ġtom": 5490,
      "arv": 5491,
      "sida": 5492,
      "Ġutred": 5493,
      "inister": 5494,
      "opa": 5495,
      "Ġextra": 5496,
      "aliska": 5497,
      "aken": 5498,
      "ĠEgypten": 5499,
      "Ġutgav": 5500,
      "ĠLinn": 5501,
      "mdes": 5502,
      "oceph": 5503,
      "gra": 5504,
      "ĠSi": 5505,
      "ji": 5506,
      "uma": 5507,
      "Ġstar": 5508,
      "schef": 5509,
      "acker": 5510,
      "ĠLudwig": 5511,
      "Ġimp": 5512,
      "ison": 5513,
      "ĠÃ¤gare": 5514,
      "ĠSVT": 5515,
      "givare": 5516,
      "versÃ¤ttning": 5517,
      "elen": 5518,
      "ischer": 5519,
      "rang": 5520,
      "ĠGÃ¤vle": 5521,
      "Ex": 5522,
      "ĠLibanon": 5523,
      "Co": 5524,
      "Lept": 5525,
      "ĠutmÃ¤rk": 5526,
      "ĠBir": 5527,
      "arbetare": 5528,
      "ĠregissÃ": 5529,
      "Ġkommunal": 5530,
      "Ġdoms": 5531,
      "ĠvÃ¤rldsm": 5532,
      "Ã¤ger": 5533,
      "Ġban": 5534,
      "handel": 5535,
      "lÃ¤ktet": 5536,
      "ierade": 5537,
      "Ġlav": 5538,
      "esh": 5539,
      "atÃ": 5540,
      "eds": 5541,
      "gas": 5542,
      "ĠrÃ¤dd": 5543,
      "annoli": 5544,
      "ĠGunnar": 5545,
      "dam": 5546,
      "vo": 5547,
      "ĠBell": 5548,
      "rerade": 5549,
      "ĠGrande": 5550,
      "Ġinflytande": 5551,
      "Ġdenne": 5552,
      "olt": 5553,
      "Ġutspel": 5554,
      "andinav": 5555,
      "Ġkanske": 5556,
      "otta": 5557,
      "Ġvinna": 5558,
      "Ġjul": 5559,
      "ĠsÃ¤ger": 5560,
      "serie": 5561,
      "emon": 5562,
      "ĠFinlands": 5563,
      "fabrik": 5564,
      "Ġdit": 5565,
      "Trich": 5566,
      "ĠkÃ¤rlek": 5567,
      "bryt": 5568,
      "aliser": 5569,
      "ruc": 5570,
      "Ġtank": 5571,
      "Ġprim": 5572,
      "Ġutgjorde": 5573,
      "lus": 5574,
      "Ġpolitik": 5575,
      "Ã¥ring": 5576,
      "yrs": 5577,
      "arens": 5578,
      "skrona": 5579,
      "liggande": 5580,
      "Ġallvar": 5581,
      "Ġprogrammet": 5582,
      "vika": 5583,
      "ĠvÃ¤ldigt": 5584,
      "ĠTall": 5585,
      "enden": 5586,
      "rlÃ¤ng": 5587,
      "Ġundantag": 5588,
      "Ã¤tte": 5589,
      "Ġskapades": 5590,
      "ĠfÃ¤ngelse": 5591,
      "ĠhÃ¥rd": 5592,
      "onsin": 5593,
      "ĠGen": 5594,
      "Sten": 5595,
      "Ġuppkallad": 5596,
      "Ġroller": 5597,
      "oi": 5598,
      "Ġfru": 5599,
      "Ġmod": 5600,
      "Ġpseud": 5601,
      "yer": 5602,
      "odon": 5603,
      "ĠlÃ¤net": 5604,
      "ligheten": 5605,
      "inerna": 5606,
      "Ġvarierar": 5607,
      "vinsen": 5608,
      "Ġbladmossart": 5609,
      "ĠUngern": 5610,
      "ĠRas": 5611,
      "ĠinnehÃ¥ll": 5612,
      "ĠErnst": 5613,
      "ryckt": 5614,
      "Ġdelarna": 5615,
      "ĠUmeÃ¥": 5616,
      "Ġmenar": 5617,
      "Ġbakgrund": 5618,
      "ĠStefan": 5619,
      "vades": 5620,
      "ĠSkottland": 5621,
      "Ġgall": 5622,
      "igheterna": 5623,
      "arth": 5624,
      "Ġmotsvarar": 5625,
      "ĠanstÃ¤llda": 5626,
      "uten": 5627,
      "nd": 5628,
      "kÃ¤nd": 5629,
      "Ġext": 5630,
      "jlighet": 5631,
      "Ġeld": 5632,
      "ĠSo": 5633,
      "Ġillust": 5634,
      "vard": 5635,
      "Ġarbets": 5636,
      "Ġpresenter": 5637,
      "ĠPu": 5638,
      "ĠÃ¥terfinns": 5639,
      "ĠDep": 5640,
      "opt": 5641,
      "ĠOb": 5642,
      "amÃ": 5643,
      "ĠÃĸstra": 5644,
      "Ġheder": 5645,
      "ĠSing": 5646,
      "olska": 5647,
      "Ġklart": 5648,
      "allen": 5649,
      "ĠÃ¤ktenskap": 5650,
      "Ġackum": 5651,
      "ustrin": 5652,
      "fÃ¥glar": 5653,
      "Ġaustra": 5654,
      "Ġwadi": 5655,
      "ĠguvernÃ": 5656,
      "ati": 5657,
      "Ġmoss": 5658,
      "ingart": 5659,
      "lÃ¤ggning": 5660,
      "kast": 5661,
      "Ġcyk": 5662,
      "Ġmun": 5663,
      "olitik": 5664,
      "Ġfack": 5665,
      "Ġback": 5666,
      "Ġnationella": 5667,
      "olis": 5668,
      "phaer": 5669,
      "ĠsnÃ¤ck": 5670,
      "Ġjorden": 5671,
      "yla": 5672,
      "omma": 5673,
      "ellet": 5674,
      "ĠdrÃ": 5675,
      "Ġexist": 5676,
      "Ġqu": 5677,
      "Ġinitiat": 5678,
      "daf": 5679,
      "Ġentiteten": 5680,
      "Ġsaknar": 5681,
      "ĠFrÃ": 5682,
      "ĠhÃ¥ller": 5683,
      "Ġverkar": 5684,
      "malm": 5685,
      "ĠmÃ¤nsk": 5686,
      "ĠDjebel": 5687,
      "ĠFreder": 5688,
      "meric": 5689,
      "ĠidÃ©": 5690,
      "orsÃ¤ck": 5691,
      "Ġjuvel": 5692,
      "Ġstycken": 5693,
      "gh": 5694,
      "Ã¤kare": 5695,
      "rr": 5696,
      "ĠsporsÃ¤ck": 5697,
      "Ġbon": 5698,
      "Ġbehov": 5699,
      "Ġmult": 5700,
      "Ġkejs": 5701,
      "Ġskid": 5702,
      "rkort": 5703,
      "Ã´": 5704,
      "sex": 5705,
      "ĠingenjÃ": 5706,
      "ĠÃī": 5707,
      "lle": 5708,
      "ote": 5709,
      "sport": 5710,
      "pan": 5711,
      "ĠMars": 5712,
      "skaff": 5713,
      "hark": 5714,
      "stre": 5715,
      "arc": 5716,
      "ĠKroatien": 5717,
      "ĠCom": 5718,
      "Ġfunnits": 5719,
      "Ġmatchen": 5720,
      "ĠSÃ¥": 5721,
      "uda": 5722,
      "Ġvalkrets": 5723,
      "Ġkyrkog": 5724,
      "Äģl": 5725,
      "rÃ¤kt": 5726,
      "Ġtu": 5727,
      "ophyllum": 5728,
      "Ġegentligen": 5729,
      "ĠsporsÃ¤cksvampar": 5730,
      "ĠDem": 5731,
      "bu": 5732,
      "Ġvet": 5733,
      "Ġsats": 5734,
      "lÃ¤g": 5735,
      "ĠCal": 5736,
      "elin": 5737,
      "ĠÃģ": 5738,
      "ĠStatus": 5739,
      "fartyg": 5740,
      "irektÃ": 5741,
      "Ġkamm": 5742,
      "rsÃ¤k": 5743,
      "Ġriv": 5744,
      "nland": 5745,
      "Ġpal": 5746,
      "elÃ": 5747,
      "rÃ¤ft": 5748,
      "ĠAnn": 5749,
      "ĠComp": 5750,
      "Ġrov": 5751,
      "jo": 5752,
      "ĠQueensland": 5753,
      "Ġmedborg": 5754,
      "TV": 5755,
      "sattes": 5756,
      "lista": 5757,
      "kande": 5758,
      "Ã°": 5759,
      "Ġmyn": 5760,
      "ĠHav": 5761,
      "Ġpian": 5762,
      "ads": 5763,
      "fiskar": 5764,
      "Ġske": 5765,
      "urn": 5766,
      "ĠhÃ¤rst": 5767,
      "ningens": 5768,
      "ums": 5769,
      "ĠvÃ¥r": 5770,
      "Ã¤sterskapen": 5771,
      "ĠSu": 5772,
      "skrifter": 5773,
      "rod": 5774,
      "ellersta": 5775,
      "Ġsan": 5776,
      "Ġstorlek": 5777,
      "feld": 5778,
      "linjen": 5779,
      "Ġviktiga": 5780,
      "Ġstadsdelen": 5781,
      "rp": 5782,
      "ĠLÃ¥ng": 5783,
      "Ġpublicerades": 5784,
      "Ġarbetat": 5785,
      "verlev": 5786,
      "namnet": 5787,
      "aea": 5788,
      "ĠPalm": 5789,
      "eps": 5790,
      "Ġuppgifter": 5791,
      "ĠJosÃ©": 5792,
      "Det": 5793,
      "Ġaut": 5794,
      "ĠnÃ¤sta": 5795,
      "Ġwebb": 5796,
      "ĠSovjetunionen": 5797,
      "Ġges": 5798,
      "ĠKir": 5799,
      "sky": 5800,
      "Plat": 5801,
      "ĠRh": 5802,
      "Ġtand": 5803,
      "Ġop": 5804,
      "Ġvisa": 5805,
      "Ġskjut": 5806,
      "ĠJakob": 5807,
      "Ġfinal": 5808,
      "Ã¥riga": 5809,
      "FÃ": 5810,
      "ĠLor": 5811,
      "Ġstandard": 5812,
      "Ġram": 5813,
      "Ġresul": 5814,
      "Ġcivil": 5815,
      "ĠDomin": 5816,
      "ĠdÃ¤remot": 5817,
      "ĠsvÃ¥r": 5818,
      "ĠVÃ¤x": 5819,
      "lans": 5820,
      "Ġsociala": 5821,
      "oe": 5822,
      "asin": 5823,
      "kh": 5824,
      "Ġradio": 5825,
      "ĠmilitÃ¤ra": 5826,
      "Eu": 5827,
      "umen": 5828,
      "Ġlivsm": 5829,
      "ipes": 5830,
      "Ġledande": 5831,
      "rÃ¤tten": 5832,
      "resl": 5833,
      "ĠSong": 5834,
      "stÃ¤llande": 5835,
      "unds": 5836,
      "Ste": 5837,
      "ĠuppmÃ¤rksamm": 5838,
      "Ġringmaskart": 5839,
      "mÃ¤ktige": 5840,
      "Con": 5841,
      "Ou": 5842,
      "ĠFeder": 5843,
      "ĠbedÃ": 5844,
      "Ġutform": 5845,
      "ppnade": 5846,
      "former": 5847,
      "ĠMy": 5848,
      "Ã¤ven": 5849,
      "Ġupphov": 5850,
      "Ġknapp": 5851,
      "rena": 5852,
      "Ġpress": 5853,
      "Ġsedermera": 5854,
      "mun": 5855,
      "ĠKor": 5856,
      "ologisk": 5857,
      "Em": 5858,
      "vikt": 5859,
      "Ġkam": 5860,
      "ĠSab": 5861,
      "imb": 5862,
      "ĠtillgÃ¤ng": 5863,
      "iform": 5864,
      "Ġavg": 5865,
      "dda": 5866,
      "Ġresten": 5867,
      "ĠInstitut": 5868,
      "ĠBakgrund": 5869,
      "ledning": 5870,
      "Ple": 5871,
      "Ġdubbel": 5872,
      "zi": 5873,
      "icer": 5874,
      "ulla": 5875,
      "Ġjapansk": 5876,
      "ĠJord": 5877,
      "ĠBolivia": 5878,
      "Ġackumulerade": 5879,
      "ĠHammar": 5880,
      "Ġvist": 5881,
      "Ġgods": 5882,
      "ĠbÃ¥t": 5883,
      "Ġsitter": 5884,
      "iftet": 5885,
      "Ã¥ra": 5886,
      "Ġskogs": 5887,
      "ĠPrades": 5888,
      "rost": 5889,
      "ĠRap": 5890,
      "Ġflav": 5891,
      "Ġbev": 5892,
      "enia": 5893,
      "ĠSil": 5894,
      "ĠÃĸstergÃ": 5895,
      "ĠNova": 5896,
      "stjÃ¤r": 5897,
      "Ġtolv": 5898,
      "iket": 5899,
      "Ġsal": 5900,
      "skottet": 5901,
      "Ġkra": 5902,
      "ĠOlymp": 5903,
      "ĠMonte": 5904,
      "ĠsÃ¥r": 5905,
      "ĠGlac": 5906,
      "ĠtrÃ¤nare": 5907,
      "storp": 5908,
      "Camp": 5909,
      "uro": 5910,
      "ĠPierre": 5911,
      "ĠHag": 5912,
      "ialist": 5913,
      "otte": 5914,
      "ĠMÃ¼n": 5915,
      "ĠVÃ¤sterÃ¥s": 5916,
      "Sh": 5917,
      "innan": 5918,
      "otia": 5919,
      "harkran": 5920,
      "eira": 5921,
      "arin": 5922,
      "ĠsnÃ": 5923,
      "Ġpublicerade": 5924,
      "ĠmÃ¤stare": 5925,
      "ĠLik": 5926,
      "ĠByggnaden": 5927,
      "eff": 5928,
      "ĠgÃ¤r": 5929,
      "egori": 5930,
      "ĠRegion": 5931,
      "ĠVasa": 5932,
      "ekreterare": 5933,
      "Ġtekniska": 5934,
      "bron": 5935,
      "Ġkompl": 5936,
      "ĠmÃ¥ngfot": 5937,
      "Ġinre": 5938,
      "oher": 5939,
      "Ġkontin": 5940,
      "Heter": 5941,
      "ĠEll": 5942,
      "Ġinn": 5943,
      "stÃ¤lldes": 5944,
      "icum": 5945,
      "ĠPradesh": 5946,
      "harkrankar": 5947,
      "Ġorm": 5948,
      "ĠsÃ¥nger": 5949,
      "Ġavslutade": 5950,
      "NA": 5951,
      "Ġpublik": 5952,
      "ternet": 5953,
      "Ġstav": 5954,
      "redik": 5955,
      "Ġjurid": 5956,
      "iji": 5957,
      "Ġbud": 5958,
      "rof": 5959,
      "ĠEuropeiska": 5960,
      "ĠDock": 5961,
      "Ġprecis": 5962,
      "ĠTo": 5963,
      "nam": 5964,
      "Å¾": 5965,
      "ĠLjung": 5966,
      "ussen": 5967,
      "alle": 5968,
      "beck": 5969,
      "ornis": 5970,
      "acc": 5971,
      "ĠslÃ¤kten": 5972,
      "Ġordin": 5973,
      "Ġbevis": 5974,
      "ĠOslo": 5975,
      "edda": 5976,
      "ĠtÃ¤ckt": 5977,
      "ĠColl": 5978,
      "Ġkolon": 5979,
      "Ġsprid": 5980,
      "rien": 5981,
      "chi": 5982,
      "Ġkapten": 5983,
      "Hem": 5984,
      "ĠIg": 5985,
      "ĠAli": 5986,
      "Ġcentimeter": 5987,
      "ĠLinnÃ©": 5988,
      "ĠPrin": 5989,
      "ingarna": 5990,
      "Ġmagn": 5991,
      "ĠHor": 5992,
      "ase": 5993,
      "mid": 5994,
      "Ġfur": 5995,
      "Ġfyll": 5996,
      "Ġregel": 5997,
      "Ġsemif": 5998,
      "Ġbut": 5999,
      "ĠBrow": 6000,
      "Ã³rre": 6001,
      "Ġpen": 6002,
      "Ġdipl": 6003,
      "antarktis": 6004,
      "Ġkompon": 6005,
      "urner": 6006,
      "ĠSkÃ": 6007,
      "ĠLarsson": 6008,
      "Ġvanligtvis": 6009,
      "ĠsÃ¤l": 6010,
      "Ġtrans": 6011,
      "ope": 6012,
      "Ġradi": 6013,
      "tekn": 6014,
      "ĠAustralia": 6015,
      "system": 6016,
      "ĠAdam": 6017,
      "Ġlatin": 6018,
      "ĠTri": 6019,
      "gÃ¤r": 6020,
      "Ġkart": 6021,
      "ulau": 6022,
      "rnsp": 6023,
      "rov": 6024,
      "ĠnÃ¤rmare": 6025,
      "bandet": 6026,
      "ĠTar": 6027,
      "osia": 6028,
      "ĠMas": 6029,
      "folk": 6030,
      "stades": 6031,
      "ther": 6032,
      "bottens": 6033,
      "ĠhÃ¤ng": 6034,
      "mannen": 6035,
      "pet": 6036,
      "rast": 6037,
      "Ã³rrego": 6038,
      "Ġsitu": 6039,
      "Ġreste": 6040,
      "ĠSanto": 6041,
      "Ġstudioalbum": 6042,
      "Ġdramat": 6043,
      "Ġhamnade": 6044,
      "ĠfjÃ¤der": 6045,
      "Ġvare": 6046,
      "ĠRod": 6047,
      "Ġpoj": 6048,
      "Ġnam": 6049,
      "rnspinnare": 6050,
      "ĠIrland": 6051,
      "ĠstÃ¤ng": 6052,
      "Ġolj": 6053,
      "ĠDub": 6054,
      "Ġtros": 6055,
      "Gu": 6056,
      "mda": 6057,
      "ĠKer": 6058,
      "Ġregemente": 6059,
      "ĠÃ¥terigen": 6060,
      "ĠvÃ¥rd": 6061,
      "otyp": 6062,
      "Ġoffentliga": 6063,
      "Ġhuvudb": 6064,
      "dinand": 6065,
      "Ġanpass": 6066,
      "rf": 6067,
      "Ġvind": 6068,
      "ĠsÃ¤nd": 6069,
      "laren": 6070,
      "board": 6071,
      "back": 6072,
      "kningar": 6073,
      "ĠstÃ¤llning": 6074,
      "Ġreserv": 6075,
      "amma": 6076,
      "vÃ¥rd": 6077,
      "Ġutkom": 6078,
      "verst": 6079,
      "ssÃ¤tt": 6080,
      "ĠGlacier": 6081,
      "ultatet": 6082,
      "vatten": 6083,
      "Ġofficiellt": 6084,
      "Ġskild": 6085,
      "ingenjÃ": 6086,
      "ĠTi": 6087,
      "Arroyo": 6088,
      "ĠLago": 6089,
      "Ġitaliensk": 6090,
      "ĠlÃ¤gger": 6091,
      "arder": 6092,
      "ĠPrag": 6093,
      "Ġelever": 6094,
      "Ġhy": 6095,
      "Ġjuvelvingar": 6096,
      "Ġole": 6097,
      "Ġlager": 6098,
      "Ġsovjet": 6099,
      "unden": 6100,
      "server": 6101,
      "Ġheller": 6102,
      "otes": 6103,
      "Ġbetydligt": 6104,
      "jar": 6105,
      "Ġth": 6106,
      "ĠBert": 6107,
      "Ġgiv": 6108,
      "ĠIran": 6109,
      "Ġrevs": 6110,
      "Ġlandst": 6111,
      "yle": 6112,
      "Ġrun": 6113,
      "delningen": 6114,
      "orin": 6115,
      "Ġspeciellt": 6116,
      "ĠanstÃ¤lld": 6117,
      "ĠBarn": 6118,
      "Ġhuvudstad": 6119,
      "Ġassist": 6120,
      "ĠSimon": 6121,
      "ĠfjÃ¤rilar": 6122,
      "ĠÃ¤mnen": 6123,
      "ĠLaguna": 6124,
      "ĠAward": 6125,
      "olont": 6126,
      "ĠIK": 6127,
      "ilja": 6128,
      "Ġsocialdemokrat": 6129,
      "Ġmedeltiden": 6130,
      "ktes": 6131,
      "no": 6132,
      "ĠBlan": 6133,
      "ipend": 6134,
      "makten": 6135,
      "iae": 6136,
      "Ġdekor": 6137,
      "Ġexamen": 6138,
      "aktion": 6139,
      "amar": 6140,
      "ĠMoh": 6141,
      "ĠInfÃ": 6142,
      "Ġsnar": 6143,
      "ĠSerien": 6144,
      "ĠIV": 6145,
      "arbete": 6146,
      "yrt": 6147,
      "eman": 6148,
      "ĠÃĦlv": 6149,
      "Ġtroll": 6150,
      "ĠLudvig": 6151,
      "samheten": 6152,
      "Ġkines": 6153,
      "ĠMass": 6154,
      "lant": 6155,
      "Ġuppn": 6156,
      "Ġformer": 6157,
      "slin": 6158,
      "otan": 6159,
      "sbane": 6160,
      "ĠArbet": 6161,
      "ĠVÃ¤rld": 6162,
      "ĠSri": 6163,
      "ĠmÃ¥revÃ¤xter": 6164,
      "Ġmotiv": 6165,
      "Ġbilder": 6166,
      "ĠPoint": 6167,
      "ĠHockey": 6168,
      "Ge": 6169,
      "aca": 6170,
      "hjÃ¤l": 6171,
      "svÃ¤gen": 6172,
      "Ġlog": 6173,
      "kas": 6174,
      "ĠAÃ¯n": 6175,
      "Ġintill": 6176,
      "organisation": 6177,
      "ĠBad": 6178,
      "ĠGil": 6179,
      "Ġbolag": 6180,
      "Ġutvecklade": 6181,
      "organ": 6182,
      "Ġsjukhus": 6183,
      "rÃ¤ndra": 6184,
      "reformen": 6185,
      "Ġsonen": 6186,
      "stod": 6187,
      "Ġslottet": 6188,
      "Ġvuxna": 6189,
      "Ġperman": 6190,
      "ato": 6191,
      "Ġforskare": 6192,
      "ĠYam": 6193,
      "Ġkanadens": 6194,
      "Ġlade": 6195,
      "sin": 6196,
      "vÃ¤rd": 6197,
      "fa": 6198,
      "At": 6199,
      "arskap": 6200,
      "rol": 6201,
      "ĠredaktÃ": 6202,
      "oker": 6203,
      "vok": 6204,
      "ĠDeras": 6205,
      "Ġpolitisk": 6206,
      "Ġras": 6207,
      "tering": 6208,
      "Ġinleddes": 6209,
      "Ġmandat": 6210,
      "ĠRadio": 6211,
      "priset": 6212,
      "Ġlista": 6213,
      "Ġrenover": 6214,
      "ĠSÃ£o": 6215,
      "ĠJar": 6216,
      "agan": 6217,
      "ĠberÃ¤ttar": 6218,
      "Ġbefinner": 6219,
      "ridge": 6220,
      "havare": 6221,
      "ĠOx": 6222,
      "Ġmuseet": 6223,
      "kare": 6224,
      "vade": 6225,
      "dade": 6226,
      "Ġnere": 6227,
      "Ġinslag": 6228,
      "ĠIm": 6229,
      "adel": 6230,
      "Ã©e": 6231,
      "ĠBrisbane": 6232,
      "yana": 6233,
      "ĠAkade": 6234,
      "Ġanord": 6235,
      "alo": 6236,
      "rustning": 6237,
      "ĠMi": 6238,
      "Ġupplev": 6239,
      "ĠFar": 6240,
      "asc": 6241,
      "Ġinstrument": 6242,
      "gÃ¥rds": 6243,
      "Ã¤lje": 6244,
      "Ġinternationellt": 6245,
      "Ġsuper": 6246,
      "Ġgruv": 6247,
      "Ġrymd": 6248,
      "stor": 6249,
      "Ġnej": 6250,
      "Ġpsalm": 6251,
      "ĠKongo": 6252,
      "Ġkult": 6253,
      "idens": 6254,
      "ĠKing": 6255,
      "Ġkontroll": 6256,
      "Ã¦": 6257,
      "omrÃ¥den": 6258,
      "Ġbeford": 6259,
      "Ġneg": 6260,
      "ppnades": 6261,
      "ĠinnehÃ": 6262,
      "ĠEv": 6263,
      "ĠavstÃ¥nd": 6264,
      "aktig": 6265,
      "Ġfrit": 6266,
      "ĠUtt": 6267,
      "Ġkunskap": 6268,
      "rhÃ¥llanden": 6269,
      "Ġoleander": 6270,
      "ui": 6271,
      "Ġnedan": 6272,
      "Ġenhet": 6273,
      "Ġanklag": 6274,
      "Ġvarefter": 6275,
      "Ġjapanska": 6276,
      "Ġlandslag": 6277,
      "ĠVarje": 6278,
      "ĠkÃ¤lla": 6279,
      "ĠSmÃ¥land": 6280,
      "Cerro": 6281,
      "Ã¥ningom": 6282,
      "rÃ¤l": 6283,
      "ĠReserv": 6284,
      "cern": 6285,
      "stolen": 6286,
      "sning": 6287,
      "Ġmur": 6288,
      "aterna": 6289,
      "Ġaktiva": 6290,
      "osoma": 6291,
      "ĠvÃ¥g": 6292,
      "Ġkyrkans": 6293,
      "jus": 6294,
      "Ġsh": 6295,
      "lora": 6296,
      "platser": 6297,
      "ĠCarol": 6298,
      "Ġkul": 6299,
      "ĠvÃ¤gg": 6300,
      "ĠFerdinand": 6301,
      "cept": 6302,
      "lÃ¤m": 6303,
      "cell": 6304,
      "Ġos": 6305,
      "Ġstopp": 6306,
      "ografiska": 6307,
      "ylus": 6308,
      "alla": 6309,
      "ips": 6310,
      "Ġambass": 6311,
      "strÃ¤ck": 6312,
      "ĠFranz": 6313,
      "Ġliber": 6314,
      "ĠVilhelm": 6315,
      "quist": 6316,
      "ĠsmÃ¥ningom": 6317,
      "Ġslogs": 6318,
      "Call": 6319,
      "Ġutnytt": 6320,
      "atem": 6321,
      "enberg": 6322,
      "Ġminnes": 6323,
      "Ġuniversitetet": 6324,
      "ĠkÃ¤rn": 6325,
      "sÃ¥ng": 6326,
      "mis": 6327,
      "ĠJohns": 6328,
      "ĠâĢĺ": 6329,
      "oca": 6330,
      "ĠFiji": 6331,
      "mak": 6332,
      "ĠPla": 6333,
      "ĠHell": 6334,
      "hal": 6335,
      "ĠSS": 6336,
      "skrivning": 6337,
      "adÃ": 6338,
      "well": 6339,
      "anch": 6340,
      "ĠArn": 6341,
      "Ox": 6342,
      "skil": 6343,
      "ĠNa": 6344,
      "ordfÃ": 6345,
      "Cer": 6346,
      "ĠanvÃ¤ndning": 6347,
      "omus": 6348,
      "provinsen": 6349,
      "iser": 6350,
      "Ġfus": 6351,
      "Ġdrev": 6352,
      "Ġsatte": 6353,
      "Ġrub": 6354,
      "ledes": 6355,
      "Ġmig": 6356,
      "Ġmetall": 6357,
      "nor": 6358,
      "ĠbelÃ¤get": 6359,
      "ĠSum": 6360,
      "strÃ¤": 6361,
      "orts": 6362,
      "Ġuttal": 6363,
      "unna": 6364,
      "Ġsannoli": 6365,
      "wan": 6366,
      "ornet": 6367,
      "beroende": 6368,
      "ĠVas": 6369,
      "ĠSof": 6370,
      "knande": 6371,
      "osten": 6372,
      "ĠÃ¤ng": 6373,
      "Pter": 6374,
      "ĠRib": 6375,
      "ĠFilipp": 6376,
      "ĠWash": 6377,
      "Ġabs": 6378,
      "Ġmenade": 6379,
      "Ġparall": 6380,
      "lunda": 6381,
      "ĠMay": 6382,
      "oka": 6383,
      "rrÃ¤n": 6384,
      "Ġvand": 6385,
      "Ġdram": 6386,
      "ega": 6387,
      "Ã¥ret": 6388,
      "ban": 6389,
      "ĠBab": 6390,
      "Ġsyftar": 6391,
      "sbol": 6392,
      "ĠGri": 6393,
      "Ġgrekiska": 6394,
      "karriÃ¤r": 6395,
      "ĠmÃ¥ngfotingart": 6396,
      "tex": 6397,
      "Tri": 6398,
      "viken": 6399,
      "Ġbetraktas": 6400,
      "grammet": 6401,
      "Ġmedverkat": 6402,
      "reningar": 6403,
      "itekten": 6404,
      "ĠLill": 6405,
      "ĠTjeckien": 6406,
      "ĠAra": 6407,
      "ĠTÃ": 6408,
      "ĠJu": 6409,
      "Mes": 6410,
      "rhand": 6411,
      "arab": 6412,
      "bes": 6413,
      "banan": 6414,
      "Ġkorta": 6415,
      "Ġstudera": 6416,
      "museum": 6417,
      "ĠWind": 6418,
      "Ġsidor": 6419,
      "ĠRudolf": 6420,
      "rallt": 6421,
      "ĠRog": 6422,
      "ĠAmerik": 6423,
      "Utloppet": 6424,
      "Ġordinarie": 6425,
      "Ġfi": 6426,
      "Ġskalbaggar": 6427,
      "Ã¤lven": 6428,
      "ĠLanka": 6429,
      "inas": 6430,
      "optera": 6431,
      "Kategori": 6432,
      "And": 6433,
      "aljer": 6434,
      "Ġdollar": 6435,
      "Ġleda": 6436,
      "Ġbolaget": 6437,
      "ĠLittle": 6438,
      "Ġtegel": 6439,
      "ĠBud": 6440,
      "ĠhÃ¤mt": 6441,
      "ferens": 6442,
      "Ġgett": 6443,
      "Ġfien": 6444,
      "Ġapp": 6445,
      "ollege": 6446,
      "fart": 6447,
      "ĠnÃ¥gonsin": 6448,
      "Ġinb": 6449,
      "ĠRon": 6450,
      "Mount": 6451,
      "leÃ¥": 6452,
      "ĠTurk": 6453,
      "Anth": 6454,
      "Ġprincip": 6455,
      "Ġfungerar": 6456,
      "ĠRÃ¤k": 6457,
      "rÃ¥l": 6458,
      "rey": 6459,
      "Ġbuk": 6460,
      "ĠMÃ¼nchen": 6461,
      "Ġkoncent": 6462,
      "Ġmotsvarande": 6463,
      "ĠmÃ¥revÃ¤xtart": 6464,
      "ĠMary": 6465,
      "ĠFrancisco": 6466,
      "ows": 6467,
      "Ġblomm": 6468,
      "amo": 6469,
      "stÃ¤lla": 6470,
      "ocarp": 6471,
      "Ġkontroller": 6472,
      "Tet": 6473,
      "Ġtyck": 6474,
      "ĠBoken": 6475,
      "ĠTel": 6476,
      "Ġareal": 6477,
      "Ġastronomen": 6478,
      "ear": 6479,
      "Ġutseende": 6480,
      "dert": 6481,
      "bell": 6482,
      "Ġkristna": 6483,
      "Ġfa": 6484,
      "ĠJuan": 6485,
      "ĠTak": 6486,
      "oci": 6487,
      "Ġdrift": 6488,
      "ĠtrÃ": 6489,
      "Ġkritis": 6490,
      "ĠtillfÃ¤llen": 6491,
      "ĠMak": 6492,
      "sakademien": 6493,
      "Ġkortare": 6494,
      "Ġlast": 6495,
      "ĠTanjung": 6496,
      "ĠvÃ¤nner": 6497,
      "agus": 6498,
      "valet": 6499,
      "lius": 6500,
      "Ġbeskriver": 6501,
      "Ġalk": 6502,
      "kommande": 6503,
      "Ġstyrelse": 6504,
      "Ġlitet": 6505,
      "ĠslÃ¥": 6506,
      "egro": 6507,
      "ĠMos": 6508,
      "ĠInnan": 6509,
      "dalen": 6510,
      "ĠMun": 6511,
      "ical": 6512,
      "Ġsingeln": 6513,
      "Ġtimmar": 6514,
      "mel": 6515,
      "Ġstorm": 6516,
      "oppor": 6517,
      "Ġkyrkob": 6518,
      "kontor": 6519,
      "ĠGott": 6520,
      "ĠMosk": 6521,
      "minstone": 6522,
      "gg": 6523,
      "Ġkroppen": 6524,
      "Ġbotten": 6525,
      "Ġelev": 6526,
      "ariket": 6527,
      "Ġkonstru": 6528,
      "apa": 6529,
      "Ġofficer": 6530,
      "Ġlinje": 6531,
      "ĠHenri": 6532,
      "Ġrepresenterade": 6533,
      "ĠAstero": 6534,
      "olas": 6535,
      "Ġhal": 6536,
      "ĠLim": 6537,
      "ĠVÃ¤n": 6538,
      "Ġbefolkning": 6539,
      "ĠSomm": 6540,
      "lige": 6541,
      "ardo": 6542,
      "ĠavslÃ": 6543,
      "spinnare": 6544,
      "eby": 6545,
      "heterna": 6546,
      "Ġkristen": 6547,
      "ĠNordamerika": 6548,
      "rÃ¤ndringar": 6549,
      "ĠAz": 6550,
      "Ã¤ckte": 6551,
      "Ġavse": 6552,
      "ĠKast": 6553,
      "ampa": 6554,
      "Ġbeslutade": 6555,
      "San": 6556,
      "ĠTeg": 6557,
      "enskap": 6558,
      "ĠDÃ": 6559,
      "Ġskrifter": 6560,
      "ete": 6561,
      "ĠKv": 6562,
      "grupper": 6563,
      "Ġbiograf": 6564,
      "inst": 6565,
      "Ġsum": 6566,
      "ĠkompositÃ": 6567,
      "ĠlÃ¤s": 6568,
      "ders": 6569,
      "Nord": 6570,
      "byn": 6571,
      "ĠvÃ¤rlds": 6572,
      "Ġsoldater": 6573,
      "ĠSamuel": 6574,
      "vide": 6575,
      "ĠChic": 6576,
      "efte": 6577,
      "bror": 6578,
      "kropp": 6579,
      "Ġsyns": 6580,
      "rafiken": 6581,
      "ĠnÃ¥": 6582,
      "ĠHus": 6583,
      "ĠhÃ¤lften": 6584,
      "Ġsa": 6585,
      "ĠPetter": 6586,
      "ĠIsra": 6587,
      "Ġdon": 6588,
      "Ġlut": 6589,
      "ĠNap": 6590,
      "omet": 6591,
      "ssan": 6592,
      "stan": 6593,
      "ĠTotalt": 6594,
      "ĠCha": 6595,
      "inalen": 6596,
      "Ġavanc": 6597,
      "ĠCam": 6598,
      "stÃ¤lld": 6599,
      "ologin": 6600,
      "Ġinterv": 6601,
      "ĠEug": 6602,
      "Ġutgavs": 6603,
      "Ġkontor": 6604,
      "ĠtillrÃ¤ckligt": 6605,
      "ĠÃ¤gs": 6606,
      "randet": 6607,
      "ĠIFK": 6608,
      "Ġnormalt": 6609,
      "Ã¥ldern": 6610,
      "nens": 6611,
      "Ġregl": 6612,
      "Ġaccep": 6613,
      "igan": 6614,
      "Ġsynner": 6615,
      "Ġbosatt": 6616,
      "rmod": 6617,
      "ours": 6618,
      "rea": 6619,
      "ĠunderhÃ¥ll": 6620,
      "ekonom": 6621,
      "vapen": 6622,
      "Ġstyrk": 6623,
      "enz": 6624,
      "ivan": 6625,
      "kyrkan": 6626,
      "ues": 6627,
      "orit": 6628,
      "tidigare": 6629,
      "stens": 6630,
      "Ġtrupper": 6631,
      "Leuc": 6632,
      "Ġpop": 6633,
      "Ġpans": 6634,
      "ĠinbÃ": 6635,
      "emb": 6636,
      "vning": 6637,
      "ĠZag": 6638,
      "tion": 6639,
      "ĠSur": 6640,
      "ĠAh": 6641,
      "yi": 6642,
      "Ġutvecklingen": 6643,
      "Ġhit": 6644,
      "ĠGener": 6645,
      "ĠBelgien": 6646,
      "Ġvattendraget": 6647,
      "Ġinternationell": 6648,
      "idia": 6649,
      "ics": 6650,
      "ĠkÃ¤llor": 6651,
      "ĠBrÃ": 6652,
      "Ġhed": 6653,
      "isterna": 6654,
      "reis": 6655,
      "SS": 6656,
      "ĠGod": 6657,
      "rateg": 6658,
      "ĠNorden": 6659,
      "ero": 6660,
      "Pa": 6661,
      "ĠPass": 6662,
      "Ġotill": 6663,
      "ĠPolit": 6664,
      "ĠScotia": 6665,
      "ĠGamla": 6666,
      "Ġnoter": 6667,
      "Ġkvalific": 6668,
      "Ġminska": 6669,
      "ami": 6670,
      "lie": 6671,
      "ĠDahl": 6672,
      "Ġlek": 6673,
      "iera": 6674,
      "Ġpolitiskt": 6675,
      "Ġsvans": 6676,
      "Ġyrkes": 6677,
      "antus": 6678,
      "Ġverket": 6679,
      "ces": 6680,
      "ĠChar": 6681,
      "Ġvisades": 6682,
      "aland": 6683,
      "Ġavveck": 6684,
      "Ġkalk": 6685,
      "ĠRÃ¤knas": 6686,
      "ĠBig": 6687,
      "ĠInter": 6688,
      "spass": 6689,
      "ĠJebel": 6690,
      "Ġavvattnas": 6691,
      "Ġkloster": 6692,
      "ĠsÃ¤llan": 6693,
      "ĠSon": 6694,
      "Ġelektron": 6695,
      "edagog": 6696,
      "ges": 6697,
      "ĠallmÃ¤nt": 6698,
      "stav": 6699,
      "skÃ¥d": 6700,
      "Ġparasit": 6701,
      "Ġtas": 6702,
      "urer": 6703,
      "rivill": 6704,
      "Ġtillbring": 6705,
      "tiden": 6706,
      "ĠHermann": 6707,
      "verste": 6708,
      "ulatus": 6709,
      "ĠBat": 6710,
      "kÃ¤nt": 6711,
      "spart": 6712,
      "ĠhuvudbÃ¤ltet": 6713,
      "ĠgrÃ¤sart": 6714,
      "ĠSuva": 6715,
      "ĠNav": 6716,
      "ĠnÃ¤rvarande": 6717,
      "smannen": 6718,
      "orph": 6719,
      "ĠBart": 6720,
      "sledamot": 6721,
      "ligan": 6722,
      "ĠbelÃ": 6723,
      "Di": 6724,
      "ĠLenn": 6725,
      "get": 6726,
      "ĠWashington": 6727,
      "rica": 6728,
      "oo": 6729,
      "Ġbevarade": 6730,
      "allet": 6731,
      "ĠLong": 6732,
      "Ġtillverkades": 6733,
      "my": 6734,
      "Ġteknik": 6735,
      "Qu": 6736,
      "industri": 6737,
      "elius": 6738,
      "aker": 6739,
      "Ġmil": 6740,
      "ĠManit": 6741,
      "ĠAsteroiden": 6742,
      "orh": 6743,
      "rth": 6744,
      "Carl": 6745,
      "Ġens": 6746,
      "Ġminsk": 6747,
      "lk": 6748,
      "istik": 6749,
      "Ġskatt": 6750,
      "rant": 6751,
      "inter": 6752,
      "orium": 6753,
      "riel": 6754,
      "ollen": 6755,
      "Ġflod": 6756,
      "ĠOff": 6757,
      "Ġstatus": 6758,
      "ĠvÃ¥n": 6759,
      "Ġsattes": 6760,
      "Ġhuvudort": 6761,
      "anga": 6762,
      "ostÃ¤der": 6763,
      "Ġskriver": 6764,
      "ĠframÃ¥t": 6765,
      "ĠAlto": 6766,
      "ĠAIK": 6767,
      "Ġslav": 6768,
      "sand": 6769,
      "ĠBritt": 6770,
      "Ġflagg": 6771,
      "ĠAdel": 6772,
      "amerik": 6773,
      "mm": 6774,
      "ĠAk": 6775,
      "irut": 6776,
      "Ġkyrkoher": 6777,
      "Ġaukt": 6778,
      "dotter": 6779,
      "Ġlas": 6780,
      "ularis": 6781,
      "ĠZeeland": 6782,
      "Ġgas": 6783,
      "Ġstrids": 6784,
      "iets": 6785,
      "Ġmol": 6786,
      "ĠhalvgrÃ¤": 6787,
      "ĠframgÃ¥ngar": 6788,
      "Ġliknar": 6789,
      "liknande": 6790,
      "Ġomfattning": 6791,
      "hamns": 6792,
      "ĠPed": 6793,
      "con": 6794,
      "Ġuppstod": 6795,
      "Ġprefekturen": 6796,
      "itioner": 6797,
      "Gun": 6798,
      "ente": 6799,
      "Ġgenombrott": 6800,
      "regÃ¥ng": 6801,
      "hidae": 6802,
      "Ġpul": 6803,
      "rok": 6804,
      "Ġregler": 6805,
      "Ġhyll": 6806,
      "rata": 6807,
      "ĠnÃ¤bb": 6808,
      "kÃ¤nda": 6809,
      "olax": 6810,
      "ĠDalarna": 6811,
      "gara": 6812,
      "test": 6813,
      "dvÃ¤nd": 6814,
      "imus": 6815,
      "ĠtÃ¤ttingar": 6816,
      "Ġbetal": 6817,
      "Ġuppror": 6818,
      "ĠSj": 6819,
      "righet": 6820,
      "studier": 6821,
      "Ġskogar": 6822,
      "odi": 6823,
      "angeli": 6824,
      "fÃ¥gel": 6825,
      "Ġlevande": 6826,
      "ittÃ©": 6827,
      "ĠHelsingborg": 6828,
      "Ġsystematik": 6829,
      "ĠMah": 6830,
      "ose": 6831,
      "gat": 6832,
      "agande": 6833,
      "ĠJosef": 6834,
      "Ġbidrog": 6835,
      "agare": 6836,
      "ĠAsien": 6837,
      "dat": 6838,
      "rber": 6839,
      "klam": 6840,
      "regionen": 6841,
      "Ġmyror": 6842,
      "ĠnÃ¤mnas": 6843,
      "Ġprop": 6844,
      "ians": 6845,
      "Ġritningar": 6846,
      "skiftet": 6847,
      "oto": 6848,
      "ĠstÃ¥": 6849,
      "Sim": 6850,
      "nia": 6851,
      "ĠnÃ¤rmast": 6852,
      "ĠLy": 6853,
      "ĠEriksson": 6854,
      "ĠÃħng": 6855,
      "andena": 6856,
      "unkten": 6857,
      "ĠDer": 6858,
      "ĠBeirut": 6859,
      "Ġetapp": 6860,
      "vÃ¥rds": 6861,
      "institut": 6862,
      "ido": 6863,
      "ÅĤ": 6864,
      "ĠavrinningsomrÃ¥dena": 6865,
      "horn": 6866,
      "ĠSocknen": 6867,
      "Ġtrett": 6868,
      "ĠÃ¤gnade": 6869,
      "festiv": 6870,
      "ĠHum": 6871,
      "cuador": 6872,
      "sberg": 6873,
      "ĠHÃ¥": 6874,
      "ĠRoss": 6875,
      "delser": 6876,
      "somrÃ¥den": 6877,
      "Ġrekord": 6878,
      "Ġlov": 6879,
      "Ġanslutning": 6880,
      "merican": 6881,
      "Ġarke": 6882,
      "ungf": 6883,
      "Ġspets": 6884,
      "anne": 6885,
      "entligt": 6886,
      "ĠVad": 6887,
      "Ġtakt": 6888,
      "Ġtons": 6889,
      "ray": 6890,
      "ĠHit": 6891,
      "lest": 6892,
      "eborg": 6893,
      "ĠStatens": 6894,
      "Om": 6895,
      "Ser": 6896,
      "stil": 6897,
      "ĠhÃ¤ls": 6898,
      "ĠkvÃ¤ll": 6899,
      "ĠsprÃ¥ket": 6900,
      "Ġmakten": 6901,
      "krig": 6902,
      "ĠgrÃ¤nsar": 6903,
      "Ġgoda": 6904,
      "Hyd": 6905,
      "retrÃ¤d": 6906,
      "Ġkejsar": 6907,
      "ÃĦ": 6908,
      "skam": 6909,
      "ando": 6910,
      "makt": 6911,
      "ikern": 6912,
      "Ġvanligaste": 6913,
      "Ġmax": 6914,
      "ĠpopulÃ¤ra": 6915,
      "ĠRefer": 6916,
      "Ġmyt": 6917,
      "vision": 6918,
      "Ã¤tta": 6919,
      "Ġhjul": 6920,
      "Ġolyck": 6921,
      "ĠManitoba": 6922,
      "Ġspelaren": 6923,
      "bry": 6924,
      "Ġnordiska": 6925,
      "Ã¤tet": 6926,
      "Ġexped": 6927,
      "itta": 6928,
      "ĠÃĸver": 6929,
      "arre": 6930,
      "ĠStan": 6931,
      "Ġegenskaper": 6932,
      "ĠRy": 6933,
      "ĠrÃ¤ttigheter": 6934,
      "flygplan": 6935,
      "Ġevent": 6936,
      "kul": 6937,
      "rmÃ": 6938,
      "ĠBang": 6939,
      "ĠAma": 6940,
      "Ġskivan": 6941,
      "rsp": 6942,
      "ektor": 6943,
      "Ġplacerade": 6944,
      "shuset": 6945,
      "ĠHamp": 6946,
      "Ġgram": 6947,
      "fÃ©": 6948,
      "ĠBrown": 6949,
      "Ġstadsdel": 6950,
      "jas": 6951,
      "ĠKol": 6952,
      "ĠÃ¥terfÃ": 6953,
      "ĠTekniska": 6954,
      "Ġgott": 6955,
      "etiska": 6956,
      "ĠstrÃ¤v": 6957,
      "ĠEss": 6958,
      "igg": 6959,
      "ĠfortsÃ¤tta": 6960,
      "fÃ¥ng": 6961,
      "ĠÃ¥tminstone": 6962,
      "livet": 6963,
      "mos": 6964,
      "Ġgjord": 6965,
      "ĠÃħret": 6966,
      "Ġbrons": 6967,
      "ĠBeck": 6968,
      "ĠSydkorea": 6969,
      "Ġbehandling": 6970,
      "ĠKnut": 6971,
      "ĠsnÃ¤ckart": 6972,
      "ĠYou": 6973,
      "ĠfÃ¤rger": 6974,
      "ĠVictoria": 6975,
      "ĠkÃ¤nneteck": 6976,
      "Ġkvalster": 6977,
      "ĠLes": 6978,
      "ission": 6979,
      "engelska": 6980,
      "skusten": 6981,
      "Ġsammanlagt": 6982,
      "umin": 6983,
      "iers": 6984,
      "Ġtredj": 6985,
      "ĠNum": 6986,
      "ĠSalt": 6987,
      "ance": 6988,
      "servatoriet": 6989,
      "Ġgraf": 6990,
      "ĠStÃ": 6991,
      "sprÃ¥kiga": 6992,
      "ĠIll": 6993,
      "ĠflÃ¤ck": 6994,
      "ĠSundsvall": 6995,
      "bom": 6996,
      "Chrys": 6997,
      "Ġsammanhang": 6998,
      "Ġyttre": 6999,
      "Ġridd": 7000,
      "hÃ¤st": 7001,
      "amÃ¥l": 7002,
      "ĠKra": 7003,
      "Ġmetod": 7004,
      "ĠMau": 7005,
      "Ġdial": 7006,
      "ĠBour": 7007,
      "ĠlÃ¤mp": 7008,
      "ĠvÃ¥t": 7009,
      "ĠhÃ¤star": 7010,
      "Ġdelta": 7011,
      "ĠhalvÃ": 7012,
      "Ber": 7013,
      "ierra": 7014,
      "ĠDepart": 7015,
      "ĠSuc": 7016,
      "Ġpastorat": 7017,
      "kad": 7018,
      "ĠdÃ¤gg": 7019,
      "ĠMey": 7020,
      "Ġtorp": 7021,
      "ĠKi": 7022,
      "lah": 7023,
      "Ġori": 7024,
      "iali": 7025,
      "Ġbrist": 7026,
      "aya": 7027,
      "ĠvÃ¥rt": 7028,
      "industrin": 7029,
      "ĠSkÃ¤r": 7030,
      "ombo": 7031,
      "ĠkarriÃ¤ren": 7032,
      "ouk": 7033,
      "apÃ©": 7034,
      "My": 7035,
      "askar": 7036,
      "ĠGreen": 7037,
      "Ġmalv": 7038,
      "rekt": 7039,
      "Ġparish": 7040,
      "ĠfrÃ¥ga": 7041,
      "Ġborger": 7042,
      "Ġdelades": 7043,
      "Ġlilla": 7044,
      "egre": 7045,
      "Ġsekreterare": 7046,
      "skontrakt": 7047,
      "mes": 7048,
      "ĠWestern": 7049,
      "Das": 7050,
      "sklubb": 7051,
      "agor": 7052,
      "omycetes": 7053,
      "ĠhjÃ¤rt": 7054,
      "olonthidae": 7055,
      "ĠMelolonthidae": 7056,
      "ĠNov": 7057,
      "okal": 7058,
      "ĠEast": 7059,
      "ĠVÃ¤xjÃ": 7060,
      "ĠMill": 7061,
      "ĠOlsson": 7062,
      "nÃ¤mnda": 7063,
      "Ġfader": 7064,
      "ĠÃ¤ndrades": 7065,
      "ĠHart": 7066,
      "vara": 7067,
      "ĠJÃ¤rnvÃ¤g": 7068,
      "Ġtidig": 7069,
      "asse": 7070,
      "orpor": 7071,
      "Ġmyrten": 7072,
      "Ġkommers": 7073,
      "Ġovans": 7074,
      "ĠfjÃ¤ll": 7075,
      "klubben": 7076,
      "ĠMid": 7077,
      "ĠRey": 7078,
      "Ru": 7079,
      "ĠutstÃ¤llning": 7080,
      "Asp": 7081,
      "Brach": 7082,
      "ĠHamb": 7083,
      "manlands": 7084,
      "reta": 7085,
      "ĠKlubben": 7086,
      "rats": 7087,
      "flott": 7088,
      "Ġforsknings": 7089,
      "ĠTenggara": 7090,
      "medel": 7091,
      "ydde": 7092,
      "tyska": 7093,
      "ĠsÃ¤lls": 7094,
      "illverk": 7095,
      "Ġkvart": 7096,
      "aba": 7097,
      "Ad": 7098,
      "assa": 7099,
      "ĠuppmÃ¤rksamhet": 7100,
      "Ã¤ter": 7101,
      "Ã¤mnd": 7102,
      "ĠintrÃ¤ff": 7103,
      "efteÃ¥": 7104,
      "ĠBob": 7105,
      "Ġklassiska": 7106,
      "vas": 7107,
      "skrig": 7108,
      "Ġanser": 7109,
      "Cor": 7110,
      "omi": 7111,
      "Ġnr": 7112,
      "ĠHÃ¤ls": 7113,
      "Ġbildas": 7114,
      "ĠsvÃ¤r": 7115,
      "Ġutbredning": 7116,
      "aket": 7117,
      "ĠBank": 7118,
      "ĠAst": 7119,
      "ĠPasir": 7120,
      "Ġplaner": 7121,
      "wer": 7122,
      "Ġtax": 7123,
      "Saint": 7124,
      "ĠEcuador": 7125,
      "Ã¤ssel": 7126,
      "faren": 7127,
      "escens": 7128,
      "ĠÃ¤rk": 7129,
      "rjat": 7130,
      "Ġbegravd": 7131,
      "ĠsÃ¥ledes": 7132,
      "ĠVilla": 7133,
      "ĠsÃ¥rbar": 7134,
      "ĠArthur": 7135,
      "Ġkrets": 7136,
      "ĠHalm": 7137,
      "ulb": 7138,
      "rÃ£o": 7139,
      "ĠPhil": 7140,
      "Ġorganisationen": 7141,
      "urk": 7142,
      "ittÃ©n": 7143,
      "Ġordning": 7144,
      "ĠbekrÃ¤ft": 7145,
      "ĠFF": 7146,
      "ĠframgÃ¥ngsrika": 7147,
      "Ġamar": 7148,
      "Ġadvok": 7149,
      "ĠLÃ¥t": 7150,
      "ĠPortug": 7151,
      "Ġgar": 7152,
      "ĠUr": 7153,
      "lanssteklar": 7154,
      "Ġgat": 7155,
      "Ġsyss": 7156,
      "Ġtotal": 7157,
      "Ġintervju": 7158,
      "ĠMats": 7159,
      "Ġhitta": 7160,
      "ĠGuatem": 7161,
      "Ġsent": 7162,
      "prin": 7163,
      "ĠFo": 7164,
      "lÃ¤ggningen": 7165,
      "Ã£o": 7166,
      "ĠPrix": 7167,
      "Ġenergi": 7168,
      "Ġbyggd": 7169,
      "jell": 7170,
      "ĠHal": 7171,
      "Ġberor": 7172,
      "shuvud": 7173,
      "maskar": 7174,
      "ilton": 7175,
      "skjut": 7176,
      "ĠLew": 7177,
      "Ġutbildade": 7178,
      "vertog": 7179,
      "ĠRum": 7180,
      "smÃ¤n": 7181,
      "ĠSchool": 7182,
      "Ġgrunden": 7183,
      "ĠCruz": 7184,
      "oslav": 7185,
      "Sm": 7186,
      "ĠCat": 7187,
      "utbildning": 7188,
      "Col": 7189,
      "ĠpÃ¥trÃ¤ffats": 7190,
      "ĠfrÃ": 7191,
      "fton": 7192,
      "Ġbergsked": 7193,
      "ĠJÃ¤mtland": 7194,
      "ĠMoskva": 7195,
      "ĠReferenser": 7196,
      "ĠtillÃ¤mp": 7197,
      "Ġhandboll": 7198,
      "Ġherrg": 7199,
      "Sy": 7200,
      "sÃ¥lder": 7201,
      "Ġspindeldjursart": 7202,
      "ĠfrÃ¥gan": 7203,
      "rera": 7204,
      "com": 7205,
      "litter": 7206,
      "ĠJabal": 7207,
      "Ġflykt": 7208,
      "rdrag": 7209,
      "Dend": 7210,
      "Ġsolen": 7211,
      "dell": 7212,
      "ĠBohus": 7213,
      "Ġco": 7214,
      "ĠDomingo": 7215,
      "samling": 7216,
      "ĠkonstnÃ¤ren": 7217,
      "ĠPor": 7218,
      "ĠRosen": 7219,
      "ĠtvÃ¥a": 7220,
      "acka": 7221,
      "Ġrot": 7222,
      "ĠSvensk": 7223,
      "oten": 7224,
      "ĠlÃ¤ro": 7225,
      "issionen": 7226,
      "Ġslags": 7227,
      "ĠupptÃ¤ck": 7228,
      "hr": 7229,
      "ĠHow": 7230,
      "irus": 7231,
      "ĠSun": 7232,
      "ĠVetenskap": 7233,
      "Lim": 7234,
      "vÃ¤n": 7235,
      "Ã¤ste": 7236,
      "Ġtemperatur": 7237,
      "ĠSydaf": 7238,
      "ĠlÃ¤gen": 7239,
      "programmet": 7240,
      "ĠStrand": 7241,
      "ĠhÃ¥rt": 7242,
      "Ġobjekt": 7243,
      "ĠtrÃ¤dgÃ¥rd": 7244,
      "arus": 7245,
      "Ġstarka": 7246,
      "vÃ¤rlden": 7247,
      "bod": 7248,
      "Ġavtal": 7249,
      "Ġdiplomat": 7250,
      "hets": 7251,
      "Ġbergspass": 7252,
      "Ġgreve": 7253,
      "ĠStre": 7254,
      "bladet": 7255,
      "Ġlantbruk": 7256,
      "Ġcell": 7257,
      "Ġbanan": 7258,
      "ĠWood": 7259,
      "ĠGuatemala": 7260,
      "Ġhemm": 7261,
      "¼n": 7262,
      "ĠFÃ¥geln": 7263,
      "Ġpermanent": 7264,
      "Bl": 7265,
      "Gl": 7266,
      "Ġavsked": 7267,
      "sey": 7268,
      "Ġkapell": 7269,
      "chin": 7270,
      "Ġpall": 7271,
      "ligtvis": 7272,
      "Ġadministrativa": 7273,
      "Ã¤ssigt": 7274,
      "ĠKultur": 7275,
      "oft": 7276,
      "ĠDis": 7277,
      "ĠSec": 7278,
      "Ġerbjud": 7279,
      "ĠRiv": 7280,
      "ĠKuba": 7281,
      "Ġspar": 7282,
      "ĠJÃ¤r": 7283,
      "Ġbarnen": 7284,
      "ĠSach": 7285,
      "ionerna": 7286,
      "fenben": 7287,
      "Ġvisat": 7288,
      "ĠsÃ¤lj": 7289,
      "ĠHos": 7290,
      "samt": 7291,
      "fi": 7292,
      "ĠlÃ¥ta": 7293,
      "sverk": 7294,
      "nordvÃ¤stlig": 7295,
      "Ġlandslaget": 7296,
      "rerna": 7297,
      "ritz": 7298,
      "ĠlÃ¤gga": 7299,
      "ĠLilla": 7300,
      "Ġjobb": 7301,
      "Ġaustrali": 7302,
      "Ġkg": 7303,
      "Ġurval": 7304,
      "Ã±a": 7305,
      "GÃ": 7306,
      "ĠBot": 7307,
      "bal": 7308,
      "Ġhundra": 7309,
      "ĠskÃ¥despelaren": 7310,
      "skolor": 7311,
      "Ġanges": 7312,
      "figur": 7313,
      "star": 7314,
      "ĠBure": 7315,
      "vding": 7316,
      "ĠRoyal": 7317,
      "Ġtraditionella": 7318,
      "Ġheli": 7319,
      "ube": 7320,
      "usch": 7321,
      "ĠnattslÃ¤ndeart": 7322,
      "Ġtror": 7323,
      "Ã¤ngder": 7324,
      "Ġbib": 7325,
      "ĠDu": 7326,
      "slam": 7327,
      "ocera": 7328,
      "grÃ¤n": 7329,
      "Ġspri": 7330,
      "ĠGotland": 7331,
      "ĠbestÃ¤ll": 7332,
      "ĠfÃ¥glar": 7333,
      "amat": 7334,
      "opro": 7335,
      "Oph": 7336,
      "iven": 7337,
      "Ġartiklar": 7338,
      "Ġspansk": 7339,
      "ĠSpring": 7340,
      "ĠstÃ¥l": 7341,
      "Dic": 7342,
      "ĠCollege": 7343,
      "Ġstick": 7344,
      "vagn": 7345,
      "vor": 7346,
      "Ġanim": 7347,
      "Ġsamlade": 7348,
      "tiop": 7349,
      "ĠReservatet": 7350,
      "ĠZagreb": 7351,
      "Ã¤ndska": 7352,
      "Ġsocknen": 7353,
      "ifik": 7354,
      "ĠSeoul": 7355,
      "Ġnaz": 7356,
      "ĠfinlÃ¤ndska": 7357,
      "Ã¤vlingarna": 7358,
      "Ġsat": 7359,
      "ĠbrÃ¤n": 7360,
      "ĠDre": 7361,
      "vari": 7362,
      "Ġbedriv": 7363,
      "aux": 7364,
      "ĠVÃ¤stergÃ": 7365,
      "Ġanlades": 7366,
      "ĠVatten": 7367,
      "obel": 7368,
      "Ġfastighet": 7369,
      "Ġhavs": 7370,
      "ĠRi": 7371,
      "Ġutgiven": 7372,
      "ĠAla": 7373,
      "ĠSystem": 7374,
      "ĠanslÃ": 7375,
      "ĠSK": 7376,
      "eiro": 7377,
      "Ã¤rer": 7378,
      "uden": 7379,
      "Ġkommunerna": 7380,
      "Ġprivata": 7381,
      "serna": 7382,
      "Ġposition": 7383,
      "ĠSavolax": 7384,
      "bÃ¤ck": 7385,
      "inda": 7386,
      "ĠSpelet": 7387,
      "zuel": 7388,
      "ĠTexas": 7389,
      "Ġalkoh": 7390,
      "Ġbete": 7391,
      "ĠNusa": 7392,
      "Ġhonan": 7393,
      "md": 7394,
      "ĠWik": 7395,
      "ĠSud": 7396,
      "centrum": 7397,
      "ogloss": 7398,
      "Ġfriher": 7399,
      "ĠSocial": 7400,
      "ĠhjÃ¤r": 7401,
      "Ã¤tten": 7402,
      "Ġtingslag": 7403,
      "Aph": 7404,
      "Ġoffentlig": 7405,
      "Ġspecial": 7406,
      "Ġakantus": 7407,
      "sÃ¤ttningar": 7408,
      "ĠMol": 7409,
      "aki": 7410,
      "tyskland": 7411,
      "Ġbegreppet": 7412,
      "ĠBandet": 7413,
      "ĠVol": 7414,
      "Ġutveckla": 7415,
      "Ġutspelar": 7416,
      "Ġorden": 7417,
      "Ġkyrkor": 7418,
      "redaktÃ": 7419,
      "Ġromanen": 7420,
      "Kung": 7421,
      "emedel": 7422,
      "sal": 7423,
      "Ġelement": 7424,
      "Ġviktigt": 7425,
      "ĠMic": 7426,
      "ĠnÃ¤rings": 7427,
      "ĠlÃ¤nkar": 7428,
      "airo": 7429,
      "Ġlokaler": 7430,
      "ĠallmÃ¤nhet": 7431,
      "Ġekonomi": 7432,
      "Heli": 7433,
      "rfÃ": 7434,
      "Ġregelb": 7435,
      "garapÃ©": 7436,
      "Ġautom": 7437,
      "Ġlavart": 7438,
      "otrich": 7439,
      "illeri": 7440,
      "Ġtids": 7441,
      "Ã¤ren": 7442,
      "Ã¤nk": 7443,
      "ningsfÃ": 7444,
      "ĠBarcel": 7445,
      "ĠefterfÃ": 7446,
      "ckerna": 7447,
      "Ġnationalp": 7448,
      "ĠVikt": 7449,
      "ĠAntonio": 7450,
      "igenom": 7451,
      "fly": 7452,
      "ĠMargareta": 7453,
      "eirÃ£o": 7454,
      "relser": 7455,
      "ĠEtiop": 7456,
      "Äģh": 7457,
      "Ġmak": 7458,
      "ĠhÃ¥l": 7459,
      "idea": 7460,
      "rill": 7461,
      "departementet": 7462,
      "ĠGlav": 7463,
      "ĠDh": 7464,
      "ĠVÃ¤rmland": 7465,
      "Ġsmal": 7466,
      "Ġinflu": 7467,
      "eringar": 7468,
      "bana": 7469,
      "akade": 7470,
      "ssam": 7471,
      "match": 7472,
      "ĠLee": 7473,
      "ĠskÃ¤l": 7474,
      "ĠavgrÃ¤ns": 7475,
      "ĠslÃ": 7476,
      "Åıng": 7477,
      "ĠmjÃ": 7478,
      "sborg": 7479,
      "Ġbilda": 7480,
      "vill": 7481,
      "Ġkommunreformen": 7482,
      "rif": 7483,
      "Ġsymbol": 7484,
      "ĠInternationella": 7485,
      "Ġlock": 7486,
      "ĠKur": 7487,
      "Ġtung": 7488,
      "ymn": 7489,
      "Ġmusiken": 7490,
      "fram": 7491,
      "ĠMitt": 7492,
      "Ġarab": 7493,
      "Ġartister": 7494,
      "Ġtider": 7495,
      "Ġsepar": 7496,
      "mers": 7497,
      "Ġtydligt": 7498,
      "onta": 7499,
      "ljare": 7500,
      "ĠnÃ¤mns": 7501,
      "sblomm": 7502,
      "orre": 7503,
      "Ġattack": 7504,
      "mÃ¤staren": 7505,
      "aret": 7506,
      "ĠtÃ¤tort": 7507,
      "Ġpolska": 7508,
      "ĠJesus": 7509,
      "Ġrapporter": 7510,
      "ĠYtter": 7511,
      "uppg": 7512,
      "ĠstÃ¤nd": 7513,
      "ctus": 7514,
      "Ġkapit": 7515,
      "Ġgemensamma": 7516,
      "ĠMÃ¥l": 7517,
      "ĠGora": 7518,
      "ivalen": 7519,
      "Ġes": 7520,
      "efatt": 7521,
      "ĠpjÃ¤": 7522,
      "rikanska": 7523,
      "ĠVD": 7524,
      "ĠHj": 7525,
      "Ġartist": 7526,
      "rsen": 7527,
      "oler": 7528,
      "obius": 7529,
      "Ġturn": 7530,
      "aro": 7531,
      "Ġrecens": 7532,
      "ĠJohnson": 7533,
      "hn": 7534,
      "rka": 7535,
      "Ġfordon": 7536,
      "agne": 7537,
      "ĠÃ¤ter": 7538,
      "Ġrank": 7539,
      "ĠGuinea": 7540,
      "ĠVidare": 7541,
      "Ġrysk": 7542,
      "Ġstartades": 7543,
      "sid": 7544,
      "Ġph": 7545,
      "ĠTok": 7546,
      "silver": 7547,
      "ĠAndrÃ©": 7548,
      "Ġmiljarder": 7549,
      "vad": 7550,
      "Ġest": 7551,
      "Ġmob": 7552,
      "ĠCD": 7553,
      "Ġprojektet": 7554,
      "ĠGol": 7555,
      "ĠDominikanska": 7556,
      "amento": 7557,
      "Ġolympisk": 7558,
      "Cl": 7559,
      "Ġkop": 7560,
      "ancer": 7561,
      "Ġantag": 7562,
      "ĠOd": 7563,
      "weiz": 7564,
      "deb": 7565,
      "oloph": 7566,
      "ĠAkt": 7567,
      "Ġtexten": 7568,
      "litt": 7569,
      "ĠvÃ¤rvades": 7570,
      "juder": 7571,
      "ĠCenter": 7572,
      "rdo": 7573,
      "fe": 7574,
      "ĠBut": 7575,
      "ovo": 7576,
      "Ġnatten": 7577,
      "ĠPersson": 7578,
      "Hen": 7579,
      "icip": 7580,
      "ĠWolf": 7581,
      "sbyggnad": 7582,
      "Ġminne": 7583,
      "ĠnÃ¤mligen": 7584,
      "sur": 7585,
      "rah": 7586,
      "berga": 7587,
      "ĠChicago": 7588,
      "ĠVit": 7589,
      "ĠtillgÃ¥ng": 7590,
      "ifer": 7591,
      "arius": 7592,
      "Ġnamng": 7593,
      "Ġran": 7594,
      "Ġtelef": 7595,
      "irat": 7596,
      "ĠBod": 7597,
      "ove": 7598,
      "Bar": 7599,
      "ĠForm": 7600,
      "Ġenskilda": 7601,
      "ĠmÃ¤nniskan": 7602,
      "Ġligan": 7603,
      "Ġminor": 7604,
      "Ġfann": 7605,
      "ationerna": 7606,
      "osh": 7607,
      "oki": 7608,
      "Ġsnarare": 7609,
      "ĠScott": 7610,
      "Ġflockblommiga": 7611,
      "ĠSC": 7612,
      "skarriÃ¤r": 7613,
      "Ġdyg": 7614,
      "iteln": 7615,
      "apt": 7616,
      "ĠCosta": 7617,
      "rjades": 7618,
      "Ġving": 7619,
      "Ġfrist": 7620,
      "Ġvall": 7621,
      "ĠThor": 7622,
      "Ġpension": 7623,
      "ĠDÃ¤rfÃ": 7624,
      "ĠsÃ¤gs": 7625,
      "familj": 7626,
      "ĠsÃ¤llskap": 7627,
      "Ġpriset": 7628,
      "Ġuniversitets": 7629,
      "Ġbomb": 7630,
      "rons": 7631,
      "ĠIsrael": 7632,
      "Ġsalt": 7633,
      "skytt": 7634,
      "ĠÃ¤ger": 7635,
      "viks": 7636,
      "âĢĺ": 7637,
      "Ġomedel": 7638,
      "Ġoberoende": 7639,
      "ĠutifrÃ¥n": 7640,
      "ĠtÃ¤nkt": 7641,
      "mande": 7642,
      "oud": 7643,
      "Ġmateri": 7644,
      "Ġkast": 7645,
      "bon": 7646,
      "Ã©s": 7647,
      "ycl": 7648,
      "rbindelse": 7649,
      "Ġtecken": 7650,
      "edia": 7651,
      "ĠÃ¥rligen": 7652,
      "ĠlÃ¤ra": 7653,
      "Ġinitiativ": 7654,
      "anal": 7655,
      "antha": 7656,
      "Ġhistorien": 7657,
      "Ġenkelt": 7658,
      "jligen": 7659,
      "Ta": 7660,
      "rvar": 7661,
      "sfisk": 7662,
      "Ġljung": 7663,
      "Karl": 7664,
      "urp": 7665,
      "Ġgrann": 7666,
      "ĠRiks": 7667,
      "Ġvol": 7668,
      "Car": 7669,
      "ĠfrÃ¥gorna": 7670,
      "Ġstannade": 7671,
      "ave": 7672,
      "ĠMusic": 7673,
      "roch": 7674,
      "varo": 7675,
      "rhÃ¥llandena": 7676,
      "Ġvarvid": 7677,
      "IS": 7678,
      "rion": 7679,
      "Ġersatte": 7680,
      "Ġavskaff": 7681,
      "filmen": 7682,
      "Ġstyrelsen": 7683,
      "Ġjazz": 7684,
      "ults": 7685,
      "Ġreklam": 7686,
      "Ġfriidrottare": 7687,
      "restÃ¥nd": 7688,
      "ĠEtiopien": 7689,
      "ĠMali": 7690,
      "Ġfria": 7691,
      "ĠSteph": 7692,
      "ĠallmÃ¤nheten": 7693,
      "vÃ¥n": 7694,
      "elli": 7695,
      "ĠpÃ¤ls": 7696,
      "Cha": 7697,
      "arer": 7698,
      "ammen": 7699,
      "otis": 7700,
      "eget": 7701,
      "ĠmarknadsfÃ": 7702,
      "Ha": 7703,
      "rlaget": 7704,
      "Ġkvalsterart": 7705,
      "Ġakadem": 7706,
      "ĠÃ¤vent": 7707,
      "Ġkomed": 7708,
      "ĠsmÃ¥harkrankar": 7709,
      "Ġtecknare": 7710,
      "Ġmik": 7711,
      "ianus": 7712,
      "ĠAnne": 7713,
      "akter": 7714,
      "ĠElfenben": 7715,
      "Ġfylumet": 7716,
      "pat": 7717,
      "ĠÅł": 7718,
      "ĠHy": 7719,
      "ĠpÃ¥st": 7720,
      "ĠKÃ¤llor": 7721,
      "ĠBukit": 7722,
      "Ġmekan": 7723,
      "Ġbegrepp": 7724,
      "sy": 7725,
      "Ġarv": 7726,
      "ĠStar": 7727,
      "ĠHorn": 7728,
      "ĠutgÃ¥": 7729,
      "ĠEstland": 7730,
      "ffe": 7731,
      "ĠsÃ¤rskild": 7732,
      "rsÃ¤kring": 7733,
      "ydda": 7734,
      "stritar": 7735,
      "kyrk": 7736,
      "Ġgest": 7737,
      "ĠanstÃ¤lldes": 7738,
      "ball": 7739,
      "RA": 7740,
      "enburg": 7741,
      "verkan": 7742,
      "Ġlokalt": 7743,
      "Ġtexter": 7744,
      "Ġseparat": 7745,
      "Ġfolkm": 7746,
      "Ġmyrart": 7747,
      "omys": 7748,
      "nst": 7749,
      "anthes": 7750,
      "filmer": 7751,
      "ĠAugu": 7752,
      "IF": 7753,
      "ĠAlm": 7754,
      "ĠGall": 7755,
      "Svenska": 7756,
      "Ġkonservat": 7757,
      "BC": 7758,
      "ĠTele": 7759,
      "Ġdistri": 7760,
      "svenska": 7761,
      "Ġfir": 7762,
      "ĠFab": 7763,
      "Ġavsnittet": 7764,
      "ĠJulius": 7765,
      "OS": 7766,
      "Crypt": 7767,
      "ĠBÃ¥da": 7768,
      "ĠStrauss": 7769,
      "Ġvul": 7770,
      "inte": 7771,
      "ĠIt": 7772,
      "ĠVirg": 7773,
      "ime": 7774,
      "ĠinrÃ¤tt": 7775,
      "ĠutmÃ¤r": 7776,
      "ĠmÃ¥tt": 7777,
      "Ġmake": 7778,
      "lÃ¤kt": 7779,
      "ĠRev": 7780,
      "Ġinstall": 7781,
      "Ġruf": 7782,
      "ĠframstÃ¥ende": 7783,
      "ĠhÃ¤rstammar": 7784,
      "VD": 7785,
      "ĠTu": 7786,
      "ĠbeslÃ": 7787,
      "Ġmedicin": 7788,
      "ĠhjÃ¤lpa": 7789,
      "ĠkrÃ¤ver": 7790,
      "ĠPhou": 7791,
      "Un": 7792,
      "ocha": 7793,
      "Ġtidning": 7794,
      "ĠhÃ¤ckar": 7795,
      "ionde": 7796,
      "ĠGruppen": 7797,
      "pis": 7798,
      "ĠpÃ¥m": 7799,
      "Ġenkel": 7800,
      "Ġhom": 7801,
      "shoppor": 7802,
      "regemente": 7803,
      "Ġprodukter": 7804,
      "ĠGal": 7805,
      "ĠFot": 7806,
      "ĠÃħland": 7807,
      "ĠJonas": 7808,
      "stal": 7809,
      "Ġopp": 7810,
      "ĠOfta": 7811,
      "Erik": 7812,
      "skop": 7813,
      "aco": 7814,
      "Ġtjock": 7815,
      "ĠFN": 7816,
      "skepp": 7817,
      "ddjur": 7818,
      "Ġfadern": 7819,
      "ones": 7820,
      "Ġtidskriften": 7821,
      "ĠElfenbenskusten": 7822,
      "vande": 7823,
      "Ġupplagan": 7824,
      "ĠFe": 7825,
      "ĠIl": 7826,
      "byggd": 7827,
      "ĠsmÃ¥ort": 7828,
      "Ġmodeller": 7829,
      "ĠLaw": 7830,
      "asen": 7831,
      "Ġelva": 7832,
      "ĠCab": 7833,
      "agua": 7834,
      "wall": 7835,
      "ĠTay": 7836,
      "ĠMala": 7837,
      "yet": 7838,
      "ĠÃ¥skÃ¥d": 7839,
      "ĠmÃ¥lade": 7840,
      "Ġekonomisk": 7841,
      "Ġoriginal": 7842,
      "Ġtillverkade": 7843,
      "ĠVik": 7844,
      "Ġfrihet": 7845,
      "meter": 7846,
      "ĠCu": 7847,
      "Ġfungerade": 7848,
      "ipennis": 7849,
      "Ġflottan": 7850,
      "ĠGabriel": 7851,
      "Ġresulterade": 7852,
      "ĠfÃ¤l": 7853,
      "ifest": 7854,
      "Ġkrimin": 7855,
      "Ġten": 7856,
      "ingham": 7857,
      "Ã¤llskapet": 7858,
      "ĠBK": 7859,
      "ĠHigh": 7860,
      "LC": 7861,
      "vdes": 7862,
      "Ġfynd": 7863,
      "Ġvintern": 7864,
      "ĠWilson": 7865,
      "organisationen": 7866,
      "Ġpolisen": 7867,
      "Ã¥gen": 7868,
      "osm": 7869,
      "Ġed": 7870,
      "olph": 7871,
      "Ġegendom": 7872,
      "ĠEr": 7873,
      "ĠbestÃ¤mde": 7874,
      "dle": 7875,
      "ĠSask": 7876,
      "ovi": 7877,
      "ĠChap": 7878,
      "ĠPeru": 7879,
      "izi": 7880,
      "ĠSulaw": 7881,
      "kins": 7882,
      "ĠLang": 7883,
      "ĠAch": 7884,
      "ĠHur": 7885,
      "Ġkostnad": 7886,
      "ĠBah": 7887,
      "ĠAu": 7888,
      "Ġparasitflugor": 7889,
      "ĠPlat": 7890,
      "Ġarkitekten": 7891,
      "ĠTeater": 7892,
      "Ġetn": 7893,
      "oleon": 7894,
      "Ġinval": 7895,
      "Ġsekt": 7896,
      "ĠElisabeth": 7897,
      "ĠBrdo": 7898,
      "ssystem": 7899,
      "ewan": 7900,
      "anni": 7901,
      "ĠLuleÃ¥": 7902,
      "ĠMadag": 7903,
      "eria": 7904,
      "ĠsvÃ¥ra": 7905,
      "ĠKatarina": 7906,
      "Äģd": 7907,
      "pning": 7908,
      "olus": 7909,
      "sgatan": 7910,
      "ĠBil": 7911,
      "Ġlett": 7912,
      "Ġerfaren": 7913,
      "medlem": 7914,
      "ubliken": 7915,
      "ĠWhite": 7916,
      "ĠstrÃ¤": 7917,
      "ĠCham": 7918,
      "ĠCra": 7919,
      "Ġtransport": 7920,
      "Ġlyckas": 7921,
      "Ġmy": 7922,
      "ĠFamilj": 7923,
      "Ġplaceras": 7924,
      "stÃ¤m": 7925,
      "Ġsamtida": 7926,
      "ietnam": 7927,
      "Ġdomstol": 7928,
      "fran": 7929,
      "Ġdriver": 7930,
      "Ġpa": 7931,
      "Ġspelen": 7932,
      "ĠAllsvenskan": 7933,
      "Ġdebutalbum": 7934,
      "Bo": 7935,
      "ÅĻ": 7936,
      "ĠTen": 7937,
      "pris": 7938,
      "ĠPod": 7939,
      "Ġmorg": 7940,
      "aran": 7941,
      "ĠTr": 7942,
      "Ġstre": 7943,
      "ĠkÃ¤nde": 7944,
      "eti": 7945,
      "Ġsky": 7946,
      "Ġmarknaden": 7947,
      "Ġprogramledare": 7948,
      "ĠGhar": 7949,
      "edom": 7950,
      "arkitekt": 7951,
      "ioder": 7952,
      "Ġdefinier": 7953,
      "artade": 7954,
      "satta": 7955,
      "orier": 7956,
      "ĠeftertrÃ¤ddes": 7957,
      "stern": 7958,
      "erner": 7959,
      "stin": 7960,
      "Johan": 7961,
      "ĠSucre": 7962,
      "ĠÃ¥kte": 7963,
      "Ġlevnad": 7964,
      "ese": 7965,
      "ĠbegÃ¤r": 7966,
      "ĠSulawesi": 7967,
      "Ã¤nning": 7968,
      "ledningen": 7969,
      "ĠBonn": 7970,
      "ĠframtrÃ¤dande": 7971,
      "ĠKun": 7972,
      "Ġfiskar": 7973,
      "ĠKarlskrona": 7974,
      "ĠExterna": 7975,
      "ĠEmil": 7976,
      "Ġinsatser": 7977,
      "Ġdrivs": 7978,
      "ĠDepartamento": 7979,
      "Vi": 7980,
      "gan": 7981,
      "ĠTurkiet": 7982,
      "iacho": 7983,
      "Sa": 7984,
      "Ġsli": 7985,
      "nis": 7986,
      "ĠBlek": 7987,
      "Ġromerska": 7988,
      "ĠKoudiat": 7989,
      "endet": 7990,
      "ĠKastilien": 7991,
      "ĠKenn": 7992,
      "inos": 7993,
      "Ġlos": 7994,
      "ĠRac": 7995,
      "ĠStates": 7996,
      "inten": 7997,
      "amerikanska": 7998,
      "Ġkusten": 7999,
      "ĠDr": 8000,
      "Ġvariant": 8001,
      "Ġomvand": 8002,
      "fulla": 8003,
      "Ġbem": 8004,
      "ĠofÃ": 8005,
      "ĠEurovis": 8006,
      "ĠKim": 8007,
      "yrÃ¥n": 8008,
      "ĠfolkrÃ¤kningen": 8009,
      "ĠlÃ¤nderna": 8010,
      "ĠAdd": 8011,
      "Ġinnehade": 8012,
      "Ġager": 8013,
      "ĠmÃ¥lningar": 8014,
      "Ġbefordrades": 8015,
      "tz": 8016,
      "ĠfullstÃ¤nd": 8017,
      "Ãª": 8018,
      "ĠFu": 8019,
      "anser": 8020,
      "ĠVictor": 8021,
      "Ġflytta": 8022,
      "Ġot": 8023,
      "Ġtapp": 8024,
      "Ġtyng": 8025,
      "ere": 8026,
      "ĠLad": 8027,
      "ĠturnÃ©": 8028,
      "ebiskop": 8029,
      "rsÃ¤ljning": 8030,
      "ĠBarcelona": 8031,
      "Ġutvid": 8032,
      "draget": 8033,
      "Ġturk": 8034,
      "ĠJones": 8035,
      "Ġomgivningen": 8036,
      "Ġkullar": 8037,
      "hy": 8038,
      "ĠfortsÃ¤tter": 8039,
      "iler": 8040,
      "ebo": 8041,
      "Ma": 8042,
      "ĠLam": 8043,
      "ĠIns": 8044,
      "ellus": 8045,
      "ĠmÃ¤sterskap": 8046,
      "Ã¥rskontrakt": 8047,
      "ĠBan": 8048,
      "Ġreligion": 8049,
      "styrelsen": 8050,
      "nem": 8051,
      "versatt": 8052,
      "Ġhuvudet": 8053,
      "ĠframstÃ¤ll": 8054,
      "ĠSofia": 8055,
      "rsvann": 8056,
      "Ġfartyget": 8057,
      "ĠUttar": 8058,
      "Ġdetalj": 8059,
      "jÃ©": 8060,
      "Ġfallet": 8061,
      "Ġbegravning": 8062,
      "Ġintroducerades": 8063,
      "Ġunderl": 8064,
      "Ġlagstift": 8065,
      "Ġstruktur": 8066,
      "gering": 8067,
      "hea": 8068,
      "ymen": 8069,
      "Ġsammanslag": 8070,
      "Ana": 8071,
      "aeus": 8072,
      "erto": 8073,
      "Ġsystemet": 8074,
      "Ġbeskrev": 8075,
      "ĠMuseum": 8076,
      "mÃ¤t": 8077,
      "Ġorganisationer": 8078,
      "gi": 8079,
      "Ġvistas": 8080,
      "ĠSydafrika": 8081,
      "Ġbuss": 8082,
      "Ġprom": 8083,
      "reningens": 8084,
      "snamn": 8085,
      "ĠutlÃ¤ndska": 8086,
      "Ġbaserat": 8087,
      "Hy": 8088,
      "Ġunger": 8089,
      "ĠslÃ¤ppt": 8090,
      "atchewan": 8091,
      "kin": 8092,
      "vfÃ¤ll": 8093,
      "splatsen": 8094,
      "ĠmÃ¥lar": 8095,
      "ĠFranÃ": 8096,
      "Ġplat": 8097,
      "ĠgÃ¤llde": 8098,
      "iration": 8099,
      "Ġinbland": 8100,
      "rstÃ¥": 8101,
      "ottern": 8102,
      "asket": 8103,
      "leden": 8104,
      "kommer": 8105,
      "Ġmic": 8106,
      "ktyg": 8107,
      "ĠupptrÃ¤dde": 8108,
      "resprÃ¥k": 8109,
      "ĠByn": 8110,
      "Ġserier": 8111,
      "Ġklara": 8112,
      "ulf": 8113,
      "ĠBeskrivning": 8114,
      "Ġkommande": 8115,
      "straf": 8116,
      "Ġinfanter": 8117,
      "ĠSaskatchewan": 8118,
      "rÃ¤der": 8119,
      "Ġantogs": 8120,
      "ĠmÃ¤r": 8121,
      "itis": 8122,
      "ologen": 8123,
      "vagnar": 8124,
      "shamn": 8125,
      "ĠClark": 8126,
      "ĠAlber": 8127,
      "vfÃ¤llande": 8128,
      "por": 8129,
      "Ġkyrkobyggnad": 8130,
      "Ġvardag": 8131,
      "Ã¥ngare": 8132,
      "ĠvÃ¤lja": 8133,
      "gÃ¤rder": 8134,
      "ĠkrÃ¤vs": 8135,
      "Ġstatliga": 8136,
      "punkten": 8137,
      "hundra": 8138,
      "Ġinred": 8139,
      "ourt": 8140,
      "SÃ": 8141,
      "ĠTheodor": 8142,
      "Ġstylt": 8143,
      "Ġvarian": 8144,
      "bÃ¤cken": 8145,
      "ĠFilippinerna": 8146,
      "iffer": 8147,
      "iflora": 8148,
      "Ġgemensamt": 8149,
      "Ġvardera": 8150,
      "rklarade": 8151,
      "Ġtunnelb": 8152,
      "ĠTab": 8153,
      "Ġtotala": 8154,
      "pes": 8155,
      "ostret": 8156,
      "Ġkvarteret": 8157,
      "Ġhotell": 8158,
      "Ġversionen": 8159,
      "Ġbebyggelse": 8160,
      "hou": 8161,
      "ĠColombo": 8162,
      "ĠframgÃ¥ngsrik": 8163,
      "ĠApp": 8164,
      "Ġkorsblomm": 8165,
      "Ġskivbolaget": 8166,
      "Ã©t": 8167,
      "visning": 8168,
      "Ġpredik": 8169,
      "Ġkonsert": 8170,
      "ĠAri": 8171,
      "bebygg": 8172,
      "ĠSin": 8173,
      "Ġskrivna": 8174,
      "Ġsynnerhet": 8175,
      "anÃ": 8176,
      "ĠansÃ": 8177,
      "ĠkÃ¤ns": 8178,
      "Ġsaknas": 8179,
      "ous": 8180,
      "Ġkrigs": 8181,
      "Myc": 8182,
      "ĠJust": 8183,
      "ĠklÃ¤tt": 8184,
      "boli": 8185,
      "Ġtropiskt": 8186,
      "Ġresor": 8187,
      "rsprung": 8188,
      "Ġkans": 8189,
      "ogn": 8190,
      "aja": 8191,
      "odellen": 8192,
      "ĠLove": 8193,
      "Ġdim": 8194,
      "ĠMadagaskar": 8195,
      "Ġdocent": 8196,
      "dahl": 8197,
      "ĠnÃ¤ssel": 8198,
      "ĠEdm": 8199,
      "jav": 8200,
      "rage": 8201,
      "Ġomtal": 8202,
      "Ġproducerades": 8203,
      "mas": 8204,
      "ĠSang": 8205,
      "ĠAle": 8206,
      "Ġarkitektur": 8207,
      "Jean": 8208,
      "Ġantik": 8209,
      "As": 8210,
      "rÃ¤dande": 8211,
      "Ġutgivet": 8212,
      "Ġinner": 8213,
      "Ġrob": 8214,
      "ĠWalter": 8215,
      "Ġtryckt": 8216,
      "ÃŃk": 8217,
      "systemet": 8218,
      "John": 8219,
      "ĠÃ¥terkom": 8220,
      "rest": 8221,
      "Ġexperiment": 8222,
      "material": 8223,
      "havet": 8224,
      "remiÃ¤r": 8225,
      "orps": 8226,
      "ĠBlom": 8227,
      "lix": 8228,
      "uccÃ©": 8229,
      "ĠMÃ¤l": 8230,
      "ĠHamburg": 8231,
      "enst": 8232,
      "skill": 8233,
      "Ġalternativ": 8234,
      "AS": 8235,
      "opf": 8236,
      "ugoslav": 8237,
      "ouri": 8238,
      "sfull": 8239,
      "ĠsÃ¥dant": 8240,
      "gs": 8241,
      "ligheter": 8242,
      "Ġvecka": 8243,
      "kort": 8244,
      "ĠAsh": 8245,
      "Ġlanserades": 8246,
      "Ġfinnas": 8247,
      "Ab": 8248,
      "ĠButt": 8249,
      "ĠlÃ¤mnat": 8250,
      "vux": 8251,
      "ĠWilliams": 8252,
      "Ġdecenn": 8253,
      "ylind": 8254,
      "tryck": 8255,
      "ĠUrsprung": 8256,
      "skor": 8257,
      "ĠEskil": 8258,
      "ifera": 8259,
      "Ġmedlemmarna": 8260,
      "Ġoro": 8261,
      "rium": 8262,
      "ique": 8263,
      "agh": 8264,
      "iks": 8265,
      "Ġprovinshuvud": 8266,
      "ensus": 8267,
      "ĠutstÃ¤llningar": 8268,
      "ĠÃ¥ker": 8269,
      "ĠWa": 8270,
      "ĠÃ¥rets": 8271,
      "ĠElit": 8272,
      "ĠmisstÃ¤n": 8273,
      "Ġmynt": 8274,
      "Ġmiljon": 8275,
      "ĠOlympiska": 8276,
      "Ġhonor": 8277,
      "Ġtitt": 8278,
      "Ġpersonal": 8279,
      "ĠCÃ³rrego": 8280,
      "Ġstam": 8281,
      "Ã¤nnande": 8282,
      "ĠkrÃ¤vde": 8283,
      "Ġuppdel": 8284,
      "ĠLaur": 8285,
      "unkel": 8286,
      "skrivare": 8287,
      "ih": 8288,
      "Ġkus": 8289,
      "Ġleva": 8290,
      "Ġdrabbades": 8291,
      "abitat": 8292,
      "Ġstudentexamen": 8293,
      "Ġhyp": 8294,
      "Ruisseau": 8295,
      "ĠComm": 8296,
      "Ġtillverkning": 8297,
      "sborgs": 8298,
      "Ã±o": 8299,
      "imen": 8300,
      "Ġintell": 8301,
      "Ġbesegrade": 8302,
      "Ġvisas": 8303,
      "Ġschweiz": 8304,
      "ĠEva": 8305,
      "Ġorkester": 8306,
      "ĠChristoph": 8307,
      "Ġru": 8308,
      "Phil": 8309,
      "Ġmetoder": 8310,
      "ĠHarry": 8311,
      "kÃ¥r": 8312,
      "ĠIbland": 8313,
      "ĠstÃ¥nd": 8314,
      "abel": 8315,
      "orges": 8316,
      "distrikt": 8317,
      "ĠEurovision": 8318,
      "bury": 8319,
      "alin": 8320,
      "ĠPy": 8321,
      "ĠPerson": 8322,
      "ĠNamn": 8323,
      "ĠutdÃ": 8324,
      "kes": 8325,
      "geringen": 8326,
      "Ġsekunder": 8327,
      "Ol": 8328,
      "emin": 8329,
      "ĠKaz": 8330,
      "ĠMelod": 8331,
      "oung": 8332,
      "shistor": 8333,
      "Ġtalar": 8334,
      "jde": 8335,
      "ĠBost": 8336,
      "edal": 8337,
      "kamp": 8338,
      "Ġkoppar": 8339,
      "ĠGuld": 8340,
      "enomen": 8341,
      "ygden": 8342,
      "ingÃ": 8343,
      "ĠBet": 8344,
      "ĠKam": 8345,
      "Ġaren": 8346,
      "Ġartikel": 8347,
      "ĠAnvÃ¤nd": 8348,
      "Ġbandets": 8349,
      "dertÃ¤lje": 8350,
      "rycket": 8351,
      "ophagus": 8352,
      "ĠMcC": 8353,
      "Ġavst": 8354,
      "arbetet": 8355,
      "Ġcer": 8356,
      "Ġfril": 8357,
      "ĠTas": 8358,
      "ĠPerth": 8359,
      "ĠkÃ¤nsl": 8360,
      "Ġinkluderar": 8361,
      "Ġberget": 8362,
      "ĠHerman": 8363,
      "Ġbilar": 8364,
      "Ġpotatis": 8365,
      "ĠHÃ¤lsing": 8366,
      "jub": 8367,
      "Ġbotan": 8368,
      "Ġpan": 8369,
      "ĠverkstÃ¤llande": 8370,
      "ĠCastle": 8371,
      "Ġformen": 8372,
      "ĠFall": 8373,
      "leken": 8374,
      "Ġkonstmuseum": 8375,
      "ĠNatura": 8376,
      "ĠNam": 8377,
      "Ġref": 8378,
      "ĠÃ¤tten": 8379,
      "rhÃ": 8380,
      "sstat": 8381,
      "ĠPortugal": 8382,
      "Re": 8383,
      "Ġextrem": 8384,
      "rala": 8385,
      "ĠSvan": 8386,
      "ute": 8387,
      "byggda": 8388,
      "Ġpassager": 8389,
      "ĠsjÃ¤tte": 8390,
      "ĠLevu": 8391,
      "eral": 8392,
      "ĠSib": 8393,
      "ljdes": 8394,
      "medaljÃ": 8395,
      "Ġkulture": 8396,
      "pol": 8397,
      "ĠEgentliga": 8398,
      "Ġtillbringade": 8399,
      "fur": 8400,
      "rÃ¤nare": 8401,
      "Ġskolor": 8402,
      "Ġdeltagare": 8403,
      "vil": 8404,
      "almuseum": 8405,
      "Ã¤llskap": 8406,
      "Dra": 8407,
      "ĠBent": 8408,
      "ience": 8409,
      "range": 8410,
      "Amph": 8411,
      "ĠAmerican": 8412,
      "ĠSkog": 8413,
      "dy": 8414,
      "ningsb": 8415,
      "huvudort": 8416,
      "Ã©m": 8417,
      "Don": 8418,
      "varn": 8419,
      "Ġkil": 8420,
      "Ġsiff": 8421,
      "Ġkav": 8422,
      "Oued": 8423,
      "yds": 8424,
      "Ġovanligt": 8425,
      "antas": 8426,
      "skad": 8427,
      "ĠAsp": 8428,
      "ites": 8429,
      "ĠRein": 8430,
      "Op": 8431,
      "ollis": 8432,
      "Ġprotest": 8433,
      "right": 8434,
      "ĠQuebrada": 8435,
      "rmodligen": 8436,
      "lagen": 8437,
      "Ġinnefatt": 8438,
      "brons": 8439,
      "Ġprefektur": 8440,
      "ĠWarren": 8441,
      "ĠAbra": 8442,
      "slÃ¤ngd": 8443,
      "ahr": 8444,
      "duktion": 8445,
      "ĠLek": 8446,
      "ront": 8447,
      "acho": 8448,
      "Po": 8449,
      "Not": 8450,
      "ĠRing": 8451,
      "rasili": 8452,
      "ĠpÃ¥minner": 8453,
      "Ġflest": 8454,
      "sminister": 8455,
      "Ġfysik": 8456,
      "Ġinvaldes": 8457,
      "ĠIvan": 8458,
      "ĠslÃ¤tt": 8459,
      "set": 8460,
      "eler": 8461,
      "ĠIndian": 8462,
      "Ġhittades": 8463,
      "satte": 8464,
      "ĠKent": 8465,
      "ĠotillrÃ¤ckligt": 8466,
      "ello": 8467,
      "ĠLager": 8468,
      "bildade": 8469,
      "urch": 8470,
      "yllis": 8471,
      "Ġvillkor": 8472,
      "Ġkungliga": 8473,
      "Ġrektor": 8474,
      "Ġefternamn": 8475,
      "Ġanledning": 8476,
      "Ġhelst": 8477,
      "Ġteori": 8478,
      "eba": 8479,
      "Ġmedia": 8480,
      "ĠPap": 8481,
      "ningsvis": 8482,
      "ĠNorm": 8483,
      "sprogram": 8484,
      "Ġkongress": 8485,
      "Ġink": 8486,
      "ĠÃĸsterbotten": 8487,
      "Ġprovinshuvudstaden": 8488,
      "ĠvÃ¤v": 8489,
      "landa": 8490,
      "familjen": 8491,
      "sbo": 8492,
      "jÃ¤s": 8493,
      "stÃ¤llda": 8494,
      "ĠFlorida": 8495,
      "ĠIndiv": 8496,
      "Ġgitarrist": 8497,
      "Ġavgick": 8498,
      "ĠFors": 8499,
      "Ġtransporter": 8500,
      "ĠÃ¥terf": 8501,
      "ĠLau": 8502,
      "smÃ": 8503,
      "Ġmord": 8504,
      "bong": 8505,
      "rister": 8506,
      "ness": 8507,
      "tjÃ¤rnen": 8508,
      "kol": 8509,
      "Ġtab": 8510,
      "inella": 8511,
      "ĠsÃ¤lja": 8512,
      "mant": 8513,
      "vapnet": 8514,
      "ĠhushÃ¥ll": 8515,
      "avg": 8516,
      "Ġgifta": 8517,
      "stjÃ¤nst": 8518,
      "sexamen": 8519,
      "umenter": 8520,
      "Ġopt": 8521,
      "Ġlab": 8522,
      "trÃ¤dde": 8523,
      "Ã¤ta": 8524,
      "alpa": 8525,
      "Ġminskade": 8526,
      "Ġteatern": 8527,
      "Ġbosatte": 8528,
      "rÃ¤ndring": 8529,
      "ĠtÃ¤cker": 8530,
      "Ġflockblommig": 8531,
      "apest": 8532,
      "Ġarterna": 8533,
      "ĠGull": 8534,
      "Ġishockeyspelare": 8535,
      "Ġborta": 8536,
      "Mor": 8537,
      "ryp": 8538,
      "ĠMoore": 8539,
      "Ġakv": 8540,
      "odend": 8541,
      "Pach": 8542,
      "Rio": 8543,
      "Ġkammar": 8544,
      "ĠOst": 8545,
      "ĠstjÃ¤rna": 8546,
      "ĠMig": 8547,
      "rekommande": 8548,
      "Ġbyggas": 8549,
      "Ġadvokat": 8550,
      "Ger": 8551,
      "krit": 8552,
      "ego": 8553,
      "Ġproduktionen": 8554,
      "ikter": 8555,
      "ĠColor": 8556,
      "zig": 8557,
      "ĠeftertrÃ¤dde": 8558,
      "Ġbearbet": 8559,
      "Ġutvecklas": 8560,
      "ĠEkologi": 8561,
      "ĠTroll": 8562,
      "Ġsty": 8563,
      "spÃ¥r": 8564,
      "Mer": 8565,
      "Ġsannolikt": 8566,
      "ĠHuset": 8567,
      "Ġborde": 8568,
      "ĠSvart": 8569,
      "Ġkr": 8570,
      "ĠRut": 8571,
      "ĠHonor": 8572,
      "officer": 8573,
      "Ġbronsmed": 8574,
      "col": 8575,
      "Ġlandsting": 8576,
      "Ġregioner": 8577,
      "ocke": 8578,
      "Ġkungens": 8579,
      "lÃ¤ggande": 8580,
      "hen": 8581,
      "urser": 8582,
      "eton": 8583,
      "dets": 8584,
      "sÃ¥ldern": 8585,
      "Hol": 8586,
      "ots": 8587,
      "inspel": 8588,
      "terar": 8589,
      "Ġhandels": 8590,
      "ĠKarlsson": 8591,
      "Ġdigit": 8592,
      "perioden": 8593,
      "strÃ¤ckning": 8594,
      "ĠkyrkogÃ¥rd": 8595,
      "bef": 8596,
      "visa": 8597,
      "vice": 8598,
      "polit": 8599,
      "Ġplacerades": 8600,
      "ĠskulptÃ": 8601,
      "xi": 8602,
      "lara": 8603,
      "Ġtrapp": 8604,
      "ĠSeg": 8605,
      "etus": 8606,
      "ree": 8607,
      "renade": 8608,
      "ĠBÃ¥de": 8609,
      "ogg": 8610,
      "oke": 8611,
      "nÃ¤m": 8612,
      "ĠLilj": 8613,
      "Ġbelg": 8614,
      "Ġregistr": 8615,
      "ĠCir": 8616,
      "dens": 8617,
      "hel": 8618,
      "Ġstrateg": 8619,
      "ĠledamÃ": 8620,
      "ĠÃ¤rkebiskop": 8621,
      "chester": 8622,
      "Ġnaturliga": 8623,
      "Ġnyck": 8624,
      "osphaer": 8625,
      "Ġkalla": 8626,
      "ĠGuyana": 8627,
      "heran": 8628,
      "Ġtrop": 8629,
      "Ġuppl": 8630,
      "aville": 8631,
      "hoe": 8632,
      "kommit": 8633,
      "Ġbergskedja": 8634,
      "Ã¤vlingen": 8635,
      "glandsklimat": 8636,
      "Ã¤ttningen": 8637,
      "ĠFederationen": 8638,
      "kades": 8639,
      "ĠIstÃ¤llet": 8640,
      "dor": 8641,
      "phia": 8642,
      "ĠJag": 8643,
      "Ġhorn": 8644,
      "Ġved": 8645,
      "rblev": 8646,
      "Ġregerings": 8647,
      "Ġkorall": 8648,
      "Ġkombination": 8649,
      "Man": 8650,
      "yne": 8651,
      "ĠXI": 8652,
      "ĠAlf": 8653,
      "Chlor": 8654,
      "ĠTysklands": 8655,
      "ĠAndreas": 8656,
      "ĠsÃ¤m": 8657,
      "oppet": 8658,
      "ĠArb": 8659,
      "ummer": 8660,
      "Ġcap": 8661,
      "ĠArvid": 8662,
      "ĠEP": 8663,
      "opl": 8664,
      "ĠLÃ¤ng": 8665,
      "brand": 8666,
      "boken": 8667,
      "yga": 8668,
      "Ġblock": 8669,
      "ĠlÃ¥tarna": 8670,
      "hÃ¤llet": 8671,
      "icornis": 8672,
      "Ã®": 8673,
      "Ġvack": 8674,
      "ahn": 8675,
      "Ġstuderad": 8676,
      "zab": 8677,
      "Euph": 8678,
      "Ġundvika": 8679,
      "eppar": 8680,
      "Pi": 8681,
      "ĠHugo": 8682,
      "ech": 8683,
      "arpa": 8684,
      "Ġkatolska": 8685,
      "Ġbrom": 8686,
      "Ġstudenter": 8687,
      "ĠsjÃ¤lvstÃ¤ndighet": 8688,
      "fal": 8689,
      "Ġsil": 8690,
      "Ġgroddjur": 8691,
      "ĠNatur": 8692,
      "Ġprot": 8693,
      "ressen": 8694,
      "ĠSerra": 8695,
      "Ġá¸": 8696,
      "ĠBudapest": 8697,
      "bad": 8698,
      "gor": 8699,
      "Ġungar": 8700,
      "rlÃ¤gg": 8701,
      "Ġtall": 8702,
      "Ġgrott": 8703,
      "spektiv": 8704,
      "ĠomgÃ¥ngen": 8705,
      "Ġmelod": 8706,
      "Ġparet": 8707,
      "verens": 8708,
      "Ġgjorts": 8709,
      "vare": 8710,
      "Ġtydlig": 8711,
      "ĠSkell": 8712,
      "ĠvÃ¥ningar": 8713,
      "ymer": 8714,
      "rtro": 8715,
      "ĠtÃ¤torten": 8716,
      "ĠsÃ¤nde": 8717,
      "Ġnationalpark": 8718,
      "olution": 8719,
      "Ġopera": 8720,
      "itud": 8721,
      "komma": 8722,
      "ycke": 8723,
      "rhindra": 8724,
      "ĠÃĸstersund": 8725,
      "Ġrepresenterar": 8726,
      "rarnas": 8727,
      "Ġkunnat": 8728,
      "Ġrepublik": 8729,
      "Ġprins": 8730,
      "Ġrevolutionen": 8731,
      "fÃ¤ltet": 8732,
      "ĠDrottning": 8733,
      "ĠtrÃ¤ffade": 8734,
      "Ġdis": 8735,
      "fess": 8736,
      "Ġinvester": 8737,
      "Ġsvampdjursart": 8738,
      "Ġkonsek": 8739,
      "ĠOrdet": 8740,
      "rslaget": 8741,
      "Ter": 8742,
      "Ver": 8743,
      "Eur": 8744,
      "ĠsÃ¤rskilda": 8745,
      "Ġgruppens": 8746,
      "ules": 8747,
      "Ġbedrev": 8748,
      "ĠBorÃ¥s": 8749,
      "Eri": 8750,
      "Ġskot": 8751,
      "ĠFranska": 8752,
      "mde": 8753,
      "isen": 8754,
      "motor": 8755,
      "ulin": 8756,
      "rvÃ¤nt": 8757,
      "ĠTob": 8758,
      "ĠTÃ¤t": 8759,
      "stjÃ¤n": 8760,
      "rell": 8761,
      "Ġuteslut": 8762,
      "ĠGyll": 8763,
      "Ġhuvudrollen": 8764,
      "ĠÃĦng": 8765,
      "ĠPek": 8766,
      "Ġintens": 8767,
      "Ġrid": 8768,
      "skans": 8769,
      "Ġgla": 8770,
      "jukdom": 8771,
      "bank": 8772,
      "ĠNun": 8773,
      "ĠSvensson": 8774,
      "Ġkonfli": 8775,
      "ugn": 8776,
      "ped": 8777,
      "Ġsjunde": 8778,
      "ĠUlf": 8779,
      "kam": 8780,
      "ĠRun": 8781,
      "yrus": 8782,
      "rosophila": 8783,
      "ĠHaw": 8784,
      "wald": 8785,
      "ĠPin": 8786,
      "rÃ¤tts": 8787,
      "irs": 8788,
      "ĠPic": 8789,
      "kÃ¤r": 8790,
      "Ġproducerade": 8791,
      "Ġobserver": 8792,
      "ĠOrganis": 8793,
      "etti": 8794,
      "ĠContest": 8795,
      "arra": 8796,
      "ĠNationalmuseum": 8797,
      "duras": 8798,
      "ĠSydamerika": 8799,
      "Ant": 8800,
      "Ġvarv": 8801,
      "antin": 8802,
      "Arg": 8803,
      "ÃŃs": 8804,
      "outi": 8805,
      "ublika": 8806,
      "Ã¤lla": 8807,
      "ĠLiksom": 8808,
      "CA": 8809,
      "ĠtillfÃ¤lle": 8810,
      "ĠavrÃ¤tt": 8811,
      "Jag": 8812,
      "Ġbetala": 8813,
      "ĠClub": 8814,
      "ĠÃĸstantarktis": 8815,
      "ĠLat": 8816,
      "ople": 8817,
      "Ġexpl": 8818,
      "ĠJackson": 8819,
      "ĠGill": 8820,
      "ocer": 8821,
      "Ġpansar": 8822,
      "ĠGeneral": 8823,
      "esia": 8824,
      "lÃ¤mningar": 8825,
      "Ġdebatt": 8826,
      "Tan": 8827,
      "Ġnat": 8828,
      "ĠCur": 8829,
      "ĠFeli": 8830,
      "Ġskott": 8831,
      "Ġbrasili": 8832,
      "Ġupprep": 8833,
      "Ġfrivill": 8834,
      "rester": 8835,
      "almar": 8836,
      "Ġkyrkliga": 8837,
      "ĠtÃ¤vlingar": 8838,
      "ĠNed": 8839,
      "Ġpap": 8840,
      "ourne": 8841,
      "ĠFilip": 8842,
      "Ġproducent": 8843,
      "bur": 8844,
      "Ġrinner": 8845,
      "ĠHonduras": 8846,
      "ĠmÃ¤ngder": 8847,
      "ĠvÃ¤der": 8848,
      "icolor": 8849,
      "zzaville": 8850,
      "ĠOh": 8851,
      "iled": 8852,
      "ĠjÃ¤rnvÃ¤gen": 8853,
      "ĠUS": 8854,
      "ĠvÃ¤rldsc": 8855,
      "ĠDor": 8856,
      "oussouk": 8857,
      "Ġstyrka": 8858,
      "Ġvarum": 8859,
      "ĠIngen": 8860,
      "ĠLed": 8861,
      "ĠlÃ¤kemedel": 8862,
      "lam": 8863,
      "ogel": 8864,
      "osen": 8865,
      "ĠstÃ¤derna": 8866,
      "ĠLiber": 8867,
      "Ġfamiljer": 8868,
      "ĠChi": 8869,
      "bÃ©": 8870,
      "oussoukro": 8871,
      "rema": 8872,
      "attslÃ¤ndor": 8873,
      "ĠVe": 8874,
      "ĠOch": 8875,
      "ĠYamoussoukro": 8876,
      "ĠOber": 8877,
      "istiskt": 8878,
      "bilden": 8879,
      "Ġrytt": 8880,
      "elserna": 8881,
      "Ġnejlik": 8882,
      "rbud": 8883,
      "hoven": 8884,
      "Ġplacering": 8885,
      "rbjud": 8886,
      "Ġetablerade": 8887,
      "rflytt": 8888,
      "ĠHay": 8889,
      "produktion": 8890,
      "jligheter": 8891,
      "ĠBlekinge": 8892,
      "entian": 8893,
      "Ġansvarig": 8894,
      "vÃ¤rld": 8895,
      "Ġute": 8896,
      "yta": 8897,
      "inis": 8898,
      "ĠDarah": 8899,
      "ĠtrÃ¤dde": 8900,
      "ĠCro": 8901,
      "ĠRobin": 8902,
      "Ġhastighet": 8903,
      "Ã¤kten": 8904,
      "Ġturneringen": 8905,
      "Ġhittills": 8906,
      "historia": 8907,
      "ĠWin": 8908,
      "Ġmetal": 8909,
      "stri": 8910,
      "ĠTran": 8911,
      "Ġexakt": 8912,
      "ĠkÃ¤nner": 8913,
      "sÃ¤ttningen": 8914,
      "Ġskydda": 8915,
      "Ġungdoms": 8916,
      "ÃŁ": 8917,
      "Ġcom": 8918,
      "uropa": 8919,
      "Ġundan": 8920,
      "aven": 8921,
      "elset": 8922,
      "Ġbehandlas": 8923,
      "cyk": 8924,
      "matÃ": 8925,
      "Ġkonvent": 8926,
      "ylon": 8927,
      "ĠsÃ¤tta": 8928,
      "tain": 8929,
      "Ġdelade": 8930,
      "ĠUkra": 8931,
      "Ġisol": 8932,
      "Ġkollekt": 8933,
      "ĠtonsÃ¤tt": 8934,
      "sko": 8935,
      "unct": 8936,
      "Ġkonflikt": 8937,
      "nn": 8938,
      "ĠGard": 8939,
      "Ġplanerade": 8940,
      "ĠHamilton": 8941,
      "Ġjob": 8942,
      "Ġautomat": 8943,
      "raph": 8944,
      "MS": 8945,
      "ĠutstrÃ¤ckning": 8946,
      "ĠmÃ¥let": 8947,
      "ĠHard": 8948,
      "reslog": 8949,
      "restÃ¥ndare": 8950,
      "alf": 8951,
      "ĠKas": 8952,
      "Ġoss": 8953,
      "Ġdesign": 8954,
      "ĠVietnam": 8955,
      "egy": 8956,
      "Ġpraktiken": 8957,
      "Ġannars": 8958,
      "ental": 8959,
      "ĠHolly": 8960,
      "Ã¤lsen": 8961,
      "Ġfolket": 8962,
      "Ġutvecklat": 8963,
      "ĠlÃ¥ga": 8964,
      "bitare": 8965,
      "atset": 8966,
      "ship": 8967,
      "Ġmission": 8968,
      "avtal": 8969,
      "Ġparlamentet": 8970,
      "ĠEdvard": 8971,
      "ĠpremiÃ¤rminister": 8972,
      "rez": 8973,
      "ugis": 8974,
      "Ġfattig": 8975,
      "stjÃ¤rn": 8976,
      "Ġpopulation": 8977,
      "Ġmjuk": 8978,
      "ĠMika": 8979,
      "Ġkommunikation": 8980,
      "ĠSkandinav": 8981,
      "Ġlinjen": 8982,
      "ocephalus": 8983,
      "ĠOri": 8984,
      "Ġinvand": 8985,
      "ĠDistriktet": 8986,
      "ttes": 8987,
      "pas": 8988,
      "Ġglest": 8989,
      "aspis": 8990,
      "tan": 8991,
      "sser": 8992,
      "ardi": 8993,
      "ĠHov": 8994,
      "ologiskt": 8995,
      "ĠRoth": 8996,
      "ĠJa": 8997,
      "raren": 8998,
      "ĠgÃ¤rna": 8999,
      "sse": 9000,
      "itter": 9001,
      "ĠsÃ¤te": 9002,
      "udi": 9003,
      "Ġslutar": 9004,
      "Se": 9005,
      "jade": 9006,
      "itus": 9007,
      "verv": 9008,
      "elk": 9009,
      "floden": 9010,
      "rbi": 9011,
      "Che": 9012,
      "Ġnaturen": 9013,
      "komp": 9014,
      "Ġegentliga": 9015,
      "ĠhÃ¥lls": 9016,
      "ĠlÃ¤ttare": 9017,
      "ĠCi": 9018,
      "Ġkyrkoherde": 9019,
      "Sv": 9020,
      "utskottet": 9021,
      "ĠAns": 9022,
      "ĠOn": 9023,
      "ĠenhjÃ¤rtbladig": 9024,
      "sbygd": 9025,
      "isering": 9026,
      "ĠGrund": 9027,
      "ln": 9028,
      "nipp": 9029,
      "stning": 9030,
      "Ġvem": 9031,
      "ĠBow": 9032,
      "atorer": 9033,
      "ĠLit": 9034,
      "Ġsplitt": 9035,
      "hail": 9036,
      "ungeb": 9037,
      "ĠerbjÃ": 9038,
      "Ġkammaren": 9039,
      "agar": 9040,
      "rater": 9041,
      "ugan": 9042,
      "teri": 9043,
      "ĠRoll": 9044,
      "ĠTw": 9045,
      "ĠDjib": 9046,
      "ĠShan": 9047,
      "ĠkonstnÃ¤rer": 9048,
      "ĠÃ¤ndamÃ¥l": 9049,
      "ocken": 9050,
      "Ġvarianter": 9051,
      "atak": 9052,
      "ĠCarolina": 9053,
      "ĠOla": 9054,
      "ĠherrgÃ¥rd": 9055,
      "ĠPhilip": 9056,
      "Cat": 9057,
      "ĠBall": 9058,
      "Ġerk": 9059,
      "ĠGroup": 9060,
      "mod": 9061,
      "Ġinl": 9062,
      "ĠlÃ¤rde": 9063,
      "rollerna": 9064,
      "llop": 9065,
      "ĠgrÃ¤shoppor": 9066,
      "fon": 9067,
      "lekt": 9068,
      "edig": 9069,
      "Ġtoppen": 9070,
      "kvarter": 9071,
      "ĠLidingÃ": 9072,
      "grÃ": 9073,
      "Ġsagt": 9074,
      "skamper": 9075,
      "alum": 9076,
      "Cent": 9077,
      "nus": 9078,
      "ithe": 9079,
      "sessan": 9080,
      "ĠPont": 9081,
      "Ġmedicine": 9082,
      "Ġskador": 9083,
      "ftet": 9084,
      "Ġklockan": 9085,
      "ĠCompany": 9086,
      "Hel": 9087,
      "ĠtillÃ¥t": 9088,
      "Ġfeder": 9089,
      "lagda": 9090,
      "Ġromant": 9091,
      "cen": 9092,
      "cernen": 9093,
      "rÃ¤de": 9094,
      "grÃ¥": 9095,
      "amerikansk": 9096,
      "Ġtrodde": 9097,
      "Ġfinansier": 9098,
      "gel": 9099,
      "Ġdep": 9100,
      "ornas": 9101,
      "Ġorder": 9102,
      "ocker": 9103,
      "ĠstÃ¤lldes": 9104,
      "Ġfilosofi": 9105,
      "ĠmÃ¤nskliga": 9106,
      "Ġromersk": 9107,
      "Od": 9108,
      "Ġpersonliga": 9109,
      "Ġflit": 9110,
      "Ġalp": 9111,
      "vag": 9112,
      "perm": 9113,
      "Ġborgerliga": 9114,
      "RÃ": 9115,
      "Ġombild": 9116,
      "ialiser": 9117,
      "zen": 9118,
      "Ġmynnar": 9119,
      "ĠDNA": 9120,
      "ĠCer": 9121,
      "Ġspekt": 9122,
      "ĠlÃ¤ngst": 9123,
      "Ġvinn": 9124,
      "ĠdÃ¥ligt": 9125,
      "ĠÃĸstersjÃ": 9126,
      "ĠKrig": 9127,
      "ĠFru": 9128,
      "Ġjurist": 9129,
      "Ġmusk": 9130,
      "ĠEt": 9131,
      "ĠSeri": 9132,
      "idion": 9133,
      "Ġmyndigheter": 9134,
      "ĠAsk": 9135,
      "ason": 9136,
      "Ġinvald": 9137,
      "ĠsÃ¤ker": 9138,
      "rdeskriget": 9139,
      "barn": 9140,
      "ĠTeheran": 9141,
      "ĠNue": 9142,
      "onica": 9143,
      "relÃ¤s": 9144,
      "ĠDVD": 9145,
      "smÃ¤ss": 9146,
      "lapp": 9147,
      "ĠGir": 9148,
      "iste": 9149,
      "ĠKall": 9150,
      "rekord": 9151,
      "Ġdeltagit": 9152,
      "He": 9153,
      "Ġantas": 9154,
      "Ġromaner": 9155,
      "ĠGilbert": 9156,
      "ĠSjÃ¤lv": 9157,
      "Ġskal": 9158,
      "Ġlivsmedel": 9159,
      "rsvarsmakten": 9160,
      "Ġflydde": 9161,
      "Ġtorg": 9162,
      "Ġabb": 9163,
      "ĠSachsen": 9164,
      "stÃ¤": 9165,
      "ĠRange": 9166,
      "aktiv": 9167,
      "ĠAlberta": 9168,
      "Ġbana": 9169,
      "ĠHud": 9170,
      "Ġformellt": 9171,
      "ĠlÃ¤mnar": 9172,
      "Ġvaria": 9173,
      "FC": 9174,
      "ymnas": 9175,
      "Ġrekomm": 9176,
      "ĠmÃ¤sterskapet": 9177,
      "ularia": 9178,
      "Ġpersonen": 9179,
      "ĠÃ¤ventyr": 9180,
      "Ġsur": 9181,
      "ĠDjibouti": 9182,
      "Ġaff": 9183,
      "ĠhÃ¤nder": 9184,
      "cos": 9185,
      "asjÃ": 9186,
      "rning": 9187,
      "ĠtilltrÃ¤dde": 9188,
      "Ġolja": 9189,
      "ĠrÃ¤dda": 9190,
      "orpha": 9191,
      "lech": 9192,
      "alistiska": 9193,
      "emo": 9194,
      "hÃ¤ngare": 9195,
      "ĠBran": 9196,
      "ĠomnÃ¤m": 9197,
      "Ġinriktning": 9198,
      "Med": 9199,
      "ĠstjÃ¤rt": 9200,
      "vinn": 9201,
      "righeten": 9202,
      "ynam": 9203,
      "rint": 9204,
      "ĠBulu": 9205,
      "Ġbox": 9206,
      "Ġhovet": 9207,
      "Ġsovjetiska": 9208,
      "akh": 9209,
      "ĠhÃ¤ndelser": 9210,
      "Ġmedborgare": 9211,
      "Ġlive": 9212,
      "ungebin": 9213,
      "ĠÃħke": 9214,
      "Com": 9215,
      "Ġgenomgick": 9216,
      "ĠBez": 9217,
      "retagets": 9218,
      "mÃ¤l": 9219,
      "Ġdata": 9220,
      "ĠlandshÃ": 9221,
      "Acanth": 9222,
      "ĠSlÃ¤ktet": 9223,
      "ettan": 9224,
      "Ã¤ngen": 9225,
      "ĠtÃ¤vlar": 9226,
      "mord": 9227,
      "oriet": 9228,
      "Ġparken": 9229,
      "Ġhabitat": 9230,
      "Ġanne": 9231,
      "sledare": 9232,
      "ĠBy": 9233,
      "Ġutman": 9234,
      "dast": 9235,
      "ĠsistnÃ¤mnda": 9236,
      "rina": 9237,
      "Ġstudie": 9238,
      "ĠSlut": 9239,
      "anschen": 9240,
      "ĠEsp": 9241,
      "Ġbyggt": 9242,
      "ĠtvÃ¤r": 9243,
      "Ġkritiker": 9244,
      "ĠFinska": 9245,
      "ospora": 9246,
      "tÃ¤vlingen": 9247,
      "tÃ¥g": 9248,
      "ĠSlott": 9249,
      "ells": 9250,
      "byte": 9251,
[...]
